{
  "version": "1.0",
  "truncation": {
    "direction": "Right",
    "max_length": 128,
    "strategy": "LongestFirst",
    "stride": 0
  },
  "padding": {
    "strategy": {
      "Fixed": 128
    },
    "direction": "Right",
    "pad_to_multiple_of": null,
    "pad_id": 0,
    "pad_type_id": 0,
    "pad_token": "[PAD]"
  },
  "added_tokens": [
    {
      "id": 0,
      "content": "[PAD]",
      "single_word": false,
      "lstrip": false,
      "rstrip": false,
      "normalized": false,
      "special": true
    },
    {
      "id": 1,
      "content": "[UNK]",
      "single_word": false,
      "lstrip": false,
      "rstrip": false,
      "normalized": false,
      "special": true
    },
    {
      "id": 2,
      "content": "[CLS]",
      "single_word": false,
      "lstrip": false,
      "rstrip": false,
      "normalized": false,
      "special": true
    },
    {
      "id": 3,
      "content": "[SEP]",
      "single_word": false,
      "lstrip": false,
      "rstrip": false,
      "normalized": false,
      "special": true
    },
    {
      "id": 4,
      "content": "[MASK]",
      "single_word": false,
      "lstrip": false,
      "rstrip": false,
      "normalized": false,
      "special": true
    }
  ],
  "normalizer": {
    "type": "BertNormalizer",
    "clean_text": true,
    "handle_chinese_chars": true,
    "strip_accents": null,
    "lowercase": false
  },
  "pre_tokenizer": {
    "type": "BertPreTokenizer"
  },
  "post_processor": {
    "type": "TemplateProcessing",
    "single": [
      {
        "SpecialToken": {
          "id": "[CLS]",
          "type_id": 0
        }
      },
      {
        "Sequence": {
          "id": "A",
          "type_id": 0
        }
      },
      {
        "SpecialToken": {
          "id": "[SEP]",
          "type_id": 0
        }
      }
    ],
    "pair": [
      {
        "SpecialToken": {
          "id": "[CLS]",
          "type_id": 0
        }
      },
      {
        "Sequence": {
          "id": "A",
          "type_id": 0
        }
      },
      {
        "SpecialToken": {
          "id": "[SEP]",
          "type_id": 0
        }
      },
      {
        "Sequence": {
          "id": "B",
          "type_id": 1
        }
      },
      {
        "SpecialToken": {
          "id": "[SEP]",
          "type_id": 1
        }
      }
    ],
    "special_tokens": {
      "[CLS]": {
        "id": "[CLS]",
        "ids": [
          2
        ],
        "tokens": [
          "[CLS]"
        ]
      },
      "[SEP]": {
        "id": "[SEP]",
        "ids": [
          3
        ],
        "tokens": [
          "[SEP]"
        ]
      }
    }
  },
  "decoder": {
    "type": "WordPiece",
    "prefix": "##",
    "cleanup": true
  },
  "model": {
    "type": "WordPiece",
    "unk_token": "[UNK]",
    "continuing_subword_prefix": "##",
    "max_input_chars_per_word": 100,
    "vocab": {
      "[PAD]": 0,
      "[UNK]": 1,
      "[CLS]": 2,
      "[SEP]": 3,
      "[MASK]": 4,
      "!": 5,
      "#": 6,
      "$": 7,
      "%": 8,
      "(": 9,
      ")": 10,
      "*": 11,
      ",": 12,
      ".": 13,
      "/": 14,
      "0": 15,
      "1": 16,
      "2": 17,
      "3": 18,
      "4": 19,
      "5": 20,
      "6": 21,
      "7": 22,
      "8": 23,
      "9": 24,
      "?": 25,
      "@": 26,
      "A": 27,
      "B": 28,
      "C": 29,
      "D": 30,
      "E": 31,
      "F": 32,
      "G": 33,
      "H": 34,
      "I": 35,
      "J": 36,
      "K": 37,
      "L": 38,
      "M": 39,
      "N": 40,
      "O": 41,
      "P": 42,
      "Q": 43,
      "R": 44,
      "S": 45,
      "T": 46,
      "U": 47,
      "V": 48,
      "W": 49,
      "X": 50,
      "Y": 51,
      "Z": 52,
      "a": 53,
      "b": 54,
      "c": 55,
      "d": 56,
      "e": 57,
      "f": 58,
      "g": 59,
      "h": 60,
      "i": 61,
      "j": 62,
      "k": 63,
      "l": 64,
      "m": 65,
      "n": 66,
      "o": 67,
      "p": 68,
      "q": 69,
      "r": 70,
      "s": 71,
      "t": 72,
      "u": 73,
      "v": 74,
      "w": 75,
      "x": 76,
      "y": 77,
      "z": 78,
      "~": 79,
      "·": 80,
      "‼": 81,
      "⁉": 82,
      "⃣": 83,
      "™": 84,
      "↗": 85,
      "↘": 86,
      "∼": 87,
      "▪": 88,
      "▶": 89,
      "◀": 90,
      "◻": 91,
      "◾": 92,
      "☎": 93,
      "☠": 94,
      "☺": 95,
      "♀": 96,
      "♂": 97,
      "♠": 98,
      "♥": 99,
      "♨": 100,
      "⚠": 101,
      "⚡": 102,
      "⚰": 103,
      "⛔": 104,
      "✅": 105,
      "✈": 106,
      "✊": 107,
      "✋": 108,
      "✌": 109,
      "✔": 110,
      "✖": 111,
      "✨": 112,
      "❄": 113,
      "❌": 114,
      "❓": 115,
      "❕": 116,
      "❗": 117,
      "❣": 118,
      "❤": 119,
      "➕": 120,
      "➡": 121,
      "⭐": 122,
      "⭕": 123,
      "〰": 124,
      "ㄱ": 125,
      "ㄲ": 126,
      "ㄳ": 127,
      "ㄴ": 128,
      "ㄵ": 129,
      "ㄷ": 130,
      "ㄸ": 131,
      "ㄹ": 132,
      "ㄻ": 133,
      "ㅁ": 134,
      "ㅂ": 135,
      "ㅃ": 136,
      "ㅄ": 137,
      "ㅅ": 138,
      "ㅆ": 139,
      "ㅇ": 140,
      "ㅈ": 141,
      "ㅉ": 142,
      "ㅊ": 143,
      "ㅋ": 144,
      "ㅌ": 145,
      "ㅍ": 146,
      "ㅎ": 147,
      "ㅏ": 148,
      "ㅐ": 149,
      "ㅑ": 150,
      "ㅒ": 151,
      "ㅓ": 152,
      "ㅔ": 153,
      "ㅕ": 154,
      "ㅖ": 155,
      "ㅗ": 156,
      "ㅘ": 157,
      "ㅛ": 158,
      "ㅜ": 159,
      "ㅝ": 160,
      "ㅟ": 161,
      "ㅠ": 162,
      "ㅡ": 163,
      "ㅢ": 164,
      "ㅣ": 165,
      "ㆍ": 166,
      "㈔": 167,
      "㈜": 168,
      "㎍": 169,
      "㎎": 170,
      "㎏": 171,
      "㎒": 172,
      "㎓": 173,
      "㎖": 174,
      "㎘": 175,
      "㎚": 176,
      "㎛": 177,
      "㎜": 178,
      "㎝": 179,
      "㎞": 180,
      "㎡": 181,
      "㎢": 182,
      "㎥": 183,
      "㎾": 184,
      "㎿": 185,
      "㏄": 186,
      "㏊": 187,
      "一": 188,
      "三": 189,
      "上": 190,
      "下": 191,
      "不": 192,
      "世": 193,
      "中": 194,
      "主": 195,
      "乃": 196,
      "之": 197,
      "习": 198,
      "了": 199,
      "事": 200,
      "二": 201,
      "亡": 202,
      "京": 203,
      "人": 204,
      "仁": 205,
      "代": 206,
      "令": 207,
      "以": 208,
      "作": 209,
      "你": 210,
      "信": 211,
      "倍": 212,
      "元": 213,
      "先": 214,
      "光": 215,
      "內": 216,
      "全": 217,
      "八": 218,
      "公": 219,
      "共": 220,
      "冥": 221,
      "出": 222,
      "前": 223,
      "力": 224,
      "化": 225,
      "北": 226,
      "十": 227,
      "南": 228,
      "反": 229,
      "口": 230,
      "古": 231,
      "台": 232,
      "史": 233,
      "合": 234,
      "同": 235,
      "名": 236,
      "君": 237,
      "命": 238,
      "和": 239,
      "四": 240,
      "国": 241,
      "國": 242,
      "圖": 243,
      "在": 244,
      "地": 245,
      "城": 246,
      "報": 247,
      "場": 248,
      "多": 249,
      "夜": 250,
      "夢": 251,
      "大": 252,
      "天": 253,
      "女": 254,
      "奴": 255,
      "好": 256,
      "子": 257,
      "孝": 258,
      "孟": 259,
      "學": 260,
      "安": 261,
      "官": 262,
      "定": 263,
      "害": 264,
      "家": 265,
      "富": 266,
      "寒": 267,
      "射": 268,
      "對": 269,
      "小": 270,
      "尹": 271,
      "展": 272,
      "山": 273,
      "島": 274,
      "川": 275,
      "州": 276,
      "己": 277,
      "市": 278,
      "帶": 279,
      "平": 280,
      "年": 281,
      "張": 282,
      "强": 283,
      "後": 284,
      "德": 285,
      "心": 286,
      "必": 287,
      "志": 288,
      "性": 289,
      "恨": 290,
      "情": 291,
      "惡": 292,
      "意": 293,
      "愛": 294,
      "成": 295,
      "我": 296,
      "戰": 297,
      "所": 298,
      "手": 299,
      "持": 300,
      "支": 301,
      "政": 302,
      "故": 303,
      "教": 304,
      "文": 305,
      "新": 306,
      "日": 307,
      "明": 308,
      "春": 309,
      "是": 310,
      "時": 311,
      "晋": 312,
      "曰": 313,
      "最": 314,
      "會": 315,
      "月": 316,
      "有": 317,
      "朝": 318,
      "本": 319,
      "朴": 320,
      "李": 321,
      "東": 322,
      "林": 323,
      "業": 324,
      "樂": 325,
      "檢": 326,
      "歌": 327,
      "正": 328,
      "死": 329,
      "殃": 330,
      "毅": 331,
      "母": 332,
      "民": 333,
      "氣": 334,
      "水": 335,
      "氷": 336,
      "永": 337,
      "江": 338,
      "河": 339,
      "治": 340,
      "法": 341,
      "洞": 342,
      "洪": 343,
      "流": 344,
      "海": 345,
      "淸": 346,
      "滅": 347,
      "漢": 348,
      "灣": 349,
      "災": 350,
      "無": 351,
      "照": 352,
      "爲": 353,
      "父": 354,
      "犬": 355,
      "狗": 356,
      "王": 357,
      "現": 358,
      "球": 359,
      "生": 360,
      "産": 361,
      "用": 362,
      "田": 363,
      "由": 364,
      "甲": 365,
      "男": 366,
      "病": 367,
      "發": 368,
      "白": 369,
      "百": 370,
      "的": 371,
      "相": 372,
      "省": 373,
      "知": 374,
      "石": 375,
      "社": 376,
      "神": 377,
      "福": 378,
      "私": 379,
      "種": 380,
      "空": 381,
      "立": 382,
      "節": 383,
      "結": 384,
      "罪": 385,
      "美": 386,
      "義": 387,
      "習": 388,
      "老": 389,
      "者": 390,
      "聖": 391,
      "脫": 392,
      "自": 393,
      "臺": 394,
      "與": 395,
      "舊": 396,
      "舟": 397,
      "色": 398,
      "花": 399,
      "英": 400,
      "茶": 401,
      "華": 402,
      "萬": 403,
      "號": 404,
      "蟲": 405,
      "行": 406,
      "西": 407,
      "要": 408,
      "親": 409,
      "記": 410,
      "詩": 411,
      "警": 412,
      "賢": 413,
      "賣": 414,
      "路": 415,
      "身": 416,
      "軍": 417,
      "近": 418,
      "这": 419,
      "道": 420,
      "郞": 421,
      "都": 422,
      "酒": 423,
      "野": 424,
      "金": 425,
      "錄": 426,
      "長": 427,
      "門": 428,
      "门": 429,
      "靑": 430,
      "非": 431,
      "面": 432,
      "韓": 433,
      "頭": 434,
      "風": 435,
      "飛": 436,
      "馬": 437,
      "高": 438,
      "黨": 439,
      "꙼": 440,
      "가": 441,
      "각": 442,
      "간": 443,
      "갇": 444,
      "갈": 445,
      "갉": 446,
      "감": 447,
      "갑": 448,
      "값": 449,
      "갓": 450,
      "갔": 451,
      "강": 452,
      "갖": 453,
      "갗": 454,
      "갘": 455,
      "같": 456,
      "갚": 457,
      "갛": 458,
      "개": 459,
      "객": 460,
      "갠": 461,
      "갤": 462,
      "갬": 463,
      "갭": 464,
      "갯": 465,
      "갰": 466,
      "갱": 467,
      "갸": 468,
      "갹": 469,
      "갼": 470,
      "걀": 471,
      "걍": 472,
      "걑": 473,
      "걔": 474,
      "걘": 475,
      "거": 476,
      "걱": 477,
      "건": 478,
      "걷": 479,
      "걸": 480,
      "검": 481,
      "겁": 482,
      "것": 483,
      "겄": 484,
      "겅": 485,
      "겆": 486,
      "겉": 487,
      "겊": 488,
      "겋": 489,
      "게": 490,
      "겍": 491,
      "겐": 492,
      "겔": 493,
      "겜": 494,
      "겝": 495,
      "겟": 496,
      "겠": 497,
      "겡": 498,
      "겧": 499,
      "겨": 500,
      "격": 501,
      "겪": 502,
      "견": 503,
      "결": 504,
      "겸": 505,
      "겹": 506,
      "겻": 507,
      "겼": 508,
      "경": 509,
      "곀": 510,
      "곁": 511,
      "계": 512,
      "곈": 513,
      "곗": 514,
      "곘": 515,
      "고": 516,
      "곡": 517,
      "곤": 518,
      "곧": 519,
      "골": 520,
      "곪": 521,
      "곯": 522,
      "곰": 523,
      "곱": 524,
      "곳": 525,
      "공": 526,
      "곶": 527,
      "곸": 528,
      "과": 529,
      "곽": 530,
      "관": 531,
      "괄": 532,
      "괌": 533,
      "괏": 534,
      "광": 535,
      "괘": 536,
      "괜": 537,
      "괞": 538,
      "괭": 539,
      "괴": 540,
      "괸": 541,
      "굉": 542,
      "교": 543,
      "굔": 544,
      "굘": 545,
      "굣": 546,
      "굥": 547,
      "구": 548,
      "국": 549,
      "굯": 550,
      "군": 551,
      "굳": 552,
      "굴": 553,
      "굵": 554,
      "굶": 555,
      "굼": 556,
      "굽": 557,
      "굿": 558,
      "궁": 559,
      "궂": 560,
      "궄": 561,
      "궈": 562,
      "궉": 563,
      "권": 564,
      "궐": 565,
      "궜": 566,
      "궤": 567,
      "궨": 568,
      "귀": 569,
      "귄": 570,
      "귈": 571,
      "귐": 572,
      "귓": 573,
      "규": 574,
      "귝": 575,
      "균": 576,
      "귤": 577,
      "그": 578,
      "극": 579,
      "근": 580,
      "귿": 581,
      "글": 582,
      "긁": 583,
      "금": 584,
      "급": 585,
      "긋": 586,
      "긍": 587,
      "긑": 588,
      "긔": 589,
      "긕": 590,
      "기": 591,
      "긱": 592,
      "긴": 593,
      "길": 594,
      "김": 595,
      "깁": 596,
      "깃": 597,
      "깄": 598,
      "깅": 599,
      "깆": 600,
      "깉": 601,
      "깊": 602,
      "까": 603,
      "깍": 604,
      "깎": 605,
      "깐": 606,
      "깔": 607,
      "깜": 608,
      "깝": 609,
      "깞": 610,
      "깟": 611,
      "깠": 612,
      "깡": 613,
      "깤": 614,
      "깥": 615,
      "깨": 616,
      "깬": 617,
      "깰": 618,
      "깸": 619,
      "깻": 620,
      "깼": 621,
      "깽": 622,
      "꺄": 623,
      "꺅": 624,
      "꺠": 625,
      "꺨": 626,
      "꺼": 627,
      "꺽": 628,
      "꺾": 629,
      "껀": 630,
      "껄": 631,
      "껌": 632,
      "껍": 633,
      "껏": 634,
      "껐": 635,
      "껑": 636,
      "께": 637,
      "껜": 638,
      "껨": 639,
      "껫": 640,
      "껭": 641,
      "껴": 642,
      "꼇": 643,
      "꼈": 644,
      "꼐": 645,
      "꼬": 646,
      "꼭": 647,
      "꼰": 648,
      "꼴": 649,
      "꼼": 650,
      "꼽": 651,
      "꼿": 652,
      "꽁": 653,
      "꽂": 654,
      "꽃": 655,
      "꽈": 656,
      "꽉": 657,
      "꽌": 658,
      "꽐": 659,
      "꽝": 660,
      "꽤": 661,
      "꽥": 662,
      "꽹": 663,
      "꾀": 664,
      "꾱": 665,
      "꾸": 666,
      "꾹": 667,
      "꾼": 668,
      "꿀": 669,
      "꿇": 670,
      "꿈": 671,
      "꿉": 672,
      "꿋": 673,
      "꿍": 674,
      "꿎": 675,
      "꿏": 676,
      "꿔": 677,
      "꿘": 678,
      "꿜": 679,
      "꿧": 680,
      "꿨": 681,
      "꿩": 682,
      "꿰": 683,
      "뀌": 684,
      "뀐": 685,
      "뀔": 686,
      "뀜": 687,
      "뀝": 688,
      "뀨": 689,
      "끄": 690,
      "끈": 691,
      "끊": 692,
      "끋": 693,
      "끌": 694,
      "끍": 695,
      "끓": 696,
      "끔": 697,
      "끕": 698,
      "끗": 699,
      "끙": 700,
      "끝": 701,
      "끠": 702,
      "끼": 703,
      "끽": 704,
      "낀": 705,
      "낄": 706,
      "낌": 707,
      "낍": 708,
      "낑": 709,
      "나": 710,
      "낙": 711,
      "낚": 712,
      "난": 713,
      "낟": 714,
      "날": 715,
      "낡": 716,
      "남": 717,
      "납": 718,
      "낫": 719,
      "났": 720,
      "낭": 721,
      "낮": 722,
      "낯": 723,
      "낰": 724,
      "낱": 725,
      "낳": 726,
      "내": 727,
      "낵": 728,
      "낸": 729,
      "낼": 730,
      "냄": 731,
      "냅": 732,
      "냇": 733,
      "냈": 734,
      "냉": 735,
      "냐": 736,
      "냑": 737,
      "냔": 738,
      "냘": 739,
      "냠": 740,
      "냣": 741,
      "냥": 742,
      "냨": 743,
      "냬": 744,
      "너": 745,
      "넉": 746,
      "넋": 747,
      "넌": 748,
      "널": 749,
      "넒": 750,
      "넓": 751,
      "넘": 752,
      "넙": 753,
      "넛": 754,
      "넜": 755,
      "넝": 756,
      "넣": 757,
      "네": 758,
      "넥": 759,
      "넨": 760,
      "넬": 761,
      "넴": 762,
      "넵": 763,
      "넷": 764,
      "넸": 765,
      "넹": 766,
      "넼": 767,
      "녀": 768,
      "녁": 769,
      "년": 770,
      "녈": 771,
      "념": 772,
      "녓": 773,
      "녔": 774,
      "녕": 775,
      "녘": 776,
      "녜": 777,
      "노": 778,
      "녹": 779,
      "논": 780,
      "놀": 781,
      "놈": 782,
      "놉": 783,
      "놋": 784,
      "농": 785,
      "놐": 786,
      "높": 787,
      "놓": 788,
      "놔": 789,
      "놧": 790,
      "놨": 791,
      "놯": 792,
      "뇌": 793,
      "뇨": 794,
      "뇬": 795,
      "뇰": 796,
      "뇸": 797,
      "뇽": 798,
      "누": 799,
      "눅": 800,
      "눈": 801,
      "눌": 802,
      "눔": 803,
      "눕": 804,
      "눗": 805,
      "눙": 806,
      "눜": 807,
      "눟": 808,
      "눠": 809,
      "눴": 810,
      "눼": 811,
      "뉘": 812,
      "뉜": 813,
      "뉠": 814,
      "뉨": 815,
      "뉩": 816,
      "뉴": 817,
      "뉸": 818,
      "늄": 819,
      "늅": 820,
      "늉": 821,
      "느": 822,
      "늑": 823,
      "는": 824,
      "늕": 825,
      "늗": 826,
      "늘": 827,
      "늙": 828,
      "늠": 829,
      "늣": 830,
      "능": 831,
      "늦": 832,
      "늨": 833,
      "늪": 834,
      "늫": 835,
      "늬": 836,
      "니": 837,
      "닉": 838,
      "닌": 839,
      "닏": 840,
      "닐": 841,
      "님": 842,
      "닙": 843,
      "닛": 844,
      "닜": 845,
      "닝": 846,
      "닠": 847,
      "닢": 848,
      "다": 849,
      "닥": 850,
      "닦": 851,
      "단": 852,
      "닫": 853,
      "달": 854,
      "닭": 855,
      "닮": 856,
      "닳": 857,
      "담": 858,
      "답": 859,
      "닷": 860,
      "당": 861,
      "닺": 862,
      "닻": 863,
      "닼": 864,
      "닿": 865,
      "대": 866,
      "댁": 867,
      "댄": 868,
      "댈": 869,
      "댐": 870,
      "댑": 871,
      "댓": 872,
      "댔": 873,
      "댕": 874,
      "댘": 875,
      "댜": 876,
      "댠": 877,
      "댱": 878,
      "댸": 879,
      "더": 880,
      "덕": 881,
      "던": 882,
      "덜": 883,
      "덟": 884,
      "덤": 885,
      "덥": 886,
      "덧": 887,
      "덩": 888,
      "덪": 889,
      "덫": 890,
      "덮": 891,
      "덯": 892,
      "데": 893,
      "덱": 894,
      "덴": 895,
      "델": 896,
      "뎀": 897,
      "뎁": 898,
      "뎃": 899,
      "뎄": 900,
      "뎅": 901,
      "뎈": 902,
      "뎌": 903,
      "뎐": 904,
      "뎠": 905,
      "뎨": 906,
      "도": 907,
      "독": 908,
      "돈": 909,
      "돋": 910,
      "돌": 911,
      "돔": 912,
      "돕": 913,
      "돗": 914,
      "동": 915,
      "돚": 916,
      "돛": 917,
      "돝": 918,
      "돟": 919,
      "돠": 920,
      "돤": 921,
      "돨": 922,
      "돼": 923,
      "됀": 924,
      "됄": 925,
      "됌": 926,
      "됍": 927,
      "됏": 928,
      "됐": 929,
      "되": 930,
      "된": 931,
      "될": 932,
      "됨": 933,
      "됩": 934,
      "됫": 935,
      "됬": 936,
      "됭": 937,
      "됴": 938,
      "둉": 939,
      "두": 940,
      "둑": 941,
      "둔": 942,
      "둘": 943,
      "둠": 944,
      "둡": 945,
      "둣": 946,
      "둥": 947,
      "둬": 948,
      "둿": 949,
      "뒀": 950,
      "뒈": 951,
      "뒤": 952,
      "뒷": 953,
      "뒹": 954,
      "듀": 955,
      "듁": 956,
      "듄": 957,
      "듈": 958,
      "듐": 959,
      "듕": 960,
      "드": 961,
      "득": 962,
      "든": 963,
      "듣": 964,
      "들": 965,
      "듦": 966,
      "듬": 967,
      "듭": 968,
      "듯": 969,
      "등": 970,
      "듵": 971,
      "듷": 972,
      "듸": 973,
      "디": 974,
      "딕": 975,
      "딘": 976,
      "딛": 977,
      "딜": 978,
      "딤": 979,
      "딥": 980,
      "딧": 981,
      "딨": 982,
      "딩": 983,
      "딪": 984,
      "딫": 985,
      "딮": 986,
      "따": 987,
      "딱": 988,
      "딲": 989,
      "딴": 990,
      "딸": 991,
      "땀": 992,
      "땁": 993,
      "땃": 994,
      "땄": 995,
      "땅": 996,
      "땋": 997,
      "때": 998,
      "땍": 999,
      "땐": 1000,
      "땔": 1001,
      "땜": 1002,
      "땟": 1003,
      "땠": 1004,
      "땡": 1005,
      "땨": 1006,
      "떄": 1007,
      "떈": 1008,
      "떔": 1009,
      "떙": 1010,
      "떠": 1011,
      "떡": 1012,
      "떤": 1013,
      "떨": 1014,
      "떫": 1015,
      "떰": 1016,
      "떱": 1017,
      "떳": 1018,
      "떴": 1019,
      "떵": 1020,
      "떻": 1021,
      "떼": 1022,
      "떽": 1023,
      "뗀": 1024,
      "뗄": 1025,
      "뗌": 1026,
      "뗏": 1027,
      "뗐": 1028,
      "뗑": 1029,
      "뗘": 1030,
      "뗴": 1031,
      "또": 1032,
      "똑": 1033,
      "똔": 1034,
      "똘": 1035,
      "똠": 1036,
      "똥": 1037,
      "똬": 1038,
      "똭": 1039,
      "뙈": 1040,
      "뙤": 1041,
      "뚕": 1042,
      "뚜": 1043,
      "뚝": 1044,
      "뚠": 1045,
      "뚤": 1046,
      "뚫": 1047,
      "뚱": 1048,
      "뛔": 1049,
      "뛰": 1050,
      "뛴": 1051,
      "뛸": 1052,
      "뜀": 1053,
      "뜁": 1054,
      "뜨": 1055,
      "뜩": 1056,
      "뜬": 1057,
      "뜯": 1058,
      "뜰": 1059,
      "뜸": 1060,
      "뜹": 1061,
      "뜻": 1062,
      "뜽": 1063,
      "띁": 1064,
      "띄": 1065,
      "띈": 1066,
      "띌": 1067,
      "띔": 1068,
      "띕": 1069,
      "띠": 1070,
      "띡": 1071,
      "띤": 1072,
      "띨": 1073,
      "띵": 1074,
      "라": 1075,
      "락": 1076,
      "란": 1077,
      "랄": 1078,
      "람": 1079,
      "랍": 1080,
      "랏": 1081,
      "랐": 1082,
      "랑": 1083,
      "랔": 1084,
      "랖": 1085,
      "랗": 1086,
      "래": 1087,
      "랙": 1088,
      "랜": 1089,
      "랠": 1090,
      "램": 1091,
      "랩": 1092,
      "랫": 1093,
      "랬": 1094,
      "랭": 1095,
      "랰": 1096,
      "랴": 1097,
      "략": 1098,
      "랸": 1099,
      "랼": 1100,
      "럄": 1101,
      "량": 1102,
      "럐": 1103,
      "러": 1104,
      "럭": 1105,
      "런": 1106,
      "럴": 1107,
      "럼": 1108,
      "럽": 1109,
      "럿": 1110,
      "렀": 1111,
      "렁": 1112,
      "렇": 1113,
      "레": 1114,
      "렉": 1115,
      "렌": 1116,
      "렐": 1117,
      "렘": 1118,
      "렙": 1119,
      "렛": 1120,
      "렜": 1121,
      "렝": 1122,
      "려": 1123,
      "력": 1124,
      "련": 1125,
      "렬": 1126,
      "렴": 1127,
      "렵": 1128,
      "렷": 1129,
      "렸": 1130,
      "령": 1131,
      "렿": 1132,
      "례": 1133,
      "롄": 1134,
      "로": 1135,
      "록": 1136,
      "론": 1137,
      "롤": 1138,
      "롬": 1139,
      "롭": 1140,
      "롯": 1141,
      "롱": 1142,
      "롷": 1143,
      "롸": 1144,
      "롹": 1145,
      "뢀": 1146,
      "뢔": 1147,
      "뢰": 1148,
      "료": 1149,
      "룐": 1150,
      "룔": 1151,
      "룡": 1152,
      "루": 1153,
      "룩": 1154,
      "룬": 1155,
      "룰": 1156,
      "룸": 1157,
      "룹": 1158,
      "룻": 1159,
      "룽": 1160,
      "뤄": 1161,
      "뤈": 1162,
      "뤌": 1163,
      "뤘": 1164,
      "뤠": 1165,
      "뤼": 1166,
      "뤽": 1167,
      "류": 1168,
      "륙": 1169,
      "륜": 1170,
      "률": 1171,
      "륨": 1172,
      "륭": 1173,
      "르": 1174,
      "륵": 1175,
      "른": 1176,
      "를": 1177,
      "름": 1178,
      "릅": 1179,
      "릇": 1180,
      "릉": 1181,
      "릎": 1182,
      "릏": 1183,
      "릐": 1184,
      "리": 1185,
      "릭": 1186,
      "린": 1187,
      "릴": 1188,
      "림": 1189,
      "립": 1190,
      "릿": 1191,
      "맀": 1192,
      "링": 1193,
      "맄": 1194,
      "마": 1195,
      "막": 1196,
      "만": 1197,
      "많": 1198,
      "맏": 1199,
      "말": 1200,
      "맑": 1201,
      "맗": 1202,
      "맘": 1203,
      "맙": 1204,
      "맛": 1205,
      "맜": 1206,
      "망": 1207,
      "맞": 1208,
      "맟": 1209,
      "맡": 1210,
      "맣": 1211,
      "매": 1212,
      "맥": 1213,
      "맨": 1214,
      "맬": 1215,
      "맴": 1216,
      "맵": 1217,
      "맷": 1218,
      "맸": 1219,
      "맹": 1220,
      "맺": 1221,
      "먀": 1222,
      "먄": 1223,
      "먈": 1224,
      "먕": 1225,
      "머": 1226,
      "먹": 1227,
      "먼": 1228,
      "멀": 1229,
      "멈": 1230,
      "멉": 1231,
      "멊": 1232,
      "멋": 1233,
      "멌": 1234,
      "멍": 1235,
      "멎": 1236,
      "멏": 1237,
      "멓": 1238,
      "메": 1239,
      "멕": 1240,
      "멘": 1241,
      "멜": 1242,
      "멤": 1243,
      "멥": 1244,
      "멧": 1245,
      "멨": 1246,
      "멩": 1247,
      "며": 1248,
      "멱": 1249,
      "면": 1250,
      "멸": 1251,
      "몀": 1252,
      "몃": 1253,
      "몄": 1254,
      "명": 1255,
      "몆": 1256,
      "몇": 1257,
      "몈": 1258,
      "몌": 1259,
      "모": 1260,
      "목": 1261,
      "몪": 1262,
      "몫": 1263,
      "몬": 1264,
      "몰": 1265,
      "몸": 1266,
      "몹": 1267,
      "못": 1268,
      "몽": 1269,
      "몾": 1270,
      "뫄": 1271,
      "뫼": 1272,
      "묘": 1273,
      "묙": 1274,
      "묜": 1275,
      "묠": 1276,
      "묫": 1277,
      "묭": 1278,
      "무": 1279,
      "묵": 1280,
      "묶": 1281,
      "문": 1282,
      "묻": 1283,
      "물": 1284,
      "묽": 1285,
      "뭄": 1286,
      "뭅": 1287,
      "뭇": 1288,
      "뭉": 1289,
      "뭍": 1290,
      "뭏": 1291,
      "뭐": 1292,
      "뭔": 1293,
      "뭘": 1294,
      "뭡": 1295,
      "뭣": 1296,
      "뭥": 1297,
      "뭬": 1298,
      "뮈": 1299,
      "뮌": 1300,
      "뮐": 1301,
      "뮛": 1302,
      "뮤": 1303,
      "뮨": 1304,
      "뮬": 1305,
      "뮴": 1306,
      "므": 1307,
      "믁": 1308,
      "믄": 1309,
      "믈": 1310,
      "믐": 1311,
      "믓": 1312,
      "믕": 1313,
      "믜": 1314,
      "미": 1315,
      "믹": 1316,
      "민": 1317,
      "믽": 1318,
      "믾": 1319,
      "믿": 1320,
      "밀": 1321,
      "밈": 1322,
      "밉": 1323,
      "밋": 1324,
      "밌": 1325,
      "밍": 1326,
      "밎": 1327,
      "및": 1328,
      "밑": 1329,
      "바": 1330,
      "박": 1331,
      "밖": 1332,
      "반": 1333,
      "받": 1334,
      "발": 1335,
      "밝": 1336,
      "밞": 1337,
      "밟": 1338,
      "밣": 1339,
      "밤": 1340,
      "밥": 1341,
      "밦": 1342,
      "밧": 1343,
      "밨": 1344,
      "방": 1345,
      "밬": 1346,
      "밭": 1347,
      "배": 1348,
      "백": 1349,
      "밴": 1350,
      "밷": 1351,
      "밸": 1352,
      "뱀": 1353,
      "뱁": 1354,
      "뱃": 1355,
      "뱅": 1356,
      "뱉": 1357,
      "뱌": 1358,
      "뱍": 1359,
      "뱐": 1360,
      "뱔": 1361,
      "뱡": 1362,
      "버": 1363,
      "벅": 1364,
      "번": 1365,
      "벋": 1366,
      "벌": 1367,
      "범": 1368,
      "법": 1369,
      "벗": 1370,
      "벙": 1371,
      "벚": 1372,
      "베": 1373,
      "벡": 1374,
      "벤": 1375,
      "벧": 1376,
      "벨": 1377,
      "벳": 1378,
      "벵": 1379,
      "벹": 1380,
      "벼": 1381,
      "벽": 1382,
      "변": 1383,
      "별": 1384,
      "볌": 1385,
      "볍": 1386,
      "볏": 1387,
      "볐": 1388,
      "병": 1389,
      "볕": 1390,
      "볜": 1391,
      "보": 1392,
      "복": 1393,
      "볶": 1394,
      "본": 1395,
      "볼": 1396,
      "봄": 1397,
      "봅": 1398,
      "봇": 1399,
      "봉": 1400,
      "봐": 1401,
      "봣": 1402,
      "봤": 1403,
      "봥": 1404,
      "봨": 1405,
      "봬": 1406,
      "뵈": 1407,
      "뵌": 1408,
      "뵐": 1409,
      "뵙": 1410,
      "뵜": 1411,
      "뵤": 1412,
      "뵨": 1413,
      "뵹": 1414,
      "부": 1415,
      "북": 1416,
      "분": 1417,
      "붇": 1418,
      "불": 1419,
      "붉": 1420,
      "붐": 1421,
      "붑": 1422,
      "붓": 1423,
      "붕": 1424,
      "붙": 1425,
      "뷁": 1426,
      "뷔": 1427,
      "뷰": 1428,
      "뷱": 1429,
      "뷴": 1430,
      "뷸": 1431,
      "븅": 1432,
      "브": 1433,
      "븍": 1434,
      "븐": 1435,
      "블": 1436,
      "븡": 1437,
      "븥": 1438,
      "븨": 1439,
      "비": 1440,
      "빅": 1441,
      "빈": 1442,
      "빋": 1443,
      "빌": 1444,
      "빔": 1445,
      "빕": 1446,
      "빗": 1447,
      "빙": 1448,
      "빚": 1449,
      "빛": 1450,
      "빠": 1451,
      "빡": 1452,
      "빢": 1453,
      "빤": 1454,
      "빨": 1455,
      "빰": 1456,
      "빱": 1457,
      "빳": 1458,
      "빴": 1459,
      "빵": 1460,
      "빻": 1461,
      "빼": 1462,
      "빽": 1463,
      "뺀": 1464,
      "뺃": 1465,
      "뺄": 1466,
      "뺌": 1467,
      "뺏": 1468,
      "뺐": 1469,
      "뺑": 1470,
      "뺘": 1471,
      "뺠": 1472,
      "뺨": 1473,
      "뺴": 1474,
      "뻇": 1475,
      "뻐": 1476,
      "뻑": 1477,
      "뻔": 1478,
      "뻗": 1479,
      "뻘": 1480,
      "뻠": 1481,
      "뻣": 1482,
      "뻤": 1483,
      "뻥": 1484,
      "뻬": 1485,
      "뻰": 1486,
      "뼈": 1487,
      "뼉": 1488,
      "뼘": 1489,
      "뼛": 1490,
      "뼝": 1491,
      "뽀": 1492,
      "뽁": 1493,
      "뽂": 1494,
      "뽄": 1495,
      "뽈": 1496,
      "뽐": 1497,
      "뽑": 1498,
      "뽕": 1499,
      "뽜": 1500,
      "뽤": 1501,
      "뾰": 1502,
      "뿅": 1503,
      "뿌": 1504,
      "뿍": 1505,
      "뿐": 1506,
      "뿔": 1507,
      "뿜": 1508,
      "뿟": 1509,
      "뿡": 1510,
      "쁘": 1511,
      "쁜": 1512,
      "쁠": 1513,
      "쁨": 1514,
      "쁩": 1515,
      "삐": 1516,
      "삑": 1517,
      "삔": 1518,
      "삘": 1519,
      "삣": 1520,
      "삥": 1521,
      "사": 1522,
      "삭": 1523,
      "삯": 1524,
      "산": 1525,
      "살": 1526,
      "삵": 1527,
      "삶": 1528,
      "삻": 1529,
      "삼": 1530,
      "삽": 1531,
      "삿": 1532,
      "샀": 1533,
      "상": 1534,
      "샅": 1535,
      "샆": 1536,
      "새": 1537,
      "색": 1538,
      "샊": 1539,
      "샌": 1540,
      "샏": 1541,
      "샐": 1542,
      "샘": 1543,
      "샙": 1544,
      "샛": 1545,
      "샜": 1546,
      "생": 1547,
      "샠": 1548,
      "샤": 1549,
      "샥": 1550,
      "샨": 1551,
      "샬": 1552,
      "샴": 1553,
      "샵": 1554,
      "샷": 1555,
      "샹": 1556,
      "샾": 1557,
      "섀": 1558,
      "섕": 1559,
      "서": 1560,
      "석": 1561,
      "섞": 1562,
      "선": 1563,
      "섣": 1564,
      "설": 1565,
      "섬": 1566,
      "섭": 1567,
      "섯": 1568,
      "섰": 1569,
      "성": 1570,
      "섴": 1571,
      "섶": 1572,
      "세": 1573,
      "섹": 1574,
      "센": 1575,
      "셀": 1576,
      "셈": 1577,
      "셉": 1578,
      "셋": 1579,
      "셌": 1580,
      "셍": 1581,
      "셐": 1582,
      "셑": 1583,
      "셔": 1584,
      "셕": 1585,
      "션": 1586,
      "셜": 1587,
      "셤": 1588,
      "셧": 1589,
      "셨": 1590,
      "셩": 1591,
      "셰": 1592,
      "셱": 1593,
      "셴": 1594,
      "셸": 1595,
      "소": 1596,
      "속": 1597,
      "솎": 1598,
      "손": 1599,
      "솓": 1600,
      "솔": 1601,
      "솜": 1602,
      "솝": 1603,
      "솟": 1604,
      "송": 1605,
      "솤": 1606,
      "솥": 1607,
      "솨": 1608,
      "솽": 1609,
      "쇄": 1610,
      "쇠": 1611,
      "쇳": 1612,
      "쇼": 1613,
      "쇽": 1614,
      "숀": 1615,
      "숄": 1616,
      "숍": 1617,
      "숏": 1618,
      "숑": 1619,
      "수": 1620,
      "숙": 1621,
      "순": 1622,
      "숟": 1623,
      "술": 1624,
      "숨": 1625,
      "숩": 1626,
      "숫": 1627,
      "숭": 1628,
      "숯": 1629,
      "숱": 1630,
      "숲": 1631,
      "숴": 1632,
      "숸": 1633,
      "쉅": 1634,
      "쉈": 1635,
      "쉐": 1636,
      "쉑": 1637,
      "쉔": 1638,
      "쉘": 1639,
      "쉣": 1640,
      "쉨": 1641,
      "쉬": 1642,
      "쉭": 1643,
      "쉰": 1644,
      "쉴": 1645,
      "쉼": 1646,
      "쉽": 1647,
      "쉿": 1648,
      "슈": 1649,
      "슉": 1650,
      "슌": 1651,
      "슐": 1652,
      "슘": 1653,
      "슙": 1654,
      "슛": 1655,
      "슝": 1656,
      "스": 1657,
      "슥": 1658,
      "슨": 1659,
      "슬": 1660,
      "슭": 1661,
      "슴": 1662,
      "습": 1663,
      "슷": 1664,
      "승": 1665,
      "슼": 1666,
      "싀": 1667,
      "싄": 1668,
      "싑": 1669,
      "시": 1670,
      "식": 1671,
      "신": 1672,
      "싢": 1673,
      "싣": 1674,
      "실": 1675,
      "싨": 1676,
      "싫": 1677,
      "심": 1678,
      "십": 1679,
      "싯": 1680,
      "싱": 1681,
      "싴": 1682,
      "싶": 1683,
      "싷": 1684,
      "싸": 1685,
      "싹": 1686,
      "싼": 1687,
      "쌀": 1688,
      "쌈": 1689,
      "쌉": 1690,
      "쌋": 1691,
      "쌌": 1692,
      "쌍": 1693,
      "쌓": 1694,
      "쌔": 1695,
      "쌕": 1696,
      "쌘": 1697,
      "쌤": 1698,
      "쌨": 1699,
      "쌩": 1700,
      "쌰": 1701,
      "썅": 1702,
      "썌": 1703,
      "써": 1704,
      "썩": 1705,
      "썪": 1706,
      "썬": 1707,
      "썰": 1708,
      "썸": 1709,
      "썹": 1710,
      "썻": 1711,
      "썼": 1712,
      "썽": 1713,
      "쎀": 1714,
      "쎄": 1715,
      "쎅": 1716,
      "쎈": 1717,
      "쎌": 1718,
      "쎔": 1719,
      "쎠": 1720,
      "쎼": 1721,
      "쏘": 1722,
      "쏙": 1723,
      "쏜": 1724,
      "쏟": 1725,
      "쏠": 1726,
      "쏨": 1727,
      "쏩": 1728,
      "쏫": 1729,
      "쏭": 1730,
      "쏱": 1731,
      "쏴": 1732,
      "쏵": 1733,
      "쏼": 1734,
      "쐇": 1735,
      "쐈": 1736,
      "쐐": 1737,
      "쐬": 1738,
      "쑈": 1739,
      "쑤": 1740,
      "쑥": 1741,
      "쑨": 1742,
      "쑬": 1743,
      "쑹": 1744,
      "쒀": 1745,
      "쒜": 1746,
      "쒯": 1747,
      "쒸": 1748,
      "쓉": 1749,
      "쓔": 1750,
      "쓰": 1751,
      "쓱": 1752,
      "쓴": 1753,
      "쓸": 1754,
      "씀": 1755,
      "씁": 1756,
      "씅": 1757,
      "씌": 1758,
      "씐": 1759,
      "씨": 1760,
      "씩": 1761,
      "씬": 1762,
      "씰": 1763,
      "씸": 1764,
      "씹": 1765,
      "씻": 1766,
      "씽": 1767,
      "앂": 1768,
      "아": 1769,
      "악": 1770,
      "안": 1771,
      "앉": 1772,
      "않": 1773,
      "알": 1774,
      "앍": 1775,
      "앎": 1776,
      "앓": 1777,
      "암": 1778,
      "압": 1779,
      "앖": 1780,
      "앗": 1781,
      "았": 1782,
      "앙": 1783,
      "앚": 1784,
      "앜": 1785,
      "앞": 1786,
      "앟": 1787,
      "애": 1788,
      "액": 1789,
      "앤": 1790,
      "앨": 1791,
      "앰": 1792,
      "앱": 1793,
      "앳": 1794,
      "앴": 1795,
      "앵": 1796,
      "야": 1797,
      "약": 1798,
      "얀": 1799,
      "얄": 1800,
      "얇": 1801,
      "얌": 1802,
      "얍": 1803,
      "얏": 1804,
      "얐": 1805,
      "양": 1806,
      "얔": 1807,
      "얕": 1808,
      "얗": 1809,
      "얘": 1810,
      "얜": 1811,
      "어": 1812,
      "억": 1813,
      "얷": 1814,
      "언": 1815,
      "얹": 1816,
      "얺": 1817,
      "얻": 1818,
      "얼": 1819,
      "얽": 1820,
      "엄": 1821,
      "업": 1822,
      "없": 1823,
      "엇": 1824,
      "었": 1825,
      "엉": 1826,
      "엊": 1827,
      "엌": 1828,
      "엎": 1829,
      "엏": 1830,
      "에": 1831,
      "엑": 1832,
      "엔": 1833,
      "엘": 1834,
      "엠": 1835,
      "엡": 1836,
      "엣": 1837,
      "엤": 1838,
      "엥": 1839,
      "엨": 1840,
      "여": 1841,
      "역": 1842,
      "엮": 1843,
      "연": 1844,
      "열": 1845,
      "엷": 1846,
      "염": 1847,
      "엽": 1848,
      "엾": 1849,
      "엿": 1850,
      "였": 1851,
      "영": 1852,
      "옄": 1853,
      "옅": 1854,
      "옆": 1855,
      "옇": 1856,
      "예": 1857,
      "옌": 1858,
      "옐": 1859,
      "옘": 1860,
      "옛": 1861,
      "옜": 1862,
      "오": 1863,
      "옥": 1864,
      "온": 1865,
      "올": 1866,
      "옭": 1867,
      "옮": 1868,
      "옳": 1869,
      "옴": 1870,
      "옵": 1871,
      "옶": 1872,
      "옷": 1873,
      "옹": 1874,
      "옻": 1875,
      "옼": 1876,
      "와": 1877,
      "왁": 1878,
      "완": 1879,
      "왈": 1880,
      "왐": 1881,
      "왑": 1882,
      "왓": 1883,
      "왔": 1884,
      "왕": 1885,
      "왘": 1886,
      "왚": 1887,
      "왜": 1888,
      "왠": 1889,
      "왤": 1890,
      "왱": 1891,
      "외": 1892,
      "왼": 1893,
      "욀": 1894,
      "욌": 1895,
      "욍": 1896,
      "요": 1897,
      "욕": 1898,
      "욘": 1899,
      "욜": 1900,
      "욤": 1901,
      "욥": 1902,
      "욧": 1903,
      "용": 1904,
      "욬": 1905,
      "욯": 1906,
      "우": 1907,
      "욱": 1908,
      "운": 1909,
      "울": 1910,
      "욹": 1911,
      "움": 1912,
      "웁": 1913,
      "웃": 1914,
      "웅": 1915,
      "워": 1916,
      "웍": 1917,
      "원": 1918,
      "월": 1919,
      "웜": 1920,
      "웟": 1921,
      "웠": 1922,
      "웡": 1923,
      "웤": 1924,
      "웨": 1925,
      "웩": 1926,
      "웬": 1927,
      "웰": 1928,
      "웸": 1929,
      "웹": 1930,
      "웽": 1931,
      "위": 1932,
      "윅": 1933,
      "윈": 1934,
      "윌": 1935,
      "윔": 1936,
      "윕": 1937,
      "윗": 1938,
      "윘": 1939,
      "윙": 1940,
      "유": 1941,
      "육": 1942,
      "윤": 1943,
      "율": 1944,
      "윰": 1945,
      "윳": 1946,
      "융": 1947,
      "윷": 1948,
      "으": 1949,
      "윽": 1950,
      "윾": 1951,
      "은": 1952,
      "읃": 1953,
      "을": 1954,
      "읇": 1955,
      "읊": 1956,
      "음": 1957,
      "읍": 1958,
      "읎": 1959,
      "읏": 1960,
      "응": 1961,
      "읔": 1962,
      "읕": 1963,
      "읗": 1964,
      "의": 1965,
      "읜": 1966,
      "읭": 1967,
      "이": 1968,
      "익": 1969,
      "인": 1970,
      "읹": 1971,
      "읺": 1972,
      "읻": 1973,
      "일": 1974,
      "읽": 1975,
      "잃": 1976,
      "임": 1977,
      "입": 1978,
      "잆": 1979,
      "잇": 1980,
      "있": 1981,
      "잉": 1982,
      "잊": 1983,
      "잌": 1984,
      "잎": 1985,
      "잏": 1986,
      "자": 1987,
      "작": 1988,
      "잔": 1989,
      "잖": 1990,
      "잗": 1991,
      "잘": 1992,
      "잠": 1993,
      "잡": 1994,
      "잣": 1995,
      "잤": 1996,
      "장": 1997,
      "잦": 1998,
      "잪": 1999,
      "잫": 2000,
      "재": 2001,
      "잭": 2002,
      "잰": 2003,
      "잴": 2004,
      "잼": 2005,
      "잽": 2006,
      "잿": 2007,
      "쟀": 2008,
      "쟁": 2009,
      "쟈": 2010,
      "쟉": 2011,
      "쟌": 2012,
      "쟎": 2013,
      "쟐": 2014,
      "쟝": 2015,
      "쟤": 2016,
      "쟨": 2017,
      "저": 2018,
      "적": 2019,
      "전": 2020,
      "절": 2021,
      "젊": 2022,
      "젋": 2023,
      "젏": 2024,
      "점": 2025,
      "접": 2026,
      "젓": 2027,
      "젔": 2028,
      "정": 2029,
      "젖": 2030,
      "젛": 2031,
      "제": 2032,
      "젝": 2033,
      "젠": 2034,
      "젤": 2035,
      "젬": 2036,
      "젭": 2037,
      "젯": 2038,
      "젱": 2039,
      "져": 2040,
      "젹": 2041,
      "젼": 2042,
      "졀": 2043,
      "졉": 2044,
      "졋": 2045,
      "졌": 2046,
      "졍": 2047,
      "졎": 2048,
      "졓": 2049,
      "졔": 2050,
      "조": 2051,
      "족": 2052,
      "존": 2053,
      "졷": 2054,
      "졸": 2055,
      "좀": 2056,
      "좁": 2057,
      "좃": 2058,
      "좄": 2059,
      "종": 2060,
      "좆": 2061,
      "좇": 2062,
      "좉": 2063,
      "좋": 2064,
      "좌": 2065,
      "좍": 2066,
      "좔": 2067,
      "좝": 2068,
      "좡": 2069,
      "좨": 2070,
      "죄": 2071,
      "죈": 2072,
      "죌": 2073,
      "죗": 2074,
      "죙": 2075,
      "죠": 2076,
      "죤": 2077,
      "죨": 2078,
      "죳": 2079,
      "죵": 2080,
      "주": 2081,
      "죽": 2082,
      "준": 2083,
      "줄": 2084,
      "줌": 2085,
      "줍": 2086,
      "줏": 2087,
      "중": 2088,
      "줒": 2089,
      "줗": 2090,
      "줘": 2091,
      "줜": 2092,
      "줠": 2093,
      "줫": 2094,
      "줬": 2095,
      "줭": 2096,
      "줮": 2097,
      "줴": 2098,
      "쥐": 2099,
      "쥑": 2100,
      "쥔": 2101,
      "쥘": 2102,
      "쥤": 2103,
      "쥥": 2104,
      "쥬": 2105,
      "쥭": 2106,
      "쥰": 2107,
      "쥴": 2108,
      "즁": 2109,
      "즈": 2110,
      "즉": 2111,
      "즌": 2112,
      "즐": 2113,
      "즘": 2114,
      "즙": 2115,
      "즛": 2116,
      "증": 2117,
      "즤": 2118,
      "즹": 2119,
      "지": 2120,
      "직": 2121,
      "진": 2122,
      "짆": 2123,
      "짇": 2124,
      "질": 2125,
      "짊": 2126,
      "짐": 2127,
      "집": 2128,
      "짒": 2129,
      "짓": 2130,
      "징": 2131,
      "짖": 2132,
      "짘": 2133,
      "짙": 2134,
      "짚": 2135,
      "짜": 2136,
      "짝": 2137,
      "짠": 2138,
      "짢": 2139,
      "짤": 2140,
      "짦": 2141,
      "짧": 2142,
      "짬": 2143,
      "짭": 2144,
      "짯": 2145,
      "짰": 2146,
      "짱": 2147,
      "짲": 2148,
      "짴": 2149,
      "째": 2150,
      "짹": 2151,
      "짼": 2152,
      "쨈": 2153,
      "쨉": 2154,
      "쨋": 2155,
      "쨌": 2156,
      "쨍": 2157,
      "쨔": 2158,
      "쨩": 2159,
      "쨰": 2160,
      "쩌": 2161,
      "쩍": 2162,
      "쩐": 2163,
      "쩔": 2164,
      "쩜": 2165,
      "쩝": 2166,
      "쩡": 2167,
      "쩨": 2168,
      "쪄": 2169,
      "쪘": 2170,
      "쪙": 2171,
      "쪼": 2172,
      "쪽": 2173,
      "쫀": 2174,
      "쫄": 2175,
      "쫌": 2176,
      "쫍": 2177,
      "쫏": 2178,
      "쫑": 2179,
      "쫒": 2180,
      "쫓": 2181,
      "쫗": 2182,
      "쫘": 2183,
      "쫙": 2184,
      "쫩": 2185,
      "쫭": 2186,
      "쬐": 2187,
      "쬬": 2188,
      "쬭": 2189,
      "쭈": 2190,
      "쭉": 2191,
      "쭌": 2192,
      "쭐": 2193,
      "쭘": 2194,
      "쭙": 2195,
      "쭝": 2196,
      "쭤": 2197,
      "쭵": 2198,
      "쮜": 2199,
      "쮸": 2200,
      "쯔": 2201,
      "쯤": 2202,
      "쯥": 2203,
      "쯧": 2204,
      "쯩": 2205,
      "쯪": 2206,
      "찆": 2207,
      "찌": 2208,
      "찍": 2209,
      "찎": 2210,
      "찐": 2211,
      "찓": 2212,
      "찔": 2213,
      "찜": 2214,
      "찝": 2215,
      "찟": 2216,
      "찠": 2217,
      "찡": 2218,
      "찢": 2219,
      "찣": 2220,
      "찧": 2221,
      "차": 2222,
      "착": 2223,
      "찬": 2224,
      "찮": 2225,
      "찰": 2226,
      "참": 2227,
      "찹": 2228,
      "찻": 2229,
      "찼": 2230,
      "창": 2231,
      "찾": 2232,
      "찿": 2233,
      "채": 2234,
      "책": 2235,
      "챈": 2236,
      "챌": 2237,
      "챔": 2238,
      "챕": 2239,
      "챗": 2240,
      "챘": 2241,
      "챙": 2242,
      "챠": 2243,
      "챡": 2244,
      "챤": 2245,
      "챦": 2246,
      "챨": 2247,
      "처": 2248,
      "척": 2249,
      "천": 2250,
      "철": 2251,
      "첨": 2252,
      "첩": 2253,
      "첫": 2254,
      "첬": 2255,
      "청": 2256,
      "첮": 2257,
      "체": 2258,
      "첵": 2259,
      "첸": 2260,
      "첼": 2261,
      "쳇": 2262,
      "쳉": 2263,
      "쳐": 2264,
      "쳔": 2265,
      "쳣": 2266,
      "쳤": 2267,
      "쳥": 2268,
      "쳬": 2269,
      "초": 2270,
      "촉": 2271,
      "촌": 2272,
      "촐": 2273,
      "촘": 2274,
      "촙": 2275,
      "촛": 2276,
      "총": 2277,
      "촞": 2278,
      "촟": 2279,
      "촣": 2280,
      "촤": 2281,
      "촥": 2282,
      "촨": 2283,
      "촬": 2284,
      "촵": 2285,
      "최": 2286,
      "쵝": 2287,
      "쵸": 2288,
      "추": 2289,
      "축": 2290,
      "춘": 2291,
      "출": 2292,
      "춤": 2293,
      "춥": 2294,
      "춧": 2295,
      "충": 2296,
      "춰": 2297,
      "췄": 2298,
      "췌": 2299,
      "취": 2300,
      "췬": 2301,
      "츄": 2302,
      "츈": 2303,
      "츌": 2304,
      "츙": 2305,
      "츠": 2306,
      "측": 2307,
      "츤": 2308,
      "츨": 2309,
      "츰": 2310,
      "츳": 2311,
      "층": 2312,
      "츼": 2313,
      "칀": 2314,
      "치": 2315,
      "칙": 2316,
      "친": 2317,
      "칠": 2318,
      "칡": 2319,
      "침": 2320,
      "칩": 2321,
      "칫": 2322,
      "칭": 2323,
      "칮": 2324,
      "카": 2325,
      "칵": 2326,
      "칸": 2327,
      "칼": 2328,
      "캄": 2329,
      "캅": 2330,
      "캇": 2331,
      "캉": 2332,
      "캍": 2333,
      "캐": 2334,
      "캔": 2335,
      "캘": 2336,
      "캠": 2337,
      "캡": 2338,
      "캣": 2339,
      "캤": 2340,
      "캥": 2341,
      "캬": 2342,
      "캭": 2343,
      "컄": 2344,
      "커": 2345,
      "컥": 2346,
      "컨": 2347,
      "컫": 2348,
      "컬": 2349,
      "컴": 2350,
      "컵": 2351,
      "컷": 2352,
      "컸": 2353,
      "컹": 2354,
      "케": 2355,
      "켁": 2356,
      "켄": 2357,
      "켈": 2358,
      "켐": 2359,
      "켑": 2360,
      "켓": 2361,
      "켔": 2362,
      "켕": 2363,
      "켜": 2364,
      "켠": 2365,
      "켤": 2366,
      "켬": 2367,
      "켯": 2368,
      "켰": 2369,
      "켸": 2370,
      "코": 2371,
      "콕": 2372,
      "콘": 2373,
      "콜": 2374,
      "콤": 2375,
      "콥": 2376,
      "콧": 2377,
      "콩": 2378,
      "콰": 2379,
      "콱": 2380,
      "콴": 2381,
      "콸": 2382,
      "쾅": 2383,
      "쾌": 2384,
      "쾡": 2385,
      "쾨": 2386,
      "쾰": 2387,
      "쿄": 2388,
      "쿙": 2389,
      "쿠": 2390,
      "쿡": 2391,
      "쿤": 2392,
      "쿨": 2393,
      "쿰": 2394,
      "쿱": 2395,
      "쿳": 2396,
      "쿵": 2397,
      "쿸": 2398,
      "쿼": 2399,
      "퀀": 2400,
      "퀄": 2401,
      "퀘": 2402,
      "퀴": 2403,
      "퀵": 2404,
      "퀸": 2405,
      "퀼": 2406,
      "큐": 2407,
      "큘": 2408,
      "크": 2409,
      "큭": 2410,
      "큰": 2411,
      "클": 2412,
      "큼": 2413,
      "큽": 2414,
      "킁": 2415,
      "킄": 2416,
      "킅": 2417,
      "킈": 2418,
      "키": 2419,
      "킥": 2420,
      "킨": 2421,
      "킬": 2422,
      "킴": 2423,
      "킵": 2424,
      "킷": 2425,
      "킹": 2426,
      "킼": 2427,
      "타": 2428,
      "탁": 2429,
      "탄": 2430,
      "탈": 2431,
      "탉": 2432,
      "탐": 2433,
      "탑": 2434,
      "탓": 2435,
      "탔": 2436,
      "탕": 2437,
      "태": 2438,
      "택": 2439,
      "탠": 2440,
      "탤": 2441,
      "탬": 2442,
      "탭": 2443,
      "탯": 2444,
      "탰": 2445,
      "탱": 2446,
      "탸": 2447,
      "터": 2448,
      "턱": 2449,
      "턴": 2450,
      "털": 2451,
      "텀": 2452,
      "텁": 2453,
      "텃": 2454,
      "텄": 2455,
      "텅": 2456,
      "텋": 2457,
      "테": 2458,
      "텍": 2459,
      "텐": 2460,
      "텔": 2461,
      "템": 2462,
      "텝": 2463,
      "텟": 2464,
      "텡": 2465,
      "텨": 2466,
      "텼": 2467,
      "톄": 2468,
      "톈": 2469,
      "토": 2470,
      "톡": 2471,
      "톤": 2472,
      "톨": 2473,
      "톰": 2474,
      "톱": 2475,
      "톳": 2476,
      "통": 2477,
      "톼": 2478,
      "퇘": 2479,
      "퇫": 2480,
      "퇴": 2481,
      "툇": 2482,
      "툥": 2483,
      "투": 2484,
      "툭": 2485,
      "툰": 2486,
      "툴": 2487,
      "툼": 2488,
      "툽": 2489,
      "퉁": 2490,
      "퉈": 2491,
      "퉜": 2492,
      "퉤": 2493,
      "퉷": 2494,
      "튀": 2495,
      "튄": 2496,
      "튈": 2497,
      "튐": 2498,
      "튓": 2499,
      "튕": 2500,
      "튜": 2501,
      "튠": 2502,
      "튤": 2503,
      "튬": 2504,
      "튭": 2505,
      "트": 2506,
      "특": 2507,
      "튼": 2508,
      "튿": 2509,
      "틀": 2510,
      "틈": 2511,
      "틉": 2512,
      "틋": 2513,
      "틍": 2514,
      "틔": 2515,
      "티": 2516,
      "틱": 2517,
      "틴": 2518,
      "틸": 2519,
      "팀": 2520,
      "팁": 2521,
      "팅": 2522,
      "파": 2523,
      "팍": 2524,
      "팎": 2525,
      "판": 2526,
      "팔": 2527,
      "팜": 2528,
      "팝": 2529,
      "팟": 2530,
      "팠": 2531,
      "팡": 2532,
      "팥": 2533,
      "패": 2534,
      "팩": 2535,
      "팬": 2536,
      "팰": 2537,
      "팸": 2538,
      "팹": 2539,
      "팻": 2540,
      "팼": 2541,
      "팽": 2542,
      "퍄": 2543,
      "퍈": 2544,
      "퍠": 2545,
      "퍼": 2546,
      "퍽": 2547,
      "펀": 2548,
      "펄": 2549,
      "펌": 2550,
      "펍": 2551,
      "펏": 2552,
      "펐": 2553,
      "펑": 2554,
      "페": 2555,
      "펙": 2556,
      "펜": 2557,
      "펠": 2558,
      "펨": 2559,
      "펩": 2560,
      "펫": 2561,
      "펭": 2562,
      "펴": 2563,
      "편": 2564,
      "펼": 2565,
      "폄": 2566,
      "폇": 2567,
      "폈": 2568,
      "평": 2569,
      "폐": 2570,
      "포": 2571,
      "폭": 2572,
      "폰": 2573,
      "폴": 2574,
      "폼": 2575,
      "폿": 2576,
      "퐁": 2577,
      "퐈": 2578,
      "퐉": 2579,
      "퐝": 2580,
      "표": 2581,
      "푠": 2582,
      "푯": 2583,
      "푸": 2584,
      "푹": 2585,
      "푼": 2586,
      "풀": 2587,
      "품": 2588,
      "풉": 2589,
      "풋": 2590,
      "풍": 2591,
      "퓌": 2592,
      "퓨": 2593,
      "퓰": 2594,
      "퓸": 2595,
      "프": 2596,
      "픈": 2597,
      "플": 2598,
      "픔": 2599,
      "픕": 2600,
      "피": 2601,
      "픽": 2602,
      "핀": 2603,
      "필": 2604,
      "핌": 2605,
      "핍": 2606,
      "핏": 2607,
      "핑": 2608,
      "하": 2609,
      "학": 2610,
      "한": 2611,
      "핟": 2612,
      "할": 2613,
      "핡": 2614,
      "핥": 2615,
      "핧": 2616,
      "함": 2617,
      "합": 2618,
      "핫": 2619,
      "핬": 2620,
      "항": 2621,
      "핮": 2622,
      "핰": 2623,
      "핱": 2624,
      "핲": 2625,
      "핳": 2626,
      "해": 2627,
      "핵": 2628,
      "핸": 2629,
      "핼": 2630,
      "햄": 2631,
      "햅": 2632,
      "햇": 2633,
      "했": 2634,
      "행": 2635,
      "햌": 2636,
      "햏": 2637,
      "햐": 2638,
      "햑": 2639,
      "햔": 2640,
      "햘": 2641,
      "햝": 2642,
      "햠": 2643,
      "햤": 2644,
      "향": 2645,
      "햬": 2646,
      "헀": 2647,
      "허": 2648,
      "헉": 2649,
      "헌": 2650,
      "헐": 2651,
      "험": 2652,
      "헙": 2653,
      "헛": 2654,
      "헝": 2655,
      "헠": 2656,
      "헣": 2657,
      "헤": 2658,
      "헥": 2659,
      "헨": 2660,
      "헬": 2661,
      "헴": 2662,
      "헵": 2663,
      "헷": 2664,
      "헸": 2665,
      "헹": 2666,
      "헿": 2667,
      "혀": 2668,
      "혁": 2669,
      "현": 2670,
      "혈": 2671,
      "혐": 2672,
      "협": 2673,
      "혓": 2674,
      "혔": 2675,
      "형": 2676,
      "혜": 2677,
      "호": 2678,
      "혹": 2679,
      "혼": 2680,
      "홀": 2681,
      "홈": 2682,
      "홉": 2683,
      "홋": 2684,
      "홍": 2685,
      "홑": 2686,
      "홓": 2687,
      "화": 2688,
      "확": 2689,
      "환": 2690,
      "활": 2691,
      "홥": 2692,
      "홧": 2693,
      "황": 2694,
      "홰": 2695,
      "홱": 2696,
      "횃": 2697,
      "회": 2698,
      "획": 2699,
      "횐": 2700,
      "횔": 2701,
      "횟": 2702,
      "횡": 2703,
      "효": 2704,
      "횽": 2705,
      "후": 2706,
      "훅": 2707,
      "훈": 2708,
      "훌": 2709,
      "훑": 2710,
      "훔": 2711,
      "훗": 2712,
      "훙": 2713,
      "훠": 2714,
      "훤": 2715,
      "훨": 2716,
      "훼": 2717,
      "휀": 2718,
      "휑": 2719,
      "휘": 2720,
      "휙": 2721,
      "휜": 2722,
      "휠": 2723,
      "휩": 2724,
      "휴": 2725,
      "휸": 2726,
      "휼": 2727,
      "흉": 2728,
      "흐": 2729,
      "흑": 2730,
      "흔": 2731,
      "흘": 2732,
      "흙": 2733,
      "흠": 2734,
      "흡": 2735,
      "흣": 2736,
      "흥": 2737,
      "흩": 2738,
      "흫": 2739,
      "희": 2740,
      "흰": 2741,
      "히": 2742,
      "힉": 2743,
      "힌": 2744,
      "힐": 2745,
      "힘": 2746,
      "힙": 2747,
      "힛": 2748,
      "힝": 2749,
      "힣": 2750,
      "️": 2751,
      "🅱": 2752,
      "🆚": 2753,
      "🇦": 2754,
      "🇨": 2755,
      "🇯": 2756,
      "🇰": 2757,
      "🇲": 2758,
      "🇳": 2759,
      "🇵": 2760,
      "🇷": 2761,
      "🇸": 2762,
      "🇹": 2763,
      "🇺": 2764,
      "🇼": 2765,
      "🌈": 2766,
      "🌐": 2767,
      "🌚": 2768,
      "🌟": 2769,
      "🌶": 2770,
      "🌸": 2771,
      "🌹": 2772,
      "🌺": 2773,
      "🌻": 2774,
      "🍀": 2775,
      "🍆": 2776,
      "🍉": 2777,
      "🍎": 2778,
      "🍏": 2779,
      "🍒": 2780,
      "🍞": 2781,
      "🍣": 2782,
      "🍺": 2783,
      "🍼": 2784,
      "🍾": 2785,
      "🎈": 2786,
      "🎉": 2787,
      "🎗": 2788,
      "🎯": 2789,
      "🎵": 2790,
      "🎶": 2791,
      "🏻": 2792,
      "🏼": 2793,
      "🏽": 2794,
      "🏿": 2795,
      "🐀": 2796,
      "🐁": 2797,
      "🐂": 2798,
      "🐄": 2799,
      "🐈": 2800,
      "🐍": 2801,
      "🐎": 2802,
      "🐑": 2803,
      "🐒": 2804,
      "🐔": 2805,
      "🐕": 2806,
      "🐖": 2807,
      "🐗": 2808,
      "🐦": 2809,
      "🐩": 2810,
      "🐭": 2811,
      "🐮": 2812,
      "🐵": 2813,
      "🐶": 2814,
      "🐷": 2815,
      "🐽": 2816,
      "👀": 2817,
      "👁": 2818,
      "👄": 2819,
      "👅": 2820,
      "👈": 2821,
      "👉": 2822,
      "👊": 2823,
      "👋": 2824,
      "👌": 2825,
      "👍": 2826,
      "👎": 2827,
      "👏": 2828,
      "👟": 2829,
      "👤": 2830,
      "👥": 2831,
      "👨": 2832,
      "👮": 2833,
      "👹": 2834,
      "👺": 2835,
      "👿": 2836,
      "💀": 2837,
      "💉": 2838,
      "💋": 2839,
      "💐": 2840,
      "💓": 2841,
      "💕": 2842,
      "💖": 2843,
      "💗": 2844,
      "💘": 2845,
      "💙": 2846,
      "💚": 2847,
      "💛": 2848,
      "💜": 2849,
      "💞": 2850,
      "💢": 2851,
      "💣": 2852,
      "💥": 2853,
      "💦": 2854,
      "💨": 2855,
      "💩": 2856,
      "💪": 2857,
      "💫": 2858,
      "💯": 2859,
      "💰": 2860,
      "💳": 2861,
      "📌": 2862,
      "📢": 2863,
      "📣": 2864,
      "🔑": 2865,
      "🔔": 2866,
      "🔞": 2867,
      "🔥": 2868,
      "🔨": 2869,
      "🔪": 2870,
      "🔫": 2871,
      "🔴": 2872,
      "🔵": 2873,
      "🔹": 2874,
      "🕊": 2875,
      "🕯": 2876,
      "🖕": 2877,
      "🖤": 2878,
      "🗑": 2879,
      "🗽": 2880,
      "😀": 2881,
      "😁": 2882,
      "😂": 2883,
      "😃": 2884,
      "😄": 2885,
      "😅": 2886,
      "😆": 2887,
      "😇": 2888,
      "😈": 2889,
      "😉": 2890,
      "😊": 2891,
      "😋": 2892,
      "😌": 2893,
      "😍": 2894,
      "😎": 2895,
      "😏": 2896,
      "😐": 2897,
      "😑": 2898,
      "😒": 2899,
      "😓": 2900,
      "😔": 2901,
      "😖": 2902,
      "😘": 2903,
      "😚": 2904,
      "😛": 2905,
      "😜": 2906,
      "😝": 2907,
      "😠": 2908,
      "😡": 2909,
      "😢": 2910,
      "😣": 2911,
      "😤": 2912,
      "😥": 2913,
      "😨": 2914,
      "😩": 2915,
      "😪": 2916,
      "😫": 2917,
      "😬": 2918,
      "😭": 2919,
      "😮": 2920,
      "😰": 2921,
      "😱": 2922,
      "😲": 2923,
      "😴": 2924,
      "😵": 2925,
      "😸": 2926,
      "🙀": 2927,
      "🙂": 2928,
      "🙃": 2929,
      "🙄": 2930,
      "🙅": 2931,
      "🙆": 2932,
      "🙈": 2933,
      "🙉": 2934,
      "🙋": 2935,
      "🙌": 2936,
      "🙍": 2937,
      "🙏": 2938,
      "🚀": 2939,
      "🚗": 2940,
      "🚨": 2941,
      "🚩": 2942,
      "🚪": 2943,
      "🚫": 2944,
      "🚬": 2945,
      "🛑": 2946,
      "🛢": 2947,
      "🟥": 2948,
      "🟰": 2949,
      "🤐": 2950,
      "🤑": 2951,
      "🤔": 2952,
      "🤗": 2953,
      "🤝": 2954,
      "🤟": 2955,
      "🤡": 2956,
      "🤢": 2957,
      "🤣": 2958,
      "🤥": 2959,
      "🤦": 2960,
      "🤧": 2961,
      "🤨": 2962,
      "🤩": 2963,
      "🤪": 2964,
      "🤫": 2965,
      "🤬": 2966,
      "🤭": 2967,
      "🤮": 2968,
      "🤯": 2969,
      "🤷": 2970,
      "🤺": 2971,
      "🥨": 2972,
      "🥩": 2973,
      "🥰": 2974,
      "🥲": 2975,
      "🥳": 2976,
      "🥵": 2977,
      "🥶": 2978,
      "🥷": 2979,
      "🥸": 2980,
      "🥺": 2981,
      "🦀": 2982,
      "🦅": 2983,
      "🦆": 2984,
      "🦇": 2985,
      "🦍": 2986,
      "🦜": 2987,
      "🦠": 2988,
      "🦧": 2989,
      "🦮": 2990,
      "🦲": 2991,
      "🦴": 2992,
      "🦶": 2993,
      "🦸": 2994,
      "🦺": 2995,
      "🧟": 2996,
      "🧠": 2997,
      "🧡": 2998,
      "🧨": 2999,
      "🩸": 3000,
      "🪓": 3001,
      "🪰": 3002,
      "🪳": 3003,
      "🫰": 3004,
      "##사": 3005,
      "##대": 3006,
      "##국": 3007,
      "##들": 3008,
      "##은": 3009,
      "##미": 3010,
      "##바": 3011,
      "##다": 3012,
      "##열": 3013,
      "##차": 3014,
      "##싼": 3015,
      "##택": 3016,
      "##시": 3017,
      "##가": 3018,
      "##많": 3019,
      "##아": 3020,
      "##졌": 3021,
      "##어": 3022,
      "##요": 3023,
      "##할": 3024,
      "##거": 3025,
      "##지": 3026,
      "##만": 3027,
      "##번": 3028,
      "##호": 3029,
      "##판": 3030,
      "##을": 3031,
      "##물": 3032,
      "##터": 3033,
      "##널": 3034,
      "##니": 3035,
      "##드": 3036,
      "##에": 3037,
      "##도": 3038,
      "##하": 3039,
      "##며": 3040,
      "##주": 3041,
      "##당": 3042,
      "##잡": 3043,
      "##으": 3044,
      "##면": 3045,
      "##의": 3046,
      "##안": 3047,
      "##취": 3048,
      "##라": 3049,
      "##는": 3050,
      "##온": 3051,
      "##1": 3052,
      "##개": 3053,
      "##로": 3054,
      "##경": 3055,
      "##종": 3056,
      "##식": 3057,
      "##한": 3058,
      "##소": 3059,
      "##리": 3060,
      "##재": 3061,
      "##묭": 3062,
      "##과": 3063,
      "##급": 3064,
      "##쓰": 3065,
      "##레": 3066,
      "##기": 3067,
      "##영": 3068,
      "##화": 3069,
      "##B": 3070,
      "##C": 3071,
      "##해": 3072,
      "##설": 3073,
      "##위": 3074,
      "##원": 3075,
      "##림": 3076,
      "##이": 3077,
      "##나": 3078,
      "##까": 3079,
      "##일": 3080,
      "##때": 3081,
      "##새": 3082,
      "##견": 3083,
      "##관": 3084,
      "##회": 3085,
      "##명": 3086,
      "##보": 3087,
      "##험": 3088,
      "##검": 3089,
      "##율": 3090,
      "##ㅜ": 3091,
      "##침": 3092,
      "##돌": 3093,
      "##없": 3094,
      "##전": 3095,
      "##R": 3096,
      "##P": 3097,
      "##G": 3098,
      "##짐": 3099,
      "##력": 3100,
      "##석": 3101,
      "##였": 3102,
      "##봐": 3103,
      "##딴": 3104,
      "##않": 3105,
      "##냐": 3106,
      "##똥": 3107,
      "##략": 3108,
      "##고": 3109,
      "##근": 3110,
      "##혜": 3111,
      "##통": 3112,
      "##령": 3113,
      "##탄": 3114,
      "##핵": 3115,
      "##범": 3116,
      "##p": 3117,
      "##좀": 3118,
      "##질": 3119,
      "##수": 3120,
      "##록": 3121,
      "##데": 3122,
      "##케": 3123,
      "##센": 3124,
      "##방": 3125,
      "##서": 3126,
      "##와": 3127,
      "##신": 3128,
      "##뭐": 3129,
      "##우": 3130,
      "##중": 3131,
      "##성": 3132,
      "##진": 3133,
      "##님": 3134,
      "##점": 3135,
      "##정": 3136,
      "##환": 3137,
      "##야": 3138,
      "##올": 3139,
      "##게": 3140,
      "##임": 3141,
      "##평": 3142,
      "##축": 3143,
      "##키": 3144,
      "##공": 3145,
      "##준": 3146,
      "##상": 3147,
      "##자": 3148,
      "##를": 3149,
      "##랑": 3150,
      "##심": 3151,
      "##밖": 3152,
      "##ㅋ": 3153,
      "##되": 3154,
      "##세": 3155,
      "##런": 3156,
      "##비": 3157,
      "##르": 3158,
      "##끝": 3159,
      "##난": 3160,
      "##껍": 3161,
      "##용": 3162,
      "##건": 3163,
      "##선": 3164,
      "##칼": 3165,
      "##렛": 3166,
      "##슨": 3167,
      "##0": 3168,
      "##인": 3169,
      "##내": 3170,
      "##켜": 3171,
      "##렬": 3172,
      "##것": 3173,
      "##처": 3174,
      "##럼": 3175,
      "##규": 3176,
      "##a": 3177,
      "##k": 3178,
      "##간": 3179,
      "##던": 3180,
      "##법": 3181,
      "##파": 3182,
      "##업": 3183,
      "##치": 3184,
      "##울": 3185,
      "##듯": 3186,
      "##월": 3187,
      "##버": 3188,
      "##교": 3189,
      "##습": 3190,
      "##무": 3191,
      "##살": 3192,
      "##좋": 3193,
      "##앗": 3194,
      "##쩔": 3195,
      "##그": 3196,
      "##줄": 3197,
      "##타": 3198,
      "##산": 3199,
      "##부": 3200,
      "##락": 3201,
      "##날": 3202,
      "##장": 3203,
      "##네": 3204,
      "##청": 3205,
      "##먹": 3206,
      "##렴": 3207,
      "##겠": 3208,
      "##노": 3209,
      "##작": 3210,
      "##제": 3211,
      "##속": 3212,
      "##문": 3213,
      "##구": 3214,
      "##체": 3215,
      "##말": 3216,
      "##유": 3217,
      "##피": 3218,
      "##남": 3219,
      "##권": 3220,
      "##흠": 3221,
      "##감": 3222,
      "##픽": 3223,
      "##표": 3224,
      "##팀": 3225,
      "##렇": 3226,
      "##됐": 3227,
      "##린": 3228,
      "##캍": 3229,
      "##쿡": 3230,
      "##배": 3231,
      "##7": 3232,
      "##6": 3233,
      "##4": 3234,
      "##득": 3235,
      "##금": 3236,
      "##액": 3237,
      "##적": 3238,
      "##불": 3239,
      "##량": 3240,
      "##닝": 3241,
      "##동": 3242,
      "##여": 3243,
      "##있": 3244,
      "##었": 3245,
      "##함": 3246,
      "##학": 3247,
      "##오": 3248,
      "##십": 3249,
      "##두": 3250,
      "##프": 3251,
      "##려": 3252,
      "##출": 3253,
      "##입": 3254,
      "##e": 3255,
      "##n": 3256,
      "##d": 3257,
      "##o": 3258,
      "##l": 3259,
      "##항": 3260,
      "##곡": 3261,
      "##모": 3262,
      "##져": 3263,
      "##책": 3264,
      "##행": 3265,
      "##끔": 3266,
      "##큰": 3267,
      "##든": 3268,
      "##닌": 3269,
      "##룩": 3270,
      "##람": 3271,
      "##역": 3272,
      "##즌": 3273,
      "##듀": 3274,
      "##션": 3275,
      "##분": 3276,
      "##쉽": 3277,
      "##실": 3278,
      "##너": 3279,
      "##써": 3280,
      "##았": 3281,
      "##뉘": 3282,
      "##ㅠ": 3283,
      "##계": 3284,
      "##걸": 3285,
      "##콘": 3286,
      "##벌": 3287,
      "##백": 3288,
      "##증": 3289,
      "##완": 3290,
      "##료": 3291,
      "##측": 3292,
      "##t": 3293,
      "##혼": 3294,
      "##접": 3295,
      "##럭": 3296,
      "##스": 3297,
      "##놈": 3298,
      "##즐": 3299,
      "##익": 3300,
      "##폭": 3301,
      "##티": 3302,
      "##팜": 3303,
      "##발": 3304,
      "##돼": 3305,
      "##캔": 3306,
      "##변": 3307,
      "##흥": 3308,
      "##음": 3309,
      "##민": 3310,
      "##란": 3311,
      "##복": 3312,
      "##투": 3313,
      "##론": 3314,
      "##럽": 3315,
      "##죄": 3316,
      "##패": 3317,
      "##태": 3318,
      "##했": 3319,
      "##군": 3320,
      "##쳤": 3321,
      "##믄": 3322,
      "##됨": 3323,
      "##씩": 3324,
      "##따": 3325,
      "##뿐": 3326,
      "##마": 3327,
      "##냥": 3328,
      "##같": 3329,
      "##육": 3330,
      "##생": 3331,
      "##각": 3332,
      "##참": 3333,
      "##넘": 3334,
      "##얼": 3335,
      "##짜": 3336,
      "##순": 3337,
      "##빙": 3338,
      "##최": 3339,
      "##악": 3340,
      "##m": 3341,
      "##절": 3342,
      "##2": 3343,
      "##능": 3344,
      "##렷": 3345,
      "##껏": 3346,
      "##5": 3347,
      "##억": 3348,
      "##약": 3349,
      "##언": 3350,
      "##답": 3351,
      "##챙": 3352,
      "##겼": 3353,
      "##색": 3354,
      "##희": 3355,
      "##s": 3356,
      "##웨": 3357,
      "##브": 3358,
      "##박": 3359,
      "##러": 3360,
      "##워": 3361,
      "##창": 3362,
      "##운": 3363,
      "##혁": 3364,
      "##밥": 3365,
      "##쟁": 3366,
      "##후": 3367,
      "##베": 3368,
      "##🤮": 3369,
      "##햇": 3370,
      "##먼": 3371,
      "##블": 3372,
      "##싱": 3373,
      "##녀": 3374,
      "##옥": 3375,
      "##뚱": 3376,
      "##랐": 3377,
      "##∼": 3378,
      "##초": 3379,
      "##형": 3380,
      "##찰": 3381,
      "##테": 3382,
      "##달": 3383,
      "##직": 3384,
      "##포": 3385,
      "##광": 3386,
      "##더": 3387,
      "##댄": 3388,
      "##토": 3389,
      "##향": 3390,
      "##맞": 3391,
      "##뒤": 3392,
      "##겜": 3393,
      "##집": 3394,
      "##쒸": 3395,
      "##웠": 3396,
      "##봇": 3397,
      "##병": 3398,
      "##줬": 3399,
      "##딱": 3400,
      "##꼴": 3401,
      "##쳐": 3402,
      "##폰": 3403,
      "##갑": 3404,
      "##떠": 3405,
      "##저": 3406,
      "##녁": 3407,
      "##븐": 3408,
      "##누": 3409,
      "##죽": 3410,
      "##반": 3411,
      "##ㅡ": 3412,
      "##트": 3413,
      "##연": 3414,
      "##된": 3415,
      "##갱": 3416,
      "##괜": 3417,
      "##춘": 3418,
      "##즈": 3419,
      "##웅": 3420,
      "##크": 3421,
      "##북": 3422,
      "##송": 3423,
      "##름": 3424,
      "##조": 3425,
      "##못": 3426,
      "##단": 3427,
      "##둘": 3428,
      "##L": 3429,
      "##꾼": 3430,
      "##슥": 3431,
      "##3": 3432,
      "##엄": 3433,
      "##ㆍ": 3434,
      "##술": 3435,
      "##퉁": 3436,
      "##극": 3437,
      "##콜": 3438,
      "##목": 3439,
      "##겻": 3440,
      "##삐": 3441,
      "##팔": 3442,
      "##읽": 3443,
      "##몾": 3444,
      "##귀": 3445,
      "##곤": 3446,
      "##ㅇ": 3447,
      "##독": 3448,
      "##8": 3449,
      "##㎞": 3450,
      "##잼": 3451,
      "##겝": 3452,
      "##봣": 3453,
      "##먄": 3454,
      "##딸": 3455,
      "##년": 3456,
      "##웃": 3457,
      "##쪽": 3458,
      "##푸": 3459,
      "##났": 3460,
      "##픈": 3461,
      "##편": 3462,
      "##겟": 3463,
      "##추": 3464,
      "##몽": 3465,
      "##알": 3466,
      "##망": 3467,
      "##착": 3468,
      "##T": 3469,
      "##V": 3470,
      "##쏘": 3471,
      "##쿠": 3472,
      "##현": 3473,
      "##립": 3474,
      "##탈": 3475,
      "##확": 3476,
      "##등": 3477,
      "##킨": 3478,
      "##매": 3479,
      "##엽": 3480,
      "##꺼": 3481,
      "##슬": 3482,
      "##족": 3483,
      "##힘": 3484,
      "##획": 3485,
      "##셔": 3486,
      "##될": 3487,
      "##류": 3488,
      "##ㅎ": 3489,
      "##텐": 3490,
      "##싸": 3491,
      "##움": 3492,
      "##승": 3493,
      "##황": 3494,
      "##슷": 3495,
      "##볼": 3496,
      "##붕": 3497,
      "##괴": 3498,
      "##쯤": 3499,
      "##N": 3500,
      "##A": 3501,
      "##깐": 3502,
      "##쓸": 3503,
      "##굥": 3504,
      "##낭": 3505,
      "##특": 3506,
      "##느": 3507,
      "##빠": 3508,
      "##채": 3509,
      "##활": 3510,
      "##낙": 3511,
      "##총": 3512,
      "##강": 3513,
      "##켓": 3514,
      "##찬": 3515,
      "##양": 3516,
      "##글": 3517,
      "##플": 3518,
      "##품": 3519,
      "##몰": 3520,
      "##땀": 3521,
      "##왈": 3522,
      "##댓": 3523,
      "##낚": 3524,
      "##봤": 3525,
      "##섭": 3526,
      "##릴": 3527,
      "##쩌": 3528,
      "##겁": 3529,
      "##졸": 3530,
      "##츄": 3531,
      "##외": 3532,
      "##끌": 3533,
      "##롱": 3534,
      "##㎜": 3535,
      "##댕": 3536,
      "##넣": 3537,
      "##😡": 3538,
      "##쎄": 3539,
      "##받": 3540,
      "##땅": 3541,
      "##밸": 3542,
      "##즘": 3543,
      "##뎌": 3544,
      "##쫌": 3545,
      "##갖": 3546,
      "##찍": 3547,
      "##셈": 3548,
      "##닭": 3549,
      "##핑": 3550,
      "##굴": 3551,
      "##빻": 3552,
      "##짓": 3553,
      "##숙": 3554,
      "##랭": 3555,
      "##봉": 3556,
      "##끼": 3557,
      "##풍": 3558,
      "##애": 3559,
      "##삶": 3560,
      "##둑": 3561,
      "##톄": 3562,
      "##징": 3563,
      "##9": 3564,
      "##밝": 3565,
      "##힌": 3566,
      "##톤": 3567,
      "##첩": 3568,
      "##홀": 3569,
      "##믹": 3570,
      "##련": 3571,
      "##큼": 3572,
      "##슴": 3573,
      "##앞": 3574,
      "##씨": 3575,
      "##디": 3576,
      "##카": 3577,
      "##융": 3578,
      "##ㄱ": 3579,
      "##셨": 3580,
      "##잖": 3581,
      "##칠": 3582,
      "##i": 3583,
      "##합": 3584,
      "##른": 3585,
      "##곳": 3586,
      "##격": 3587,
      "##죠": 3588,
      "##길": 3589,
      "##혀": 3590,
      "##팬": 3591,
      "##천": 3592,
      "##랙": 3593,
      "##앙": 3594,
      "##코": 3595,
      "##딤": 3596,
      "##루": 3597,
      "##칸": 3598,
      "##읍": 3599,
      "##곧": 3600,
      "##㎖": 3601,
      "##낼": 3602,
      "##떤": 3603,
      "##컬": 3604,
      "##쿄": 3605,
      "##싶": 3606,
      "##훈": 3607,
      "##념": 3608,
      "##및": 3609,
      "##갈": 3610,
      "##놀": 3611,
      "##늘": 3612,
      "##예": 3613,
      "##왓": 3614,
      "##맛": 3615,
      "##춰": 3616,
      "##b": 3617,
      "##u": 3618,
      "##z": 3619,
      "##므": 3620,
      "##덜": 3621,
      "##섬": 3622,
      "##친": 3623,
      "##촌": 3624,
      "##r": 3625,
      "##왘": 3626,
      "##ㅅ": 3627,
      "##ㄲ": 3628,
      "##래": 3629,
      "##ㅔ": 3630,
      "##결": 3631,
      "##ㅉ": 3632,
      "##떡": 3633,
      "##긋": 3634,
      "##왕": 3635,
      "##릉": 3636,
      "##팥": 3637,
      "##틸": 3638,
      "##땋": 3639,
      "##값": 3640,
      "##c": 3641,
      "##헌": 3642,
      "##팅": 3643,
      "##례": 3644,
      "##랩": 3645,
      "##됬": 3646,
      "##존": 3647,
      "##꼬": 3648,
      "##닥": 3649,
      "##맨": 3650,
      "##꾸": 3651,
      "##머": 3652,
      "##컷": 3653,
      "##층": 3654,
      "##I": 3655,
      "##S": 3656,
      "##O": 3657,
      "##멍": 3658,
      "##담": 3659,
      "##홍": 3660,
      "##둥": 3661,
      "##궁": 3662,
      "##궐": 3663,
      "##눠": 3664,
      "##햏": 3665,
      "##X": 3666,
      "##솔": 3667,
      "##손": 3668,
      "##챠": 3669,
      "##옷": 3670,
      "##빈": 3671,
      "##놨": 3672,
      "##맹": 3673,
      "##엔": 3674,
      "##뷰": 3675,
      "##덱": 3676,
      "##팩": 3677,
      "##커": 3678,
      "##춥": 3679,
      "##겨": 3680,
      "##얘": 3681,
      "##균": 3682,
      "##충": 3683,
      "##본": 3684,
      "##뜯": 3685,
      "##넹": 3686,
      "##ㅏ": 3687,
      "##뒀": 3688,
      "##봄": 3689,
      "##왜": 3690,
      "##빨": 3691,
      "##퍼": 3692,
      "##페": 3693,
      "##g": 3694,
      "##졋": 3695,
      "##틴": 3696,
      "##👺": 3697,
      "##잃": 3698,
      "##컵": 3699,
      "##객": 3700,
      "##렸": 3701,
      "##왔": 3702,
      "##♥": 3703,
      "##멋": 3704,
      "##잇": 3705,
      "##혹": 3706,
      "##랍": 3707,
      "##텔": 3708,
      "##둔": 3709,
      "##쾅": 3710,
      "##뻔": 3711,
      "##덕": 3712,
      "##줘": 3713,
      "##허": 3714,
      "##탱": 3715,
      "##눈": 3716,
      "##쩝": 3717,
      "##뭉": 3718,
      "##께": 3719,
      "##ㅈ": 3720,
      "##탑": 3721,
      "##깔": 3722,
      "##볐": 3723,
      "##클": 3724,
      "##긴": 3725,
      "##묵": 3726,
      "##앴": 3727,
      "##쇄": 3728,
      "##륜": 3729,
      "##쌓": 3730,
      "##낀": 3731,
      "##젠": 3732,
      "##땐": 3733,
      "##뷔": 3734,
      "##떨": 3735,
      "##찌": 3736,
      "##쁜": 3737,
      "##늠": 3738,
      "##앜": 3739,
      "##퉤": 3740,
      "##째": 3741,
      "##잘": 3742,
      "##늬": 3743,
      "##냈": 3744,
      "##쳣": 3745,
      "##쓴": 3746,
      "##M": 3747,
      "##룹": 3748,
      "##쉐": 3749,
      "##믿": 3750,
      "##몬": 3751,
      "##h": 3752,
      "##릿": 3753,
      "##휘": 3754,
      "##㎝": 3755,
      "##럿": 3756,
      "##퀴": 3757,
      "##윤": 3758,
      "##칙": 3759,
      "##막": 3760,
      "##힙": 3761,
      "##압": 3762,
      "##협": 3763,
      "##딩": 3764,
      "##뜩": 3765,
      "##팎": 3766,
      "##껴": 3767,
      "##휴": 3768,
      "##v": 3769,
      "##붙": 3770,
      "##ㄹ": 3771,
      "##철": 3772,
      "##H": 3773,
      "##E": 3774,
      "##흡": 3775,
      "##댈": 3776,
      "##뉴": 3777,
      "##x": 3778,
      "##또": 3779,
      "##낸": 3780,
      "##룡": 3781,
      "##딥": 3782,
      "##D": 3783,
      "##롤": 3784,
      "##숨": 3785,
      "##렀": 3786,
      "##놓": 3787,
      "##닫": 3788,
      "##🐕": 3789,
      "##🐷": 3790,
      "##㎡": 3791,
      "##뱅": 3792,
      "##깝": 3793,
      "##W": 3794,
      "##툭": 3795,
      "##메": 3796,
      "##쌍": 3797,
      "##렁": 3798,
      "##멸": 3799,
      "##밀": 3800,
      "##폐": 3801,
      "##곘": 3802,
      "##퍽": 3803,
      "##논": 3804,
      "##쿨": 3805,
      "##f": 3806,
      "##뜨": 3807,
      "##낯": 3808,
      "##쌔": 3809,
      "##별": 3810,
      "##벽": 3811,
      "##쟝": 3812,
      "##쾌": 3813,
      "##큐": 3814,
      "##긍": 3815,
      "##히": 3816,
      "##톡": 3817,
      "##빌": 3818,
      "##퇴": 3819,
      "##끄": 3820,
      "##혐": 3821,
      "##쇼": 3822,
      "##돈": 3823,
      "##엇": 3824,
      "##탁": 3825,
      "##윈": 3826,
      "##잠": 3827,
      "##슈": 3828,
      "##델": 3829,
      "##꿔": 3830,
      "##옵": 3831,
      "##욕": 3832,
      "##옴": 3833,
      "##률": 3834,
      "##랬": 3835,
      "##릭": 3836,
      "##쯧": 3837,
      "##촉": 3838,
      "##찮": 3839,
      "##칫": 3840,
      "##쉬": 3841,
      "##빽": 3842,
      "##😄": 3843,
      "##😁": 3844,
      "##😆": 3845,
      "##🤣": 3846,
      "##필": 3847,
      "##댁": 3848,
      "##랜": 3849,
      "##쁠": 3850,
      "##젝": 3851,
      "##륙": 3852,
      "##헬": 3853,
      "##썩": 3854,
      "##멘": 3855,
      "##폼": 3856,
      "##뢰": 3857,
      "##밭": 3858,
      "##즙": 3859,
      "##꽃": 3860,
      "##K": 3861,
      "##겄": 3862,
      "##룬": 3863,
      "##ㅓ": 3864,
      "##좌": 3865,
      "##핮": 3866,
      "##닉": 3867,
      "##찾": 3868,
      "##륭": 3869,
      "##졍": 3870,
      "##댜": 3871,
      "##롯": 3872,
      "##척": 3873,
      "##톱": 3874,
      "##램": 3875,
      "##즉": 3876,
      "##졔": 3877,
      "##맘": 3878,
      "##눔": 3879,
      "##렙": 3880,
      "##F": 3881,
      "##잤": 3882,
      "##헤": 3883,
      "##짝": 3884,
      "##👍": 3885,
      "##🍒": 3886,
      "##켰": 3887,
      "##햄": 3888,
      "##샘": 3889,
      "##낌": 3890,
      "##밤": 3891,
      "##씬": 3892,
      "##킷": 3893,
      "##짱": 3894,
      "##엉": 3895,
      "##킴": 3896,
      "##덤": 3897,
      "##갔": 3898,
      "##죈": 3899,
      "##콤": 3900,
      "##걱": 3901,
      "##킬": 3902,
      "##엎": 3903,
      "##굼": 3904,
      "##쌀": 3905,
      "##씀": 3906,
      "##퍄": 3907,
      "##뽑": 3908,
      "##텃": 3909,
      "##괄": 3910,
      "##빚": 3911,
      "##떻": 3912,
      "##댐": 3913,
      "##밌": 3914,
      "##퓌": 3915,
      "##걷": 3916,
      "##농": 3917,
      "##셜": 3918,
      "##뒈": 3919,
      "##쑈": 3920,
      "##욤": 3921,
      "##잎": 3922,
      "##겸": 3923,
      "##갓": 3924,
      "##팁": 3925,
      "##땜": 3926,
      "##찻": 3927,
      "##쥬": 3928,
      "##뭇": 3929,
      "##탕": 3930,
      "##뇌": 3931,
      "##젖": 3932,
      "##놧": 3933,
      "##뽈": 3934,
      "##멀": 3935,
      "##낳": 3936,
      "##응": 3937,
      "##녹": 3938,
      "##갯": 3939,
      "##랴": 3940,
      "##냄": 3941,
      "##곰": 3942,
      "##욱": 3943,
      "##줫": 3944,
      "##뿌": 3945,
      "##랗": 3946,
      "##👈": 3947,
      "##벨": 3948,
      "##먀": 3949,
      "##ㅁ": 3950,
      "##뻥": 3951,
      "##쪄": 3952,
      "##ㄴ": 3953,
      "##얻": 3954,
      "##깜": 3955,
      "##효": 3956,
      "##닼": 3957,
      "##킼": 3958,
      "##돗": 3959,
      "##뮤": 3960,
      "##👏": 3961,
      "##💐": 3962,
      "##㎢": 3963,
      "##팰": 3964,
      "##똑": 3965,
      "##빼": 3966,
      "##🇳": 3967,
      "##🇨": 3968,
      "##혔": 3969,
      "##싀": 3970,
      "##낮": 3971,
      "##첨": 3972,
      "##뭘": 3973,
      "##륨": 3974,
      "##암": 3975,
      "##벤": 3976,
      "##김": 3977,
      "##틱": 3978,
      "##챌": 3979,
      "##잔": 3980,
      "##떵": 3981,
      "##맵": 3982,
      "##옆": 3983,
      "##띄": 3984,
      "##킹": 3985,
      "##럄": 3986,
      "##높": 3987,
      "##벙": 3988,
      "##탓": 3989,
      "##랰": 3990,
      "##ㅂ": 3991,
      "##씁": 3992,
      "##🔥": 3993,
      "##ㄳ": 3994,
      "##흐": 3995,
      "##씹": 3996,
      "##컸": 3997,
      "##쩨": 3998,
      "##털": 3999,
      "##뀌": 4000,
      "##뽕": 4001,
      "##쎈": 4002,
      "##겐": 4003,
      "##쥐": 4004,
      "##륵": 4005,
      "##릇": 4006,
      "##렌": 4007,
      "##돔": 4008,
      "##얄": 4009,
      "##젤": 4010,
      "##꽁": 4011,
      "##흉": 4012,
      "##w": 4013,
      "##납": 4014,
      "##껀": 4015,
      "##퓨": 4016,
      "##춤": 4017,
      "##봅": 4018,
      "##쑤": 4019,
      "##삑": 4020,
      "##붓": 4021,
      "##츠": 4022,
      "##뇨": 4023,
      "##껑": 4024,
      "##🥰": 4025,
      "##펙": 4026,
      "##껄": 4027,
      "##렵": 4028,
      "##벗": 4029,
      "##y": 4030,
      "##됩": 4031,
      "##홈": 4032,
      "##좍": 4033,
      "##엿": 4034,
      "##캄": 4035,
      "##덩": 4036,
      "##잉": 4037,
      "##빵": 4038,
      "##얇": 4039,
      "##💙": 4040,
      "##쨍": 4041,
      "##윙": 4042,
      "##헛": 4043,
      "##ㅣ": 4044,
      "##젓": 4045,
      "##끙": 4046,
      "##섹": 4047,
      "##염": 4048,
      "##쩍": 4049,
      "##흘": 4050,
      "##맙": 4051,
      "##냨": 4052,
      "##엠": 4053,
      "##줍": 4054,
      "##짤": 4055,
      "##앵": 4056,
      "##튕": 4057,
      "##콩": 4058,
      "##롬": 4059,
      "##닷": 4060,
      "##컴": 4061,
      "##짖": 4062,
      "##몇": 4063,
      "##끗": 4064,
      "##떄": 4065,
      "##j": 4066,
      "##톨": 4067,
      "##찔": 4068,
      "##닦": 4069,
      "##밍": 4070,
      "##샌": 4071,
      "##뻘": 4072,
      "##힐": 4073,
      "##눌": 4074,
      "##ㅝ": 4075,
      "##탠": 4076,
      "##싫": 4077,
      "##밋": 4078,
      "##삘": 4079,
      "##앨": 4080,
      "##롭": 4081,
      "##펜": 4082,
      "##팽": 4083,
      "##캐": 4084,
      "##턴": 4085,
      "##낫": 4086,
      "##짠": 4087,
      "##ㄷ": 4088,
      "##듬": 4089,
      "##윌": 4090,
      "##찟": 4091,
      "##렉": 4092,
      "##럴": 4093,
      "##놔": 4094,
      "##돋": 4095,
      "##깡": 4096,
      "##컨": 4097,
      "##슝": 4098,
      "##👉": 4099,
      "##윗": 4100,
      "##죵": 4101,
      "##ㅆ": 4102,
      "##랫": 4103,
      "##듣": 4104,
      "##쟎": 4105,
      "##멤": 4106,
      "##떼": 4107,
      "##뽄": 4108,
      "##펀": 4109,
      "##골": 4110,
      "##쇠": 4111,
      "##🇰": 4112,
      "##🇷": 4113,
      "##✌": 4114,
      "##️": 4115,
      "##냔": 4116,
      "##갇": 4117,
      "##궈": 4118,
      "##엑": 4119,
      "##쎅": 4120,
      "##삼": 4121,
      "##땨": 4122,
      "##샀": 4123,
      "##뎅": 4124,
      "##챔": 4125,
      "##㏄": 4126,
      "##삥": 4127,
      "##핏": 4128,
      "##뤄": 4129,
      "##뚝": 4130,
      "##톰": 4131,
      "##🙏": 4132,
      "##얔": 4133,
      "##링": 4134,
      "##잣": 4135,
      "##둬": 4136,
      "##묘": 4137,
      "##U": 4138,
      "##풀": 4139,
      "##밑": 4140,
      "##녕": 4141,
      "##벡": 4142,
      "##랸": 4143,
      "##듭": 4144,
      "##숫": 4145,
      "##🙈": 4146,
      "##섯": 4147,
      "##촬": 4148,
      "##늙": 4149,
      "##웬": 4150,
      "##숭": 4151,
      "##빛": 4152,
      "##칭": 4153,
      "##핫": 4154,
      "##찐": 4155,
      "##벼": 4156,
      "##늄": 4157,
      "##텍": 4158,
      "##뺘": 4159,
      "##튜": 4160,
      "##푼": 4161,
      "##랄": 4162,
      "##괘": 4163,
      "##Y": 4164,
      "##멩": 4165,
      "##덴": 4166,
      "##겪": 4167,
      "##냉": 4168,
      "##촥": 4169,
      "##쿵": 4170,
      "##뚜": 4171,
      "##ㅗ": 4172,
      "##찜": 4173,
      "##첵": 4174,
      "##갚": 4175,
      "##멜": 4176,
      "##겹": 4177,
      "##몸": 4178,
      "##썼": 4179,
      "##튬": 4180,
      "##깨": 4181,
      "##쁘": 4182,
      "##켐": 4183,
      "##숴": 4184,
      "##엣": 4185,
      "##걔": 4186,
      "##앤": 4187,
      "##뱐": 4188,
      "##셉": 4189,
      "##q": 4190,
      "##잊": 4191,
      "##뼈": 4192,
      "##팝": 4193,
      "##템": 4194,
      "##틀": 4195,
      "##룸": 4196,
      "##쩡": 4197,
      "##Z": 4198,
      "##뵈": 4199,
      "##훌": 4200,
      "##ㅑ": 4201,
      "##🥵": 4202,
      "##🤢": 4203,
      "##폴": 4204,
      "##앉": 4205,
      "##욜": 4206,
      "##잏": 4207,
      "##깠": 4208,
      "##샤": 4209,
      "##쭝": 4210,
      "##㎍": 4211,
      "##꿰": 4212,
      "##엘": 4213,
      "##삭": 4214,
      "##훨": 4215,
      "##떳": 4216,
      "##뽁": 4217,
      "##꿉": 4218,
      "##넼": 4219,
      "##깼": 4220,
      "##뤘": 4221,
      "##퀀": 4222,
      "##갠": 4223,
      "##옹": 4224,
      "##탔": 4225,
      "##컥": 4226,
      "##혈": 4227,
      "##뜻": 4228,
      "##텨": 4229,
      "##윽": 4230,
      "##뛰": 4231,
      "##짘": 4232,
      "##뻗": 4233,
      "##🤔": 4234,
      "##뻐": 4235,
      "##줌": 4236,
      "##둡": 4237,
      "##핍": 4238,
      "##셋": 4239,
      "##땡": 4240,
      "##셰": 4241,
      "##렘": 4242,
      "##닐": 4243,
      "##젼": 4244,
      "##곶": 4245,
      "##쭐": 4246,
      "##켸": 4247,
      "##빴": 4248,
      "##캅": 4249,
      "##헝": 4250,
      "##쾡": 4251,
      "##㈜": 4252,
      "##툼": 4253,
      "##텝": 4254,
      "##핬": 4255,
      "##춧": 4256,
      "##숩": 4257,
      "##봬": 4258,
      "##펩": 4259,
      "##꾀": 4260,
      "##쥴": 4261,
      "##핀": 4262,
      "##꼰": 4263,
      "##팡": 4264,
      "##튀": 4265,
      "##맥": 4266,
      "##㎒": 4267,
      "##샹": 4268,
      "##맷": 4269,
      "##맺": 4270,
      "##늨": 4271,
      "##씽": 4272,
      "##🐶": 4273,
      "##킵": 4274,
      "##힝": 4275,
      "##씌": 4276,
      "##팟": 4277,
      "##❓": 4278,
      "##똘": 4279,
      "##큽": 4280,
      "##횡": 4281,
      "##빗": 4282,
      "##쁨": 4283,
      "##띠": 4284,
      "##뿔": 4285,
      "##뿅": 4286,
      "##캣": 4287,
      "##갸": 4288,
      "##듈": 4289,
      "##끓": 4290,
      "##냅": 4291,
      "##둿": 4292,
      "##꽂": 4293,
      "##탐": 4294,
      "##묻": 4295,
      "##웁": 4296,
      "##딘": 4297,
      "##랖": 4298,
      "##넓": 4299,
      "##뱀": 4300,
      "##셐": 4301,
      "##힣": 4302,
      "##촛": 4303,
      "##탤": 4304,
      "##됏": 4305,
      "##삿": 4306,
      "##펴": 4307,
      "##샷": 4308,
      "##켄": 4309,
      "##숲": 4310,
      "##첸": 4311,
      "##댔": 4312,
      "##혓": 4313,
      "##뭔": 4314,
      "##됫": 4315,
      "##멧": 4316,
      "##흔": 4317,
      "##꼭": 4318,
      "##읗": 4319,
      "##펠": 4320,
      "##쏭": 4321,
      "##넷": 4322,
      "##ㅊ": 4323,
      "##꼼": 4324,
      "##챦": 4325,
      "##뼛": 4326,
      "##엌": 4327,
      "##됀": 4328,
      "##캠": 4329,
      "##칵": 4330,
      "##ㅐ": 4331,
      "##닮": 4332,
      "##쏜": 4333,
      "##깍": 4334,
      "##굿": 4335,
      "##텅": 4336,
      "##넴": 4337,
      "##띤": 4338,
      "##셧": 4339,
      "##놋": 4340,
      "##겡": 4341,
      "##볶": 4342,
      "##짯": 4343,
      "##밟": 4344,
      "##J": 4345,
      "##😃": 4346,
      "##👮": 4347,
      "##쮸": 4348,
      "##횟": 4349,
      "##👨": 4350,
      "##읭": 4351,
      "##댑": 4352,
      "##걍": 4353,
      "##쑥": 4354,
      "##뻬": 4355,
      "##궉": 4356,
      "##닜": 4357,
      "##깊": 4358,
      "##흑": 4359,
      "##킥": 4360,
      "##꿈": 4361,
      "##딨": 4362,
      "##괏": 4363,
      "##츰": 4364,
      "##돠": 4365,
      "##떴": 4366,
      "##튄": 4367,
      "##헸": 4368,
      "##짼": 4369,
      "##쫓": 4370,
      "##뚤": 4371,
      "##랏": 4372,
      "##둣": 4373,
      "##넥": 4374,
      "##쫒": 4375,
      "##뷴": 4376,
      "##쌈": 4377,
      "##뻑": 4378,
      "##넛": 4379,
      "##낄": 4380,
      "##뽀": 4381,
      "##펑": 4382,
      "##웹": 4383,
      "##랼": 4384,
      "##덥": 4385,
      "##쟈": 4386,
      "##딛": 4387,
      "##칩": 4388,
      "##솟": 4389,
      "##넌": 4390,
      "##욯": 4391,
      "##삽": 4392,
      "##읔": 4393,
      "##췄": 4394,
      "##팹": 4395,
      "##툴": 4396,
      "##콴": 4397,
      "##뗀": 4398,
      "##멕": 4399,
      "##읎": 4400,
      "##끈": 4401,
      "##앱": 4402,
      "##닙": 4403,
      "##옛": 4404,
      "##햐": 4405,
      "##첼": 4406,
      "##퀼": 4407,
      "##훼": 4408,
      "##픔": 4409,
      "##✔": 4410,
      "##뱃": 4411,
      "##쥔": 4412,
      "##꿀": 4413,
      "##텡": 4414,
      "##귄": 4415,
      "##귝": 4416,
      "##밴": 4417,
      "##켯": 4418,
      "##싯": 4419,
      "##딜": 4420,
      "##츨": 4421,
      "##띵": 4422,
      "##쥥": 4423,
      "##섴": 4424,
      "##궤": 4425,
      "##릅": 4426,
      "##꿇": 4427,
      "##밈": 4428,
      "##빡": 4429,
      "##쯔": 4430,
      "##늦": 4431,
      "##밧": 4432,
      "##뚫": 4433,
      "##꼿": 4434,
      "##샵": 4435,
      "##꼽": 4436,
      "##읹": 4437,
      "##튼": 4438,
      "##왠": 4439,
      "##넬": 4440,
      "##퀄": 4441,
      "##셍": 4442,
      "##뮬": 4443,
      "##깸": 4444,
      "##찢": 4445,
      "##좁": 4446,
      "##녔": 4447,
      "##핸": 4448,
      "##😮": 4449,
      "##큘": 4450,
      "##㎏": 4451,
      "##젔": 4452,
      "##😂": 4453,
      "##😝": 4454,
      "##퐁": 4455,
      "##윘": 4456,
      "##굶": 4457,
      "##섞": 4458,
      "##뀐": 4459,
      "##끊": 4460,
      "##짚": 4461,
      "##벅": 4462,
      "##쩐": 4463,
      "##👊": 4464,
      "##썻": 4465,
      "##숍": 4466,
      "##뺌": 4467,
      "##눙": 4468,
      "##썽": 4469,
      "##👎": 4470,
      "##옳": 4471,
      "##낱": 4472,
      "##곱": 4473,
      "##쭈": 4474,
      "##뀔": 4475,
      "##탭": 4476,
      "##셀": 4477,
      "##넨": 4478,
      "##닏": 4479,
      "##썰": 4480,
      "##됌": 4481,
      "##쿤": 4482,
      "##몫": 4483,
      "##씸": 4484,
      "##퀸": 4485,
      "##ㅌ": 4486,
      "##얌": 4487,
      "##딧": 4488,
      "##씻": 4489,
      "##얹": 4490,
      "##툰": 4491,
      "##💯": 4492,
      "##탬": 4493,
      "##맡": 4494,
      "##깃": 4495,
      "##넉": 4496,
      "##짧": 4497,
      "##젬": 4498,
      "##옮": 4499,
      "##뽐": 4500,
      "##곗": 4501,
      "##뒷": 4502,
      "##㎥": 4503,
      "##뀨": 4504,
      "##텀": 4505,
      "##꺄": 4506,
      "##썬": 4507,
      "##잰": 4508,
      "##앚": 4509,
      "##쪼": 4510,
      "##깤": 4511,
      "##읃": 4512,
      "##얷": 4513,
      "##셕": 4514,
      "##깎": 4515,
      "##콕": 4516,
      "##쭉": 4517,
      "##❗": 4518,
      "##캉": 4519,
      "##죤": 4520,
      "##눕": 4521,
      "##펌": 4522,
      "##쿼": 4523,
      "##뤽": 4524,
      "##🙄": 4525,
      "##덮": 4526,
      "##붑": 4527,
      "##꺠": 4528,
      "##썸": 4529,
      "##깅": 4530,
      "##딪": 4531,
      "##흙": 4532,
      "##쉈": 4533,
      "##룰": 4534,
      "##㏊": 4535,
      "##컹": 4536,
      "##웟": 4537,
      "##셴": 4538,
      "##긔": 4539,
      "##깽": 4540,
      "##벳": 4541,
      "##💨": 4542,
      "##ㅛ": 4543,
      "##💪": 4544,
      "##훤": 4545,
      "##쏠": 4546,
      "##츳": 4547,
      "##돤": 4548,
      "##놐": 4549,
      "##뭄": 4550,
      "##팍": 4551,
      "##쉘": 4552,
      "##싹": 4553,
      "##댱": 4554,
      "##뾰": 4555,
      "##놯": 4556,
      "##ㄸ": 4557,
      "##곽": 4558,
      "##벚": 4559,
      "##눴": 4560,
      "##빅": 4561,
      "##깁": 4562,
      "##갰": 4563,
      "##퀵": 4564,
      "##롸": 4565,
      "##샴": 4566,
      "##웍": 4567,
      "##꿨": 4568,
      "##믐": 4569,
      "##뻤": 4570,
      "##갘": 4571,
      "##멈": 4572,
      "##깟": 4573,
      "##겆": 4574,
      "##믈": 4575,
      "##킄": 4576,
      "##쏴": 4577,
      "##쇽": 4578,
      "##🧟": 4579,
      "##♂": 4580,
      "##쉼": 4581,
      "##◾": 4582,
      "##넸": 4583,
      "##얀": 4584,
      "##▶": 4585,
      "##꽐": 4586,
      "##쉴": 4587,
      "##💀": 4588,
      "##슙": 4589,
      "##🐈": 4590,
      "##앳": 4591,
      "##😅": 4592,
      "##숀": 4593,
      "##🦺": 4594,
      "##꽈": 4595,
      "##붐": 4596,
      "##🤬": 4597,
      "##🤐": 4598,
      "##앓": 4599,
      "##🇯": 4600,
      "##🇵": 4601,
      "##🇺": 4602,
      "##🇲": 4603,
      "##🤧": 4604,
      "##벵": 4605,
      "##㎾": 4606,
      "##틍": 4607,
      "##꾹": 4608,
      "##🌶": 4609,
      "##짬": 4610,
      "##녜": 4611,
      "##앖": 4612,
      "##ㅃ": 4613,
      "##캡": 4614,
      "##꼈": 4615,
      "##꽥": 4616,
      "##섣": 4617,
      "##냑": 4618,
      "##잭": 4619,
      "##헐": 4620,
      "##챈": 4621,
      "##🚬": 4622,
      "##훔": 4623,
      "##펼": 4624,
      "##찡": 4625,
      "##껜": 4626,
      "##틈": 4627,
      "##첫": 4628,
      "##늉": 4629,
      "##폄": 4630,
      "##섰": 4631,
      "##뮈": 4632,
      "##욧": 4633,
      "##햔": 4634,
      "##뎃": 4635,
      "##홰": 4636,
      "##횽": 4637,
      "##몀": 4638,
      "##뜰": 4639,
      "##핥": 4640,
      "##풋": 4641,
      "##쬐": 4642,
      "##낟": 4643,
      "##🩸": 4644,
      "##뺏": 4645,
      "##쉣": 4646,
      "##랠": 4647,
      "##Q": 4648,
      "##릎": 4649,
      "##꺾": 4650,
      "##얏": 4651,
      "##뙤": 4652,
      "##몃": 4653,
      "##🤭": 4654,
      "##🤪": 4655,
      "##좆": 4656,
      "##턱": 4657,
      "##쫙": 4658,
      "##됴": 4659,
      "##💥": 4660,
      "##땔": 4661,
      "##🌸": 4662,
      "##솥": 4663,
      "##껌": 4664,
      "##짆": 4665,
      "##꽤": 4666,
      "##펏": 4667,
      "##뺑": 4668,
      "##잦": 4669,
      "##켈": 4670,
      "##웰": 4671,
      "##겧": 4672,
      "##닿": 4673,
      "##캬": 4674,
      "##귓": 4675,
      "##맴": 4676,
      "##핳": 4677,
      "##굽": 4678,
      "##쌘": 4679,
      "##쳇": 4680,
      "##덟": 4681,
      "##😪": 4682,
      "##뜹": 4683,
      "##짹": 4684,
      "##긱": 4685,
      "##펐": 4686,
      "##뱉": 4687,
      "##젊": 4688,
      "##🚗": 4689,
      "##슘": 4690,
      "##괸": 4691,
      "##헉": 4692,
      "##뱁": 4693,
      "##돕": 4694,
      "##깥": 4695,
      "##쟤": 4696,
      "##캇": 4697,
      "##맣": 4698,
      "##쪘": 4699,
      "##옄": 4700,
      "##꺽": 4701,
      "##샬": 4702,
      "##㎘": 4703,
      "##닛": 4704,
      "##😣": 4705,
      "##볍": 4706,
      "##찹": 4707,
      "##꿋": 4708,
      "##좃": 4709,
      "##텋": 4710,
      "##엥": 4711,
      "##헹": 4712,
      "##빕": 4713,
      "##믁": 4714,
      "##콥": 4715,
      "##밷": 4716,
      "##🏼": 4717,
      "##갬": 4718,
      "##빔": 4719,
      "##튿": 4720,
      "##듵": 4721,
      "##듷": 4722,
      "##긁": 4723,
      "##갤": 4724,
      "##퓰": 4725,
      "##쉰": 4726,
      "##늫": 4727,
      "##☠": 4728,
      "##룻": 4729,
      "##꽉": 4730,
      "##쩜": 4731,
      "##앍": 4732,
      "##땃": 4733,
      "##맬": 4734,
      "##헙": 4735,
      "##뜸": 4736,
      "##쭘": 4737,
      "##훙": 4738,
      "##늑": 4739,
      "##젹": 4740,
      "##꿩": 4741,
      "##띁": 4742,
      "##🕊": 4743,
      "##🦀": 4744,
      "##굉": 4745,
      "##녈": 4746,
      "##눅": 4747,
      "##릏": 4748,
      "##셸": 4749,
      "##엏": 4750,
      "##꼇": 4751,
      "##찼": 4752,
      "##셩": 4753,
      "##튠": 4754,
      "##듐": 4755,
      "##옇": 4756,
      "##깰": 4757,
      "##싣": 4758,
      "##🏻": 4759,
      "##욘": 4760,
      "##쐈": 4761,
      "##훗": 4762,
      "##❤": 4763,
      "##쌩": 4764,
      "##쳬": 4765,
      "##ㅍ": 4766,
      "##켕": 4767,
      "##🇸": 4768,
      "##슛": 4769,
      "##몄": 4770,
      "##뫼": 4771,
      "##헨": 4772,
      "##뿜": 4773,
      "##빤": 4774,
      "##잽": 4775,
      "##헷": 4776,
      "##💉": 4777,
      "##🚫": 4778,
      "##⃣": 4779,
      "##🐭": 4780,
      "##핌": 4781,
      "##홧": 4782,
      "##읕": 4783,
      "##듦": 4784,
      "##챤": 4785,
      "##ㅢ": 4786,
      "##👌": 4787,
      "##읺": 4788,
      "##엮": 4789,
      "##밉": 4790,
      "##묶": 4791,
      "##깄": 4792,
      "##닢": 4793,
      "##챗": 4794,
      "##쳥": 4795,
      "##휀": 4796,
      "##🦜": 4797,
      "##짰": 4798,
      "##쥘": 4799,
      "##탰": 4800,
      "##탉": 4801,
      "##좨": 4802,
      "##쿱": 4803,
      "##쬬": 4804,
      "##♀": 4805,
      "##췌": 4806,
      "##쫑": 4807,
      "##팸": 4808,
      "##낑": 4809,
      "##뗴": 4810,
      "##⚠": 4811,
      "##퀘": 4812,
      "##힉": 4813,
      "##펫": 4814,
      "##녓": 4815,
      "##쓱": 4816,
      "##걀": 4817,
      "##왑": 4818,
      "##💣": 4819,
      "##🚀": 4820,
      "##촞": 4821,
      "##윅": 4822,
      "##팼": 4823,
      "##룽": 4824,
      "##↗": 4825,
      "##ㄵ": 4826,
      "##엾": 4827,
      "##맑": 4828,
      "##퓸": 4829,
      "##🖕": 4830,
      "##🏽": 4831,
      "##굳": 4832,
      "##😜": 4833,
      "##😀": 4834,
      "##뿍": 4835,
      "##씰": 4836,
      "##묜": 4837,
      "##곁": 4838,
      "##췬": 4839,
      "##삻": 4840,
      "##늕": 4841,
      "##쉑": 4842,
      "##딲": 4843,
      "##깬": 4844,
      "##맟": 4845,
      "##썹": 4846,
      "##렐": 4847,
      "##펨": 4848,
      "##렜": 4849,
      "##랔": 4850,
      "##🎵": 4851,
      "##틔": 4852,
      "##꿍": 4853,
      "##퉷": 4854,
      "##몆": 4855,
      "##튐": 4856,
      "##줜": 4857,
      "##콧": 4858,
      "##💕": 4859,
      "##둠": 4860,
      "##숸": 4861,
      "##뱔": 4862,
      "##챕": 4863,
      "##젱": 4864,
      "##즹": 4865,
      "##깉": 4866,
      "##옌": 4867,
      "##뤼": 4868,
      "##렝": 4869,
      "##팠": 4870,
      "##닠": 4871,
      "##🤷": 4872,
      "##촨": 4873,
      "##뭡": 4874,
      "##셤": 4875,
      "##잪": 4876,
      "##릐": 4877,
      "##둉": 4878,
      "##🍾": 4879,
      "##💩": 4880,
      "##슐": 4881,
      "##댸": 4882,
      "##옘": 4883,
      "##캥": 4884,
      "##숟": 4885,
      "##떔": 4886,
      "##🌚": 4887,
      "##뢀": 4888,
      "##껨": 4889,
      "##➕": 4890,
      "##녘": 4891,
      "##떈": 4892,
      "##죌": 4893,
      "##썪": 4894,
      "##셌": 4895,
      "##맄": 4896,
      "##뜬": 4897,
      "##🙀": 4898,
      "##쓔": 4899,
      "##잌": 4900,
      "##땠": 4901,
      "##캤": 4902,
      "##낰": 4903,
      "##ㅟ": 4904,
      "##쒀": 4905,
      "##캘": 4906,
      "##🙅": 4907,
      "##켤": 4908,
      "##덧": 4909,
      "##쨩": 4910,
      "##똔": 4911,
      "##냠": 4912,
      "##듕": 4913,
      "##즤": 4914,
      "##뮌": 4915,
      "##팻": 4916,
      "##뎈": 4917,
      "##쌌": 4918,
      "##😠": 4919,
      "##뭥": 4920,
      "##툥": 4921,
      "##뭅": 4922,
      "##풉": 4923,
      "##💢": 4924,
      "##챨": 4925,
      "##훠": 4926,
      "##솎": 4927,
      "##윔": 4928,
      "##😖": 4929,
      "##겋": 4930,
      "##꼐": 4931,
      "##뺀": 4932,
      "##굣": 4933,
      "##톳": 4934,
      "##툽": 4935,
      "##휠": 4936,
      "##됍": 4937,
      "##킈": 4938,
      "##왱": 4939,
      "##콰": 4940,
      "##쥭": 4941,
      "##몹": 4942,
      "##뿡": 4943,
      "##줏": 4944,
      "##뇬": 4945,
      "##늪": 4946,
      "##💫": 4947,
      "##짢": 4948,
      "##밎": 4949,
      "##⭐": 4950,
      "##눼": 4951,
      "##뙈": 4952,
      "##뎠": 4953,
      "##쌤": 4954,
      "##봨": 4955,
      "##셱": 4956,
      "##옜": 4957,
      "##넝": 4958,
      "##멱": 4959,
      "##폈": 4960,
      "##☺": 4961,
      "##끽": 4962,
      "##퍈": 4963,
      "##묽": 4964,
      "##뺴": 4965,
      "##햑": 4966,
      "##쿸": 4967,
      "##쵝": 4968,
      "##잿": 4969,
      "##됭": 4970,
      "##샊": 4971,
      "##맀": 4972,
      "##뇽": 4973,
      "##옐": 4974,
      "##ㅕ": 4975,
      "##뽂": 4976,
      "##숑": 4977,
      "##쨉": 4978,
      "##쏙": 4979,
      "##챘": 4980,
      "##볕": 4981,
      "##좇": 4982,
      "##욬": 4983,
      "##롄": 4984,
      "##앰": 4985,
      "##듸": 4986,
      "##낵": 4987,
      "##렿": 4988,
      "##쏟": 4989,
      "##쵸": 4990,
      "##홉": 4991,
      "##믜": 4992,
      "##궜": 4993,
      "##🎉": 4994,
      "##뒹": 4995,
      "##쾨": 4996,
      "##😘": 4997,
      "##좝": 4998,
      "##냇": 4999,
      "##🔹": 5000,
      "##좡": 5001,
      "##잆": 5002,
      "##❌": 5003,
      "##쏩": 5004,
      "##볌": 5005,
      "##🐮": 5006,
      "##뎨": 5007,
      "##읏": 5008,
      "##쟌": 5009,
      "##솜": 5010,
      "##흰": 5011,
      "##겔": 5012,
      "##욥": 5013,
      "##먈": 5014,
      "##뻣": 5015,
      "##쭌": 5016,
      "##💦": 5017,
      "##💓": 5018,
      "##쟐": 5019,
      "##㎎": 5020,
      "##띨": 5021,
      "##펄": 5022,
      "##밨": 5023,
      "##땍": 5024,
      "##쇳": 5025,
      "##뱌": 5026,
      "##뎀": 5027,
      "##횐": 5028,
      "##펭": 5029,
      "##쳉": 5030,
      "##뼉": 5031,
      "##헥": 5032,
      "##😤": 5033,
      "##촐": 5034,
      "##샥": 5035,
      "##쎌": 5036,
      "##㎛": 5037,
      "##🍎": 5038,
      "##젛": 5039,
      "##햬": 5040,
      "##촘": 5041,
      "##닳": 5042,
      "##흩": 5043,
      "##읊": 5044,
      "##갛": 5045,
      "##솓": 5046,
      "##휩": 5047,
      "##퉜": 5048,
      "##쏱": 5049,
      "##엊": 5050,
      "##괭": 5051,
      "##쨌": 5052,
      "##킁": 5053,
      "##🖤": 5054,
      "##괞": 5055,
      "##🚨": 5056,
      "##옻": 5057,
      "##쯩": 5058,
      "##맸": 5059,
      "##🇦": 5060,
      "##귿": 5061,
      "##쭤": 5062,
      "##찝": 5063,
      "##삔": 5064,
      "##됄": 5065,
      "##🤑": 5066,
      "##꽝": 5067,
      "##겉": 5068,
      "##핼": 5069,
      "##룐": 5070,
      "##헣": 5071,
      "##샜": 5072,
      "##겊": 5073,
      "##펍": 5074,
      "##귤": 5075,
      "##깻": 5076,
      "##딕": 5077,
      "##뵤": 5078,
      "##겅": 5079,
      "##👀": 5080,
      "##😱": 5081,
      "##샅": 5082,
      "##뵹": 5083,
      "##🦴": 5084,
      "##🎶": 5085,
      "##🌈": 5086,
      "##💜": 5087,
      "##😑": 5088,
      "##믕": 5089,
      "##🐦": 5090,
      "##텼": 5091,
      "##햅": 5092,
      "##젯": 5093,
      "##몈": 5094,
      "##쌰": 5095,
      "##븅": 5096,
      "##켠": 5097,
      "##톼": 5098,
      "##횔": 5099,
      "##푹": 5100,
      "##삣": 5101,
      "##뺄": 5102,
      "##🧡": 5103,
      "##읜": 5104,
      "##찿": 5105,
      "##쨋": 5106,
      "##🪰": 5107,
      "##뎁": 5108,
      "##헴": 5109,
      "##뺐": 5110,
      "##틉": 5111,
      "##헿": 5112,
      "##눟": 5113,
      "##쨰": 5114,
      "##♨": 5115,
      "##곪": 5116,
      "##쭙": 5117,
      "##룔": 5118,
      "##쌕": 5119,
      "##뵙": 5120,
      "##갉": 5121,
      "##짲": 5122,
      "##곸": 5123,
      "##왼": 5124,
      "##뉨": 5125,
      "##쥑": 5126,
      "##볏": 5127,
      "##옶": 5128,
      "##🍀": 5129,
      "##뚠": 5130,
      "##뎐": 5131,
      "##첬": 5132,
      "##핲": 5133,
      "##즁": 5134,
      "##™": 5135,
      "##쌉": 5136,
      "##햤": 5137,
      "##딫": 5138,
      "##얽": 5139,
      "##엨": 5140,
      "##폿": 5141,
      "##얕": 5142,
      "##앟": 5143,
      "##텁": 5144,
      "##짴": 5145,
      "##뀜": 5146,
      "##🐵": 5147,
      "##빰": 5148,
      "##뭍": 5149,
      "##떽": 5150,
      "##💰": 5151,
      "##✋": 5152,
      "##멓": 5153,
      "##꿧": 5154,
      "##뮴": 5155,
      "##빳": 5156,
      "##텟": 5157,
      "##🙃": 5158,
      "##튭": 5159,
      "##왤": 5160,
      "##짭": 5161,
      "##쫄": 5162,
      "##쭵": 5163,
      "##훅": 5164,
      "##슼": 5165,
      "##껐": 5166,
      "##놉": 5167,
      "##빋": 5168,
      "##솝": 5169,
      "##줴": 5170,
      "##핰": 5171,
      "##🐁": 5172,
      "##🐀": 5173,
      "##😍": 5174,
      "##묠": 5175,
      "##ㄻ": 5176,
      "##🤨": 5177,
      "##넒": 5178,
      "##찓": 5179,
      "##홋": 5180,
      "##깞": 5181,
      "##쨔": 5182,
      "##몌": 5183,
      "##뺠": 5184,
      "##뛴": 5185,
      "##쿙": 5186,
      "##벋": 5187,
      "##쥰": 5188,
      "##먕": 5189,
      "##ㅖ": 5190,
      "##헀": 5191,
      "##잫": 5192,
      "##😰": 5193,
      "##🐩": 5194,
      "##🐒": 5195,
      "##🥶": 5196,
      "##갼": 5197,
      "##늣": 5198,
      "##옼": 5199,
      "##웡": 5200,
      "##😊": 5201,
      "##🐖": 5202,
      "##톈": 5203,
      "##😒": 5204,
      "##뗑": 5205,
      "##짊": 5206,
      "##🍺": 5207,
      "##벹": 5208,
      "##싴": 5209,
      "##끠": 5210,
      "##냣": 5211,
      "##넜": 5212,
      "##줭": 5213,
      "##쫭": 5214,
      "##퐈": 5215,
      "##🦅": 5216,
      "##💖": 5217,
      "##얐": 5218,
      "##곈": 5219,
      "##킅": 5220,
      "##탸": 5221,
      "##뮨": 5222,
      "##츈": 5223,
      "##쟨": 5224,
      "##픕": 5225,
      "##탯": 5226,
      "##땟": 5227,
      "##앎": 5228,
      "##뽜": 5229,
      "##👹": 5230,
      "##🪳": 5231,
      "##🪓": 5232,
      "##🤺": 5233,
      "##💘": 5234,
      "##샏": 5235,
      "##넵": 5236,
      "##휑": 5237,
      "##웩": 5238,
      "##💗": 5239,
      "##슭": 5240,
      "##욌": 5241,
      "##얺": 5242,
      "##첮": 5243,
      "##뺨": 5244,
      "##숏": 5245,
      "##닻": 5246,
      "##띔": 5247,
      "##엤": 5248,
      "##😎": 5249,
      "##틋": 5250,
      "##햘": 5251,
      "##컄": 5252,
      "##폇": 5253,
      "##⛔": 5254,
      "##🎗": 5255,
      "##튈": 5256,
      "##뵐": 5257,
      "##윷": 5258,
      "##욀": 5259,
      "##🗽": 5260,
      "##솤": 5261,
      "##❕": 5262,
      "##🙌": 5263,
      "##뤠": 5264,
      "##붉": 5265,
      "##쌨": 5266,
      "##츌": 5267,
      "##럐": 5268,
      "##샛": 5269,
      "##숯": 5270,
      "##궄": 5271,
      "##졉": 5272,
      "##쫏": 5273,
      "##힛": 5274,
      "##쮜": 5275,
      "##🔞": 5276,
      "##ㅄ": 5277,
      "##쌋": 5278,
      "##귐": 5279,
      "##뵜": 5280,
      "##쳔": 5281,
      "##샙": 5282,
      "##맗": 5283,
      "##츼": 5284,
      "##꿘": 5285,
      "##🤗": 5286,
      "##흣": 5287,
      "##😭": 5288,
      "##쟉": 5289,
      "##뗄": 5290,
      "##낍": 5291,
      "##슉": 5292,
      "##🎯": 5293,
      "##끕": 5294,
      "##샠": 5295,
      "##줗": 5296,
      "##쐬": 5297,
      "##뗘": 5298,
      "##껫": 5299,
      "##🍆": 5300,
      "##😋": 5301,
      "##퇘": 5302,
      "##낡": 5303,
      "##븍": 5304,
      "##🍉": 5305,
      "##맏": 5306,
      "##샐": 5307,
      "##🦇": 5308,
      "##🦠": 5309,
      "##😔": 5310,
      "##뻇": 5311,
      "##듁": 5312,
      "##👥": 5313,
      "##롷": 5314,
      "##꿜": 5315,
      "##볜": 5316,
      "##썌": 5317,
      "##뫄": 5318,
      "##흫": 5319,
      "##🔔": 5320,
      "##🐔": 5321,
      "##빱": 5322,
      "##넋": 5323,
      "##퉈": 5324,
      "##씐": 5325,
      "##🦧": 5326,
      "##싷": 5327,
      "##뭣": 5328,
      "##굔": 5329,
      "##쪙": 5330,
      "##멊": 5331,
      "##🤩": 5332,
      "##🔪": 5333,
      "##붇": 5334,
      "##댘": 5335,
      "##뉩": 5336,
      "##썅": 5337,
      "##샾": 5338,
      "##귈": 5339,
      "##🫰": 5340,
      "##🤦": 5341,
      "##㎓": 5342,
      "##잗": 5343,
      "##죗": 5344,
      "##섀": 5345,
      "##젋": 5346,
      "##뗌": 5347,
      "##곀": 5348,
      "##✨": 5349,
      "##똭": 5350,
      "##넙": 5351,
      "##✖": 5352,
      "##냬": 5353,
      "##뷸": 5354,
      "##왁": 5355,
      "##쐐": 5356,
      "##😛": 5357,
      "##햌": 5358,
      "##💞": 5359,
      "##쟀": 5360,
      "##🙆": 5361,
      "##💛": 5362,
      "##💚": 5363,
      "##뭏": 5364,
      "##ㅒ": 5365,
      "##짙": 5366,
      "##뛸": 5367,
      "##셑": 5368,
      "##짒": 5369,
      "##샨": 5370,
      "##🥳": 5371,
      "##븡": 5372,
      "##뤈": 5373,
      "##🤯": 5374,
      "##🔵": 5375,
      "##즛": 5376,
      "##긑": 5377,
      "##멉": 5378,
      "##츤": 5379,
      "##횃": 5380,
      "##쫍": 5381,
      "##젭": 5382,
      "##쑨": 5383,
      "##🍣": 5384,
      "##🥩": 5385,
      "##㎿": 5386,
      "##홓": 5387,
      "##싢": 5388,
      "##뜀": 5389,
      "##뀝": 5390,
      "##켔": 5391,
      "##뇰": 5392,
      "##츙": 5393,
      "##웤": 5394,
      "##솨": 5395,
      "##뛔": 5396,
      "##믓": 5397,
      "##뤌": 5398,
      "##꿎": 5399,
      "##읻": 5400,
      "##졓": 5401,
      "##쎔": 5402,
      "##핟": 5403,
      "##삯": 5404,
      "##쐇": 5405,
      "##😉": 5406,
      "##촤": 5407,
      "##눗": 5408,
      "##뗏": 5409,
      "##🥺": 5410,
      "##❄": 5411,
      "##쑬": 5412,
      "##촵": 5413,
      "##💋": 5414,
      "##졎": 5415,
      "##꙼": 5416,
      "##얗": 5417,
      "##쿰": 5418,
      "##숱": 5419,
      "##삵": 5420,
      "##깆": 5421,
      "##🦮": 5422,
      "##쏼": 5423,
      "##쫀": 5424,
      "##👿": 5425,
      "##뷱": 5426,
      "##꽌": 5427,
      "##왚": 5428,
      "##댠": 5429,
      "##땄": 5430,
      "##핧": 5431,
      "##😸": 5432,
      "##쯥": 5433,
      "##봥": 5434,
      "##닺": 5435,
      "##돝": 5436,
      "##쉅": 5437,
      "##🔴": 5438,
      "##🤥": 5439,
      "##푠": 5440,
      "##⭕": 5441,
      "##졀": 5442,
      "##↘": 5443,
      "##뿟": 5444,
      "##쁩": 5445,
      "##윳": 5446,
      "##뉜": 5447,
      "##🤡": 5448,
      "##멥": 5449,
      "##뼘": 5450,
      "##퍠": 5451,
      "##냘": 5452,
      "##🎈": 5453,
      "##웜": 5454,
      "##😏": 5455,
      "##밬": 5456,
      "##쥤": 5457,
      "##💳": 5458,
      "##ㅘ": 5459,
      "##🐽": 5460,
      "##맜": 5461,
      "##윰": 5462,
      "##졷": 5463,
      "##욍": 5464,
      "##긕": 5465,
      "##돟": 5466,
      "##햠": 5467,
      "##밣": 5468,
      "##휼": 5469,
      "##엡": 5470,
      "##띌": 5471,
      "##쫗": 5472,
      "##칮": 5473,
      "##좔": 5474,
      "##촣": 5475,
      "##🇼": 5476,
      "##🇹": 5477,
      "##왐": 5478,
      "##덫": 5479,
      "##묙": 5480,
      "##궂": 5481,
      "##똬": 5482,
      "##🟰": 5483,
      "##뱡": 5484,
      "##꺅": 5485,
      "##띡": 5486,
      "##🙉": 5487,
      "##뇸": 5488,
      "##돨": 5489,
      "##쎠": 5490,
      "##얍": 5491,
      "##샆": 5492,
      "##줮": 5493,
      "##슌": 5494,
      "##뺃": 5495,
      "##😩": 5496,
      "##멎": 5497,
      "##휸": 5498,
      "##챡": 5499,
      "##쉔": 5500,
      "##븥": 5501,
      "##쏫": 5502,
      "##뼝": 5503,
      "##➡": 5504,
      "##섶": 5505,
      "##쨈": 5506,
      "##씅": 5507,
      "##칀": 5508,
      "##굯": 5509,
      "##죳": 5510,
      "##😐": 5511,
      "##😬": 5512,
      "##뻠": 5513,
      "##쎼": 5514,
      "##콸": 5515,
      "##🐍": 5516,
      "##늗": 5517,
      "##뭬": 5518,
      "##롹": 5519,
      "##퐝": 5520,
      "##갗": 5521,
      "##🐂": 5522,
      "##큭": 5523,
      "##😴": 5524,
      "##😲": 5525,
      "##섕": 5526,
      "##짇": 5527,
      "##켬": 5528,
      "##😥": 5529,
      "##뎄": 5530,
      "##🛑": 5531,
      "##쏨": 5532,
      "##눜": 5533,
      "##굘": 5534,
      "##헵": 5535,
      "##🐑": 5536,
      "##덯": 5537,
      "##◀": 5538,
      "##🙂": 5539,
      "##잴": 5540,
      "##핡": 5541,
      "##뢔": 5542,
      "##찣": 5543,
      "##싄": 5544,
      "##뗐": 5545,
      "##웽": 5546,
      "##홱": 5547,
      "##😚": 5548,
      "##싨": 5549,
      "##껭": 5550,
      "##♠": 5551,
      "##휙": 5552,
      "##얜": 5553,
      "##숄": 5554,
      "##쫘": 5555,
      "##돚": 5556,
      "##🐎": 5557,
      "##굵": 5558,
      "##븨": 5559,
      "##곯": 5560,
      "##꽹": 5561,
      "##걑": 5562,
      "##🥸": 5563,
      "##뜽": 5564,
      "##😓": 5565,
      "##툇": 5566,
      "##뵌": 5567,
      "##쫩": 5568,
      "##밦": 5569,
      "##🔑": 5570,
      "##컫": 5571,
      "##뽤": 5572,
      "##😫": 5573,
      "##줒": 5574,
      "##빢": 5575,
      "##쓉": 5576,
      "##🦶": 5577,
      "##뱍": 5578,
      "##묫": 5579,
      "##🤟": 5580,
      "##갹": 5581,
      "##찎": 5582,
      "##뮐": 5583,
      "##👟": 5584,
      "##뵨": 5585,
      "##윕": 5586,
      "##돛": 5587,
      "##갭": 5588,
      "##😵": 5589,
      "##⚰": 5590,
      "##푯": 5591,
      "##뉸": 5592,
      "##🦆": 5593,
      "##🔨": 5594,
      "##솽": 5595,
      "##꿏": 5596,
      "##쒜": 5597,
      "##😇": 5598,
      "##앂": 5599,
      "##훑": 5600,
      "##👅": 5601,
      "##😈": 5602,
      "##😌": 5603,
      "##😢": 5604,
      "##🌐": 5605,
      "##땁": 5606,
      "##🌻": 5607,
      "##듄": 5608,
      "##🍼": 5609,
      "##젏": 5610,
      "##🥲": 5611,
      "##윾": 5612,
      "##휜": 5613,
      "##🤫": 5614,
      "##쿳": 5615,
      "##떰": 5616,
      "##😨": 5617,
      "##🙋": 5618,
      "##✊": 5619,
      "##찧": 5620,
      "##㎚": 5621,
      "##믾": 5622,
      "##뚕": 5623,
      "##🧠": 5624,
      "##뉠": 5625,
      "##켁": 5626,
      "##🏿": 5627,
      "##띈": 5628,
      "##❣": 5629,
      "##👤": 5630,
      "##벧": 5631,
      "##콱": 5632,
      "##쉨": 5633,
      "##겍": 5634,
      "##텄": 5635,
      "##쯪": 5636,
      "##괌": 5637,
      "##멌": 5638,
      "##쉭": 5639,
      "##멏": 5640,
      "##👋": 5641,
      "##🦍": 5642,
      "##🍏": 5643,
      "##✈": 5644,
      "##🥷": 5645,
      "##🥨": 5646,
      "##싑": 5647,
      "##퐉": 5648,
      "##📢": 5649,
      "##딮": 5650,
      "##🗑": 5651,
      "##늅": 5652,
      "##📌": 5653,
      "##🙍": 5654,
      "##◻": 5655,
      "##촟": 5656,
      "##🤝": 5657,
      "##👁": 5658,
      "##끋": 5659,
      "##떙": 5660,
      "##🦲": 5661,
      "##멨": 5662,
      "##🌹": 5663,
      "##🌺": 5664,
      "##퇫": 5665,
      "##☎": 5666,
      "##믽": 5667,
      "##헠": 5668,
      "##뻰": 5669,
      "##⚡": 5670,
      "##줠": 5671,
      "##핱": 5672,
      "##홥": 5673,
      "##욹": 5674,
      "##햝": 5675,
      "##🧨": 5676,
      "##밞": 5677,
      "##🟥": 5678,
      "##🍞": 5679,
      "##🌟": 5680,
      "##좉": 5681,
      "##몪": 5682,
      "##꾱": 5683,
      "##튤": 5684,
      "##좄": 5685,
      "##쑹": 5686,
      "##덪": 5687,
      "##🕯": 5688,
      "##켑": 5689,
      "##쉿": 5690,
      "##찠": 5691,
      "##뮛": 5692,
      "##🐗": 5693,
      "##쎀": 5694,
      "##떱": 5695,
      "##죙": 5696,
      "##🛢": 5697,
      "##뜁": 5698,
      "##📣": 5699,
      "##뷁": 5700,
      "##튓": 5701,
      "##똠": 5702,
      "##짦": 5703,
      "##✅": 5704,
      "##읇": 5705,
      "##👄": 5706,
      "##🆚": 5707,
      "##옅": 5708,
      "##쒯": 5709,
      "##캭": 5710,
      "##꺨": 5711,
      "##걘": 5712,
      "##끍": 5713,
      "##칡": 5714,
      "##🚪": 5715,
      "##쾰": 5716,
      "##🔫": 5717,
      "##죨": 5718,
      "##촙": 5719,
      "##으로": 5720,
      "##에서": 5721,
      "##하는": 5722,
      "##하고": 5723,
      "##니다": 5724,
      "##들이": 5725,
      "##이다": 5726,
      "##했다": 5727,
      "있다": 5728,
      "##는데": 5729,
      "ㅋㅋ": 5730,
      "##다고": 5731,
      "있는": 5732,
      "국민": 5733,
      "##지만": 5734,
      "##다는": 5735,
      "##라고": 5736,
      "사람": 5737,
      "아니": 5738,
      "##통령": 5739,
      "##들은": 5740,
      "##까지": 5741,
      "##면서": 5742,
      "##00": 5743,
      "##습니다": 5744,
      "한국": 5745,
      "대통령": 5746,
      "##하게": 5747,
      "##에게": 5748,
      "##한다": 5749,
      "##해서": 5750,
      "하는": 5751,
      "우리": 5752,
      "대한": 5753,
      "##부터": 5754,
      "##이라": 5755,
      "20": 5756,
      "생각": 5757,
      "##으면": 5758,
      "##이나": 5759,
      "##하다": 5760,
      "##에는": 5761,
      "##적으로": 5762,
      "##적인": 5763,
      "나라": 5764,
      "미국": 5765,
      "##하면": 5766,
      "##었다": 5767,
      "##하지": 5768,
      "영화": 5769,
      "이런": 5770,
      "##기도": 5771,
      "##리고": 5772,
      "경찰": 5773,
      "##대로": 5774,
      "민주": 5775,
      "지난": 5776,
      "##들의": 5777,
      "중국": 5778,
      "지금": 5779,
      "문제": 5780,
      "것으로": 5781,
      "##해야": 5782,
      "진짜": 5783,
      "##보다": 5784,
      "너무": 5785,
      "##는거": 5786,
      "정부": 5787,
      "10": 5788,
      "만들": 5789,
      "하고": 5790,
      "정치": 5791,
      "##렇게": 5792,
      "##세요": 5793,
      "##하기": 5794,
      "민주당": 5795,
      "##네요": 5796,
      "##인데": 5797,
      "##리는": 5798,
      "##이고": 5799,
      "##니까": 5800,
      "때문": 5801,
      "윤석": 5802,
      "위해": 5803,
      "그냥": 5804,
      "##입니다": 5805,
      "같은": 5806,
      "##된다": 5807,
      "문재": 5808,
      "##자가": 5809,
      "##되는": 5810,
      "##어요": 5811,
      "한다": 5812,
      "##재명": 5813,
      "지지": 5814,
      "##ㅋㅋ": 5815,
      "이번": 5816,
      "##어서": 5817,
      "하나": 5818,
      "서울": 5819,
      "##들을": 5820,
      "것이": 5821,
      "윤석열": 5822,
      "##지는": 5823,
      "필요": 5824,
      "##합니다": 5825,
      "이상": 5826,
      "없는": 5827,
      "##라는": 5828,
      "게임": 5829,
      "인간": 5830,
      "##기를": 5831,
      "##지고": 5832,
      "##사가": 5833,
      "ㅋㅋㅋ": 5834,
      "그래": 5835,
      "경기도": 5836,
      "이재명": 5837,
      "201": 5838,
      "정말": 5839,
      "##장이": 5840,
      "##인이": 5841,
      "모르": 5842,
      "가능": 5843,
      "##해라": 5844,
      "들어": 5845,
      "##에도": 5846,
      "아닌": 5847,
      "일본": 5848,
      "##리가": 5849,
      "##도록": 5850,
      "##기가": 5851,
      "##라도": 5852,
      "다른": 5853,
      "##사를": 5854,
      "##겠다": 5855,
      "##구나": 5856,
      "국가": 5857,
      "지역": 5858,
      "이제": 5859,
      "북한": 5860,
      "경제": 5861,
      "많은": 5862,
      "##처럼": 5863,
      "그런": 5864,
      "##원이": 5865,
      "##나라": 5866,
      "검찰": 5867,
      "없다": 5868,
      "##자는": 5869,
      "보고": 5870,
      "아이": 5871,
      "##한테": 5872,
      "많이": 5873,
      "##성이": 5874,
      "##려고": 5875,
      "대표": 5876,
      "##았다": 5877,
      "##에서는": 5878,
      "##민국": 5879,
      "##이지": 5880,
      "함께": 5881,
      "시작": 5882,
      "##같은": 5883,
      "##시아": 5884,
      "##명이": 5885,
      "경우": 5886,
      "기업": 5887,
      "##리를": 5888,
      "##어야": 5889,
      "그러": 5890,
      "##가는": 5891,
      "##됐다": 5892,
      "당신": 5893,
      "다시": 5894,
      "통해": 5895,
      "대한민국": 5896,
      "##혔다": 5897,
      "무슨": 5898,
      "시간": 5899,
      "아니라": 5900,
      "정신": 5901,
      "아무": 5902,
      "##정부": 5903,
      "가장": 5904,
      "관련": 5905,
      "사회": 5906,
      "##시간": 5907,
      "##으니": 5908,
      "것이다": 5909,
      "세계": 5910,
      "##기에": 5911,
      "##이는": 5912,
      "밝혔다": 5913,
      "##기는": 5914,
      "지원": 5915,
      "사업": 5916,
      "나오": 5917,
      "아직": 5918,
      "##이가": 5919,
      "진행": 5920,
      "그리고": 5921,
      "모두": 5922,
      "사실": 5923,
      "문재인": 5924,
      "했다": 5925,
      "##하며": 5926,
      "위한": 5927,
      "##레기": 5928,
      "##으며": 5929,
      "##하면서": 5930,
      "좋은": 5931,
      "국회": 5932,
      "##아서": 5933,
      "##장을": 5934,
      "##이라고": 5935,
      "이유": 5936,
      "##위원": 5937,
      "##되고": 5938,
      "하지": 5939,
      "나는": 5940,
      "자신": 5941,
      "수사": 5942,
      "교육": 5943,
      "##준석": 5944,
      "##기업": 5945,
      "상황": 5946,
      "##였다": 5947,
      "언론": 5948,
      "##인가": 5949,
      "따라": 5950,
      "때문에": 5951,
      "##들에게": 5952,
      "어떻": 5953,
      "##는게": 5954,
      "얼마": 5955,
      "##지도": 5956,
      "피해": 5957,
      "##것도": 5958,
      "내가": 5959,
      "이준석": 5960,
      "이어": 5961,
      "관계": 5962,
      "##하여": 5963,
      "해야": 5964,
      "##주의": 5965,
      "모든": 5966,
      "기대": 5967,
      "##사는": 5968,
      "재미": 5969,
      "##사람": 5970,
      "정권": 5971,
      "어떻게": 5972,
      "것은": 5973,
      "정도": 5974,
      "##장은": 5975,
      "##는다": 5976,
      "##졌다": 5977,
      "이게": 5978,
      "##들도": 5979,
      "수준": 5980,
      "계속": 5981,
      "최고": 5982,
      "##거나": 5983,
      "##다가": 5984,
      "##영화": 5985,
      "##는지": 5986,
      "##이라는": 5987,
      "말했다": 5988,
      "대해": 5989,
      "##대표": 5990,
      "국내": 5991,
      "30": 5992,
      "좋아": 5993,
      "사용": 5994,
      "19": 5995,
      "##수가": 5996,
      "있을": 5997,
      "있어": 5998,
      "사람이": 5999,
      "있었": 6000,
      "떨어": 6001,
      "범죄": 6002,
      "결과": 6003,
      "##인지": 6004,
      "이렇게": 6005,
      "##보고": 6006,
      "##운데": 6007,
      "잘못": 6008,
      "##상이": 6009,
      "100": 6010,
      "조사": 6011,
      "##지가": 6012,
      "어디": 6013,
      "저런": 6014,
      "이미": 6015,
      "대통령이": 6016,
      "##소리": 6017,
      "특히": 6018,
      "##력이": 6019,
      "이용": 6020,
      "것을": 6021,
      "자기": 6022,
      "전문": 6023,
      "##력을": 6024,
      "##해도": 6025,
      "정책": 6026,
      "관심": 6027,
      "이후": 6028,
      "처음": 6029,
      "경기": 6030,
      "내용": 6031,
      "##하네": 6032,
      "##어나": 6033,
      "##있는": 6034,
      "##만원": 6035,
      "기사": 6036,
      "##성을": 6037,
      "##하나": 6038,
      "만들어": 6039,
      "현재": 6040,
      "##없는": 6041,
      "돌아": 6042,
      "##이냐": 6043,
      "##레이": 6044,
      "##지를": 6045,
      "##동안": 6046,
      "12": 6047,
      "누가": 6048,
      "발생": 6049,
      "##들과": 6050,
      "그렇게": 6051,
      "탄핵": 6052,
      "##아야": 6053,
      "세금": 6054,
      "##잖아": 6055,
      "정상": 6056,
      "##들아": 6057,
      "##놓고": 6058,
      "##체가": 6059,
      "최근": 6060,
      "##겠지": 6061,
      "##시키": 6062,
      "##대가": 6063,
      "가운데": 6064,
      "쓰레기": 6065,
      "제대로": 6066,
      "11": 6067,
      "참여": 6068,
      "자유": 6069,
      "보면": 6070,
      "장관": 6071,
      "##더니": 6072,
      "프로": 6073,
      "올해": 6074,
      "##주는": 6075,
      "##스트": 6076,
      "그만": 6077,
      "##상을": 6078,
      "이해": 6079,
      "바이": 6080,
      "운영": 6081,
      "댓글": 6082,
      "등을": 6083,
      "문화": 6084,
      "다음": 6085,
      "##정을": 6086,
      "있다는": 6087,
      "있습니다": 6088,
      "얼마나": 6089,
      "모습": 6090,
      "사건": 6091,
      "##거리": 6092,
      "다양": 6093,
      "지지율": 6094,
      "국힘": 6095,
      "##이네": 6096,
      "200": 6097,
      "##자를": 6098,
      "##하는데": 6099,
      "어려": 6100,
      "러시아": 6101,
      "설명": 6102,
      "바로": 6103,
      "좌파": 6104,
      "확인": 6105,
      "##학교": 6106,
      "우리나라": 6107,
      "하면": 6108,
      "역시": 6109,
      "##하냐": 6110,
      "중요": 6111,
      "지난해": 6112,
      "학생": 6113,
      "##없이": 6114,
      "책임": 6115,
      "##비스": 6116,
      "##말고": 6117,
      "##자들이": 6118,
      "##로운": 6119,
      "시장": 6120,
      "사고": 6121,
      "보여": 6122,
      "##정이": 6123,
      "##거지": 6124,
      "##도가": 6125,
      "된다": 6126,
      "##어도": 6127,
      "재밌": 6128,
      "##에서도": 6129,
      "어떤": 6130,
      "##치는": 6131,
      "##했다고": 6132,
      "마음": 6133,
      "##자들": 6134,
      "알려": 6135,
      "등이": 6136,
      "##이야": 6137,
      "거짓": 6138,
      "그는": 6139,
      "가족": 6140,
      "언제": 6141,
      "그럼": 6142,
      "직접": 6143,
      "##주고": 6144,
      "외교": 6145,
      "조선": 6146,
      "15": 6147,
      "추진": 6148,
      "의원": 6149,
      "##전에": 6150,
      "##했던": 6151,
      "공개": 6152,
      "제발": 6153,
      "##의원": 6154,
      "전국": 6155,
      "##하겠": 6156,
      "##정권": 6157,
      "이라고": 6158,
      "##르면": 6159,
      "방송": 6160,
      "배우": 6161,
      "않은": 6162,
      "이날": 6163,
      "투자": 6164,
      "이야": 6165,
      "여러": 6166,
      "검사": 6167,
      "나온": 6168,
      "##인다": 6169,
      "##사업": 6170,
      "오늘": 6171,
      "기술": 6172,
      "않고": 6173,
      "알고": 6174,
      "##정도": 6175,
      "사이": 6176,
      "앞으로": 6177,
      "아니고": 6178,
      "##0년": 6179,
      "##가지": 6180,
      "여성": 6181,
      "국민의": 6182,
      "빨리": 6183,
      "##시켜": 6184,
      "다양한": 6185,
      "계획": 6186,
      "받아": 6187,
      "##한다고": 6188,
      "5년": 6189,
      "##나요": 6190,
      "개발": 6191,
      "이러": 6192,
      "ㅎㅎ": 6193,
      "##화를": 6194,
      "##적이": 6195,
      "학교": 6196,
      "금융": 6197,
      "있도록": 6198,
      "##라마": 6199,
      "##교육": 6200,
      "개인": 6201,
      "##자의": 6202,
      "되는": 6203,
      "같이": 6204,
      "있는데": 6205,
      "보내": 6206,
      "없이": 6207,
      "한번": 6208,
      "이건": 6209,
      "보수": 6210,
      "합니다": 6211,
      "스토": 6212,
      "않는": 6213,
      "없어": 6214,
      "사랑": 6215,
      "당시": 6216,
      "예정": 6217,
      "살아": 6218,
      "연구": 6219,
      "더불": 6220,
      "있고": 6221,
      "##한거": 6222,
      "18": 6223,
      "##리에": 6224,
      "근데": 6225,
      "삼성": 6226,
      "##들어": 6227,
      "##이면": 6228,
      "##치고": 6229,
      "##기로": 6230,
      "그래서": 6231,
      "말고": 6232,
      "대상": 6233,
      "##하자": 6234,
      "감독": 6235,
      "##되어": 6236,
      "##되면": 6237,
      "##가가": 6238,
      "시민": 6239,
      "일부": 6240,
      "말이": 6241,
      "없고": 6242,
      "외국": 6243,
      "사진": 6244,
      "과학": 6245,
      "무능": 6246,
      "##시는": 6247,
      "나타": 6248,
      "완전": 6249,
      "아주": 6250,
      "있다고": 6251,
      "##시장": 6252,
      "내려": 6253,
      "##야지": 6254,
      "결국": 6255,
      "가격": 6256,
      "##드는": 6257,
      "이거": 6258,
      "누구": 6259,
      "발표": 6260,
      "##무원": 6261,
      "##기관": 6262,
      "##제로": 6263,
      "안전": 6264,
      "##진다": 6265,
      "만든": 6266,
      "##리면": 6267,
      "인정": 6268,
      "아직도": 6269,
      "일반": 6270,
      "ㅉㅉ": 6271,
      "##위원회": 6272,
      "##부분": 6273,
      "##보면": 6274,
      "##로나": 6275,
      "##하는거": 6276,
      "현실": 6277,
      "##식을": 6278,
      "전쟁": 6279,
      "##을까": 6280,
      "찾아": 6281,
      "##스크": 6282,
      "소리": 6283,
      "##식이": 6284,
      "하루": 6285,
      "##으나": 6286,
      "나라가": 6287,
      "##당이": 6288,
      "##스로": 6289,
      "조작": 6290,
      "그렇": 6291,
      "##개월": 6292,
      "참석": 6293,
      "산업": 6294,
      "##동을": 6295,
      "방문": 6296,
      "국짐": 6297,
      "대학": 6298,
      "사기": 6299,
      "해결": 6300,
      "##센터": 6301,
      "##가서": 6302,
      "##하라": 6303,
      "마약": 6304,
      "사람들이": 6305,
      "사과": 6306,
      "마련": 6307,
      "국제": 6308,
      "##마다": 6309,
      "아닌가": 6310,
      "부산": 6311,
      "높은": 6312,
      "저는": 6313,
      "반대": 6314,
      "##하던": 6315,
      "않았": 6316,
      "구속": 6317,
      "##시다": 6318,
      "요즘": 6319,
      "##의를": 6320,
      "##하니": 6321,
      "부모": 6322,
      "##러운": 6323,
      "아니다": 6324,
      "##억원": 6325,
      "해외": 6326,
      "##같이": 6327,
      "##이라도": 6328,
      "##그램": 6329,
      "본인": 6330,
      "준비": 6331,
      "절대": 6332,
      "만큼": 6333,
      "제품": 6334,
      "##부가": 6335,
      "##봐라": 6336,
      "때문이다": 6337,
      "해라": 6338,
      "##려는": 6339,
      "따르면": 6340,
      "##정은": 6341,
      "평가": 6342,
      "##더라": 6343,
      "친구": 6344,
      "먼저": 6345,
      "##문에": 6346,
      "기자": 6347,
      "의미": 6348,
      "##되지": 6349,
      "##리지": 6350,
      "감사": 6351,
      "청와": 6352,
      "50": 6353,
      "주민": 6354,
      "더불어": 6355,
      "##자리": 6356,
      "이것": 6357,
      "바이든": 6358,
      "선동": 6359,
      "##동산": 6360,
      "어느": 6361,
      "##이었": 6362,
      "선거": 6363,
      "어린": 6364,
      "##에요": 6365,
      "제공": 6366,
      "##도를": 6367,
      "분석": 6368,
      "환경": 6369,
      "##돼지": 6370,
      "노동": 6371,
      "##겠네": 6372,
      "드라마": 6373,
      "수도": 6374,
      "공정": 6375,
      "##밖에": 6376,
      "증가": 6377,
      "문제가": 6378,
      "포함": 6379,
      "##없다": 6380,
      "##스럽": 6381,
      "새로운": 6382,
      "##있다": 6383,
      "만나": 6384,
      "##났다": 6385,
      "동안": 6386,
      "주장": 6387,
      "##치를": 6388,
      "13": 6389,
      "##관이": 6390,
      "##했는데": 6391,
      "정부가": 6392,
      "받고": 6393,
      "전망": 6394,
      "코로나": 6395,
      "나왔": 6396,
      "기준": 6397,
      "당연": 6398,
      "기억": 6399,
      "서비스": 6400,
      "판단": 6401,
      "불법": 6402,
      "문재앙": 6403,
      "니가": 6404,
      "여자": 6405,
      "국민들": 6406,
      "추가": 6407,
      "##다니": 6408,
      "오후": 6409,
      "기본": 6410,
      "##지역": 6411,
      "##시고": 6412,
      "최대": 6413,
      "여기": 6414,
      "##파트": 6415,
      "세상": 6416,
      "14": 6417,
      "예상": 6418,
      "후보": 6419,
      "정보": 6420,
      "##프로": 6421,
      "##라이": 6422,
      "건강": 6423,
      "영향": 6424,
      "그게": 6425,
      "##텐데": 6426,
      "##렸다": 6427,
      "##인을": 6428,
      "##이랑": 6429,
      "미래": 6430,
      "열린": 6431,
      "이를": 6432,
      "부동산": 6433,
      "25": 6434,
      "##지지": 6435,
      "##거다": 6436,
      "기록": 6437,
      "거짓말": 6438,
      "##대를": 6439,
      "대부분": 6440,
      "##위를": 6441,
      "선택": 6442,
      "##회를": 6443,
      "##회가": 6444,
      "보인다": 6445,
      "##사의": 6446,
      "##화가": 6447,
      "##제를": 6448,
      "현지": 6449,
      "것도": 6450,
      "소비": 6451,
      "지방": 6452,
      "16": 6453,
      "##한다는": 6454,
      "##먹고": 6455,
      "보도": 6456,
      "중심": 6457,
      "##구만": 6458,
      "##던데": 6459,
      "##동훈": 6460,
      "있었다": 6461,
      "설치": 6462,
      "한심": 6463,
      "##장에서": 6464,
      "##중에": 6465,
      "기존": 6466,
      "##르고": 6467,
      "##해요": 6468,
      "판매": 6469,
      "##럼프": 6470,
      "작품": 6471,
      "##해주": 6472,
      "올라": 6473,
      "##원은": 6474,
      "요구": 6475,
      "##씨가": 6476,
      "부족": 6477,
      "안되": 6478,
      "공무원": 6479,
      "주변": 6480,
      "##했고": 6481,
      "##가고": 6482,
      "보는": 6483,
      "트럼프": 6484,
      "인터": 6485,
      "힘들": 6486,
      "같다": 6487,
      "처벌": 6488,
      "##수를": 6489,
      "개선": 6490,
      "##명을": 6491,
      "##하는게": 6492,
      "지나": 6493,
      "전기": 6494,
      "##대통령": 6495,
      "내부": 6496,
      "엄청": 6497,
      "해도": 6498,
      "##명의": 6499,
      "우리는": 6500,
      "경쟁": 6501,
      "하는데": 6502,
      "조금": 6503,
      "가지고": 6504,
      "국민이": 6505,
      "##아요": 6506,
      "드러": 6507,
      "##마라": 6508,
      "한동훈": 6509,
      "행사": 6510,
      "결정": 6511,
      "##점이": 6512,
      "##조사": 6513,
      "이름": 6514,
      "국민을": 6515,
      "해당": 6516,
      "##게임": 6517,
      "##스가": 6518,
      "##원을": 6519,
      "##었는데": 6520,
      "##건데": 6521,
      "##대는": 6522,
      "24": 6523,
      "발전": 6524,
      "관리": 6525,
      "사람들": 6526,
      "부분": 6527,
      "무엇": 6528,
      "나와": 6529,
      "40": 6530,
      "##부는": 6531,
      "당대표": 6532,
      "등의": 6533,
      "##인은": 6534,
      "전체": 6535,
      "우려": 6536,
      "과거": 6537,
      "##려면": 6538,
      "장애": 6539,
      "지적": 6540,
      "##시가": 6541,
      "넘어": 6542,
      "##안을": 6543,
      "자리": 6544,
      "##서는": 6545,
      "보다": 6546,
      "위해서": 6547,
      "##스템": 6548,
      "확대": 6549,
      "성공": 6550,
      "공연": 6551,
      "##마트": 6552,
      "라고": 6553,
      "인사": 6554,
      "그래도": 6555,
      "생산": 6556,
      "공산": 6557,
      "상태": 6558,
      "##지막": 6559,
      "더욱": 6560,
      "있지만": 6561,
      "공동": 6562,
      "##르는": 6563,
      "오는": 6564,
      "##장의": 6565,
      "##장에": 6566,
      "도움": 6567,
      "위원": 6568,
      "##도로": 6569,
      "청년": 6570,
      "##건가": 6571,
      "##제가": 6572,
      "##것이": 6573,
      "##회의": 6574,
      "의혹": 6575,
      "##단체": 6576,
      "그동안": 6577,
      "##시설": 6578,
      "##한데": 6579,
      "아파트": 6580,
      "특별": 6581,
      "##수는": 6582,
      "개최": 6583,
      "그리": 6584,
      "생활": 6585,
      "##치가": 6586,
      "##아니": 6587,
      "##랜드": 6588,
      "##동이": 6589,
      "##장관": 6590,
      "프로그램": 6591,
      "관계자는": 6592,
      "##민주": 6593,
      "##기고": 6594,
      "##다면": 6595,
      "##이트": 6596,
      "하지만": 6597,
      "##대체": 6598,
      "청와대": 6599,
      "물론": 6600,
      "##인의": 6601,
      "출신": 6602,
      "얘기": 6603,
      "스타": 6604,
      "공공": 6605,
      "##보는": 6606,
      "마지막": 6607,
      "스스로": 6608,
      "집중": 6609,
      "비교": 6610,
      "국민들이": 6611,
      "이뤄": 6612,
      "17": 6613,
      "인생": 6614,
      "재판": 6615,
      "빨갱": 6616,
      "해서": 6617,
      "전부": 6618,
      "우리가": 6619,
      "어렵": 6620,
      "##이스": 6621,
      "젊은": 6622,
      "자동": 6623,
      "효과": 6624,
      "##나는": 6625,
      "비롯": 6626,
      "지속": 6627,
      "##자로": 6628,
      "현대": 6629,
      "##하지만": 6630,
      "##시에": 6631,
      "##들만": 6632,
      "##수록": 6633,
      "##려서": 6634,
      "전문가": 6635,
      "규모": 6636,
      "아님": 6637,
      "##점을": 6638,
      "매우": 6639,
      "뭐가": 6640,
      "##회담": 6641,
      "일이": 6642,
      "대단": 6643,
      "받은": 6644,
      "모르는": 6645,
      "못한": 6646,
      "##물이": 6647,
      "##기술": 6648,
      "응원": 6649,
      "##지않": 6650,
      "##방역": 6651,
      "##금을": 6652,
      "얼굴": 6653,
      "도대체": 6654,
      "활용": 6655,
      "걱정": 6656,
      "##만에": 6657,
      "##이상": 6658,
      "##건지": 6659,
      "##산업": 6660,
      "크게": 6661,
      "서민": 6662,
      "의견": 6663,
      "##하다고": 6664,
      "전세": 6665,
      "방법": 6666,
      "미친": 6667,
      "##린다": 6668,
      "연기": 6669,
      "경찰은": 6670,
      "선수": 6671,
      "##조건": 6672,
      "사라": 6673,
      "##건희": 6674,
      "남북": 6675,
      "위험": 6676,
      "강화": 6677,
      "나라를": 6678,
      "주요": 6679,
      "과정": 6680,
      "유치": 6681,
      "필요한": 6682,
      "추천": 6683,
      "니들": 6684,
      "유지": 6685,
      "강조": 6686,
      "1년": 6687,
      "집단": 6688,
      "자신의": 6689,
      "대구": 6690,
      "##정책": 6691,
      "##ㅋㅋㅋ": 6692,
      "##이니": 6693,
      "##보니": 6694,
      "여론": 6695,
      "##문화": 6696,
      "적극": 6697,
      "내년": 6698,
      "##이터": 6699,
      "수출": 6700,
      "ㅠㅠ": 6701,
      "##란다": 6702,
      "제일": 6703,
      "##지로": 6704,
      "다니": 6705,
      "적용": 6706,
      "광주": 6707,
      "##일이": 6708,
      "##대에": 6709,
      "남자": 6710,
      "어쩌": 6711,
      "가능성이": 6712,
      "제주": 6713,
      "관광": 6714,
      "오전": 6715,
      "살인": 6716,
      "##지원": 6717,
      "비판": 6718,
      "성장": 6719,
      "##은행": 6720,
      "##머니": 6721,
      "2찍": 6722,
      "##인들": 6723,
      "서로": 6724,
      "공매": 6725,
      "대선": 6726,
      "##었던": 6727,
      "업무": 6728,
      "분야": 6729,
      "대체": 6730,
      "##어라": 6731,
      "##하다는": 6732,
      "##식으로": 6733,
      "회사": 6734,
      "##때문에": 6735,
      "구성": 6736,
      "다만": 6737,
      "##이를": 6738,
      "도시": 6739,
      "노력": 6740,
      "한다는": 6741,
      "역할": 6742,
      "##5년": 6743,
      "##스를": 6744,
      "시행": 6745,
      "##인들이": 6746,
      "##했지만": 6747,
      "##했다는": 6748,
      "참가": 6749,
      "예산": 6750,
      "괜찮": 6751,
      "아니면": 6752,
      "대해서": 6753,
      "##내고": 6754,
      "##계가": 6755,
      "##으면서": 6756,
      "유럽": 6757,
      "전과": 6758,
      "거의": 6759,
      "권력": 6760,
      "아무리": 6761,
      "못하고": 6762,
      "무식": 6763,
      "예정이다": 6764,
      "그걸": 6765,
      "사는": 6766,
      "##원의": 6767,
      "못하는": 6768,
      "##OO": 6769,
      "##려라": 6770,
      "설명했다": 6771,
      "이야기": 6772,
      "논란": 6773,
      "##소년": 6774,
      "기간": 6775,
      "김건희": 6776,
      "역사": 6777,
      "##거야": 6778,
      "먹고": 6779,
      "부담": 6780,
      "##000": 6781,
      "국회의원": 6782,
      "실시": 6783,
      "잡아": 6784,
      "##에선": 6785,
      "##조작": 6786,
      "##물을": 6787,
      "##받고": 6788,
      "나서": 6789,
      "공부": 6790,
      "되고": 6791,
      "음악": 6792,
      "경험": 6793,
      "##BC": 6794,
      "##세를": 6795,
      "대깨": 6796,
      "활동": 6797,
      "상승": 6798,
      "고객": 6799,
      "느낌": 6800,
      "대만": 6801,
      "없애": 6802,
      "일을": 6803,
      "##근혜": 6804,
      "존재": 6805,
      "##난다": 6806,
      "되어": 6807,
      "##겠냐": 6808,
      "##위가": 6809,
      "##연구": 6810,
      "말을": 6811,
      "혐의": 6812,
      "##전을": 6813,
      "또한": 6814,
      "보호": 6815,
      "선정": 6816,
      "개돼지": 6817,
      "고려": 6818,
      "니들이": 6819,
      "아니냐": 6820,
      "##라인": 6821,
      "##간다": 6822,
      "사람은": 6823,
      "##료를": 6824,
      "경찰이": 6825,
      "##소득": 6826,
      "##리아": 6827,
      "자연": 6828,
      "인상": 6829,
      "행복": 6830,
      "##지면": 6831,
      "##감을": 6832,
      "##국이": 6833,
      "글로": 6834,
      "##경제": 6835,
      "21": 6836,
      "최소": 6837,
      "##심히": 6838,
      "##겠다는": 6839,
      "##개발": 6840,
      "##드시": 6841,
      "신고": 6842,
      "##자인": 6843,
      "제작": 6844,
      "##했습니다": 6845,
      "##계를": 6846,
      "휴가": 6847,
      "전혀": 6848,
      "##국민": 6849,
      "##7년": 6850,
      "사망": 6851,
      "##씨는": 6852,
      "##감이": 6853,
      "직원": 6854,
      "##하시": 6855,
      "인천": 6856,
      "##주택": 6857,
      "##당은": 6858,
      "사형": 6859,
      "정의": 6860,
      "한다고": 6861,
      "##대한": 6862,
      "투표": 6863,
      "##하세요": 6864,
      "무조건": 6865,
      "성과": 6866,
      "차량": 6867,
      "상대": 6868,
      "거래": 6869,
      "시간이": 6870,
      "행정": 6871,
      "결혼": 6872,
      "가는": 6873,
      "고용": 6874,
      "##이란": 6875,
      "대통령은": 6876,
      "##주세요": 6877,
      "##원에서": 6878,
      "28": 6879,
      "지켜": 6880,
      "안되는": 6881,
      "##두고": 6882,
      "##음을": 6883,
      "##구가": 6884,
      "기다": 6885,
      "많다": 6886,
      "안보": 6887,
      "중소": 6888,
      "나온다": 6889,
      "맞는": 6890,
      "자체": 6891,
      "변호": 6892,
      "##더라도": 6893,
      "됐다": 6894,
      "되었": 6895,
      "빨갱이": 6896,
      "##권을": 6897,
      "우선": 6898,
      "##아라": 6899,
      "##선을": 6900,
      "##겠지만": 6901,
      "지들": 6902,
      "##6년": 6903,
      "##경찰": 6904,
      "##원에": 6905,
      "공격": 6906,
      "##범죄": 6907,
      "##스타": 6908,
      "##석이": 6909,
      "오래": 6910,
      "60": 6911,
      "확실": 6912,
      "대비": 6913,
      "##르게": 6914,
      "##수도": 6915,
      "글로벌": 6916,
      "신경": 6917,
      "혼자": 6918,
      "보니": 6919,
      "대응": 6920,
      "하락": 6921,
      "인도": 6922,
      "열심히": 6923,
      "당신이": 6924,
      "000": 6925,
      "도입": 6926,
      "궁금": 6927,
      "나가": 6928,
      "##만큼": 6929,
      "부정": 6930,
      "나도": 6931,
      "박근혜": 6932,
      "대책": 6933,
      "표현": 6934,
      "재미있": 6935,
      "미국이": 6936,
      "바보": 6937,
      "##수사": 6938,
      "조직": 6939,
      "증거": 6940,
      "##히려": 6941,
      "대상으로": 6942,
      "##단이": 6943,
      "두고": 6944,
      "##학생": 6945,
      "실제": 6946,
      "##과의": 6947,
      "22": 6948,
      "##을때": 6949,
      "솔직": 6950,
      "집값": 6951,
      "높아": 6952,
      "구조": 6953,
      "제기": 6954,
      "공급": 6955,
      "##일을": 6956,
      "이전": 6957,
      "##이었다": 6958,
      "오히려": 6959,
      "받는": 6960,
      "신청": 6961,
      "은행": 6962,
      "하면서": 6963,
      "스토리": 6964,
      "에서": 6965,
      "있으며": 6966,
      "의료": 6967,
      "##환경": 6968,
      "같은데": 6969,
      "##것들": 6970,
      "##업체": 6971,
      "시키": 6972,
      "##되었": 6973,
      "어찌": 6974,
      "충분": 6975,
      "여행": 6976,
      "등에": 6977,
      "강남": 6978,
      "국정": 6979,
      "중요한": 6980,
      "구매": 6981,
      "##해야지": 6982,
      "분위": 6983,
      "##당한": 6984,
      "27": 6985,
      "##정한": 6986,
      "받을": 6987,
      "이루": 6988,
      "김정은": 6989,
      "싶은": 6990,
      "영상": 6991,
      "주식": 6992,
      "최저": 6993,
      "않아": 6994,
      "##업을": 6995,
      "능력": 6996,
      "주가": 6997,
      "라는": 6998,
      "##관리": 6999,
      "않는다": 7000,
      "##겠습니다": 7001,
      "##분이": 7002,
      "불가": 7003,
      "스마트": 7004,
      "##위에": 7005,
      "##나오": 7006,
      "관심이": 7007,
      "정확": 7008,
      "ㅡㅡ": 7009,
      "최악": 7010,
      "##안이": 7011,
      "##는거지": 7012,
      "하다": 7013,
      "23": 7014,
      "10년": 7015,
      "이젠": 7016,
      "반드시": 7017,
      "##일부터": 7018,
      "가진": 7019,
      "했는데": 7020,
      "합의": 7021,
      "그녀": 7022,
      "않을": 7023,
      "##것이다": 7024,
      "조성": 7025,
      "있으면": 7026,
      "##라면": 7027,
      "##장과": 7028,
      "건설": 7029,
      "##어가": 7030,
      "##사회": 7031,
      "##이며": 7032,
      "##자들은": 7033,
      "##이지만": 7034,
      "안타": 7035,
      "2018": 7036,
      "발견": 7037,
      "업체": 7038,
      "당장": 7039,
      "머리": 7040,
      "으로": 7041,
      "시스템": 7042,
      "독립": 7043,
      "조용": 7044,
      "시켜": 7045,
      "너희": 7046,
      "이에": 7047,
      "마스크": 7048,
      "민생": 7049,
      "자체가": 7050,
      "최고의": 7051,
      "지도": 7052,
      "받았": 7053,
      "확보": 7054,
      "따른": 7055,
      "##우는": 7056,
      "어려운": 7057,
      "좌빨": 7058,
      "그대로": 7059,
      "권성": 7060,
      "##하겠다": 7061,
      "##정보": 7062,
      "전에": 7063,
      "##끼리": 7064,
      "아는": 7065,
      "##져야": 7066,
      "그런데": 7067,
      "밖에": 7068,
      "행동": 7069,
      "##내는": 7070,
      "고민": 7071,
      "##지말고": 7072,
      "##이크": 7073,
      "노조": 7074,
      "단체": 7075,
      "##사고": 7076,
      "심각": 7077,
      "한국의": 7078,
      "70": 7079,
      "공매도": 7080,
      "##기간": 7081,
      "##봐야": 7082,
      "플레이": 7083,
      "##선거": 7084,
      "가서": 7085,
      "생각이": 7086,
      "교통": 7087,
      "##부를": 7088,
      "요청": 7089,
      "##서를": 7090,
      "늘어": 7091,
      "희망": 7092,
      "##아먹": 7093,
      "처리": 7094,
      "##율이": 7095,
      "멍청": 7096,
      "##인간": 7097,
      "가지": 7098,
      "##겠다고": 7099,
      "나쁜": 7100,
      "운동": 7101,
      "##와서": 7102,
      "##만한": 7103,
      "정도로": 7104,
      "각종": 7105,
      "##일까지": 7106,
      "운전": 7107,
      "않았다": 7108,
      "##자들의": 7109,
      "##어를": 7110,
      "기관": 7111,
      "불편": 7112,
      "##하도록": 7113,
      "##지에": 7114,
      "뉴스": 7115,
      "바람": 7116,
      "핵심": 7117,
      "평생": 7118,
      "인권": 7119,
      "##할때": 7120,
      "차지": 7121,
      "윤석열이": 7122,
      "그때": 7123,
      "푸틴": 7124,
      "##할수": 7125,
      "자살": 7126,
      "나이": 7127,
      "민간": 7128,
      "논의": 7129,
      "그것": 7130,
      "##소를": 7131,
      "전했다": 7132,
      "##워서": 7133,
      "##나고": 7134,
      "##로는": 7135,
      "대법": 7136,
      "발언": 7137,
      "전라도": 7138,
      "금리": 7139,
      "나올": 7140,
      "이래": 7141,
      "있게": 7142,
      "2년": 7143,
      "갖고": 7144,
      "일자리": 7145,
      "##사와": 7146,
      "202": 7147,
      "홍보": 7148,
      "대출": 7149,
      "어린이": 7150,
      "##신이": 7151,
      "주택": 7152,
      "이유가": 7153,
      "가까": 7154,
      "윤통": 7155,
      "##대의": 7156,
      "앞서": 7157,
      "그의": 7158,
      "##되었다": 7159,
      "등으로": 7160,
      "소속": 7161,
      "지구": 7162,
      "##자기": 7163,
      "자식": 7164,
      "많아": 7165,
      "비용": 7166,
      "##생활": 7167,
      "##들고": 7168,
      "이재명이": 7169,
      "##우고": 7170,
      "항상": 7171,
      "노래": 7172,
      "무역": 7173,
      "개딸": 7174,
      "국방": 7175,
      "아름": 7176,
      "##가를": 7177,
      "나오는": 7178,
      "과학방역": 7179,
      "윤핵": 7180,
      "##랍니다": 7181,
      "##도는": 7182,
      "있어서": 7183,
      "알아": 7184,
      "국무": 7185,
      "비슷": 7186,
      "수입": 7187,
      "주고": 7188,
      "인간이": 7189,
      "자동차": 7190,
      "경영": 7191,
      "계약": 7192,
      "##임을": 7193,
      "##2년": 7194,
      "##라서": 7195,
      "역대": 7196,
      "없음": 7197,
      "쪽팔": 7198,
      "##까요": 7199,
      "##소가": 7200,
      "있지": 7201,
      "##텐츠": 7202,
      "난리": 7203,
      "대형": 7204,
      "우크": 7205,
      "무서": 7206,
      "영국": 7207,
      "수가": 7208,
      "음식": 7209,
      "판결": 7210,
      "있나": 7211,
      "26": 7212,
      "##나서": 7213,
      "저렇게": 7214,
      "##자와": 7215,
      "주는": 7216,
      "밝혀": 7217,
      "이걸": 7218,
      "중앙": 7219,
      "전통": 7220,
      "분명": 7221,
      "##하거나": 7222,
      "보기": 7223,
      "노인": 7224,
      "만드는": 7225,
      "의사": 7226,
      "##세가": 7227,
      "바뀌": 7228,
      "##만이": 7229,
      "##놈들": 7230,
      "##려야": 7231,
      "##생각": 7232,
      "강력": 7233,
      "##9년": 7234,
      "있어요": 7235,
      "##없고": 7236,
      "OOO": 7237,
      "##방송": 7238,
      "인해": 7239,
      "없었": 7240,
      "아마": 7241,
      "정부는": 7242,
      "일단": 7243,
      "주목": 7244,
      "지루": 7245,
      "검토": 7246,
      "##쟁이": 7247,
      "사법": 7248,
      "쉽게": 7249,
      "MBC": 7250,
      "소득": 7251,
      "이하": 7252,
      "하기": 7253,
      "##트남": 7254,
      "솔직히": 7255,
      "원래": 7256,
      "들어가": 7257,
      "##스터": 7258,
      "##라리": 7259,
      "있으니": 7260,
      "##당의": 7261,
      "상품": 7262,
      "인터넷": 7263,
      "안하고": 7264,
      "##되면서": 7265,
      "전시": 7266,
      "경기도가": 7267,
      "##아가": 7268,
      "보험": 7269,
      "미국의": 7270,
      "자격": 7271,
      "공간": 7272,
      "돈을": 7273,
      "민주당이": 7274,
      "##그룹": 7275,
      "주인": 7276,
      "가능한": 7277,
      "택시": 7278,
      "치료": 7279,
      "대신": 7280,
      "##금이": 7281,
      "##했을": 7282,
      "##사에": 7283,
      "##너지": 7284,
      "무시": 7285,
      "##문을": 7286,
      "교수": 7287,
      "##운동": 7288,
      "또는": 7289,
      "이는": 7290,
      "바라": 7291,
      "##량이": 7292,
      "##하기로": 7293,
      "만에": 7294,
      "엄마": 7295,
      "당신은": 7296,
      "##등학교": 7297,
      "##거래": 7298,
      "시험": 7299,
      "##국가": 7300,
      "개판": 7301,
      "##트를": 7302,
      "##움을": 7303,
      "##왔다": 7304,
      "한마": 7305,
      "독일": 7306,
      "##성과": 7307,
      "사례": 7308,
      "유명": 7309,
      "목표": 7310,
      "수요": 7311,
      "있음": 7312,
      "사회적": 7313,
      "##진이": 7314,
      "##이기": 7315,
      "도로": 7316,
      "##지게": 7317,
      "##사로": 7318,
      "외국인": 7319,
      "##스는": 7320,
      "중인": 7321,
      "베트남": 7322,
      "평화": 7323,
      "움직": 7324,
      "##하였다": 7325,
      "거지": 7326,
      "지금은": 7327,
      "있네": 7328,
      "gt": 7329,
      "그나": 7330,
      "소개": 7331,
      "폐지": 7332,
      "없다는": 7333,
      "##장으로": 7334,
      "##거냐": 7335,
      "끌어": 7336,
      "##반도": 7337,
      "우크라": 7338,
      "용산": 7339,
      "##해보": 7340,
      "어디서": 7341,
      "싶다": 7342,
      "안정": 7343,
      "별로": 7344,
      "제가": 7345,
      "시설": 7346,
      "##아치": 7347,
      "시절": 7348,
      "이동": 7349,
      "근로": 7350,
      "놓고": 7351,
      "혁신": 7352,
      "말도": 7353,
      "애들": 7354,
      "지키": 7355,
      "##4년": 7356,
      "반도": 7357,
      "##롭게": 7358,
      "법무": 7359,
      "감동": 7360,
      "##비를": 7361,
      "규제": 7362,
      "위치": 7363,
      "##도시": 7364,
      "달라": 7365,
      "##당히": 7366,
      "모르고": 7367,
      "금지": 7368,
      "과정에서": 7369,
      "##리기": 7370,
      "지난달": 7371,
      "정상회담": 7372,
      "##관계": 7373,
      "##심이": 7374,
      "##님이": 7375,
      "반성": 7376,
      "##한게": 7377,
      "단순": 7378,
      "##업이": 7379,
      "사람들은": 7380,
      "보유": 7381,
      "##일에": 7382,
      "##전이": 7383,
      "가져": 7384,
      "대중": 7385,
      "강원": 7386,
      "중소기업": 7387,
      "대통령의": 7388,
      "그가": 7389,
      "##립니다": 7390,
      "윤석렬": 7391,
      "모습을": 7392,
      "있던": 7393,
      "지급": 7394,
      "##한국": 7395,
      "나타났다": 7396,
      "##보다는": 7397,
      "독재": 7398,
      "대통": 7399,
      "차라리": 7400,
      "##여서": 7401,
      "3월": 7402,
      "되면": 7403,
      "##이팅": 7404,
      "사람을": 7405,
      "시청": 7406,
      "우수": 7407,
      "전달": 7408,
      "공감": 7409,
      "자꾸": 7410,
      "통과": 7411,
      "##비가": 7412,
      "만들고": 7413,
      "지하": 7414,
      "2차": 7415,
      "부끄": 7416,
      "감소": 7417,
      "##이자": 7418,
      "반영": 7419,
      "비해": 7420,
      "모지": 7421,
      "##수준": 7422,
      "민주당은": 7423,
      "총선": 7424,
      "##회는": 7425,
      "##다운": 7426,
      "있어야": 7427,
      "##행을": 7428,
      "##회에": 7429,
      "##오는": 7430,
      "현장": 7431,
      "가짜": 7432,
      "공식": 7433,
      "없을": 7434,
      "여전": 7435,
      "최초": 7436,
      "무기": 7437,
      "##시키고": 7438,
      "사기꾼": 7439,
      "##위는": 7440,
      "자신이": 7441,
      "지가": 7442,
      "9월": 7443,
      "##이라면": 7444,
      "좋아하는": 7445,
      "아시아": 7446,
      "오른": 7447,
      "##가리": 7448,
      "윤핵관": 7449,
      "정부의": 7450,
      "느끼": 7451,
      "##민이": 7452,
      "재산": 7453,
      "29": 7454,
      "##놓은": 7455,
      "10월": 7456,
      "기능": 7457,
      "이익": 7458,
      "##깝다": 7459,
      "다들": 7460,
      "최종": 7461,
      "본격": 7462,
      "안된다": 7463,
      "평균": 7464,
      "않다": 7465,
      "3년": 7466,
      "영향을": 7467,
      "벌어": 7468,
      "소방": 7469,
      "기획": 7470,
      "음주": 7471,
      "줄어": 7472,
      "취업": 7473,
      "중심으로": 7474,
      "예술": 7475,
      "석열": 7476,
      "협력": 7477,
      "대기업": 7478,
      "##차가": 7479,
      "이라": 7480,
      "장난": 7481,
      "쓰고": 7482,
      "있기": 7483,
      "너는": 7484,
      "##지사": 7485,
      "달러": 7486,
      "알았": 7487,
      "##차피": 7488,
      "##시길": 7489,
      "근무": 7490,
      "개정": 7491,
      "거기": 7492,
      "##됩니다": 7493,
      "전략": 7494,
      "##수의": 7495,
      "가정": 7496,
      "##하라고": 7497,
      "되지": 7498,
      "출연": 7499,
      "바랍니다": 7500,
      "##3년": 7501,
      "다르": 7502,
      "연결": 7503,
      "나왔다": 7504,
      "강제": 7505,
      "5월": 7506,
      "철저": 7507,
      "권성동": 7508,
      "##자도": 7509,
      "건물": 7510,
      "##들에": 7511,
      "마라": 7512,
      "어차피": 7513,
      "계획이다": 7514,
      "조선족": 7515,
      "문죄": 7516,
      "하던": 7517,
      "##규모": 7518,
      "##고기": 7519,
      "당연히": 7520,
      "##임금": 7521,
      "병원": 7522,
      "##질이": 7523,
      "##실을": 7524,
      "뭔가": 7525,
      "수익": 7526,
      "훨씬": 7527,
      "체험": 7528,
      "##심을": 7529,
      "매일": 7530,
      "월급": 7531,
      "##리스": 7532,
      "지금까지": 7533,
      "감옥": 7534,
      "각각": 7535,
      "유승": 7536,
      "제시": 7537,
      "도와": 7538,
      "백신": 7539,
      "영화를": 7540,
      "역할을": 7541,
      "반도체": 7542,
      "해야지": 7543,
      "소재": 7544,
      "##문이": 7545,
      "개혁": 7546,
      "##노총": 7547,
      "##자에게": 7548,
      "활성": 7549,
      "##디어": 7550,
      "살고": 7551,
      "##지면서": 7552,
      "##위로": 7553,
      "상식": 7554,
      "##많은": 7555,
      "파악": 7556,
      "강조했다": 7557,
      "##er": 7558,
      "방역": 7559,
      "본다": 7560,
      "이제는": 7561,
      "끝까지": 7562,
      "본인이": 7563,
      "##30": 7564,
      "구축": 7565,
      "##것들이": 7566,
      "7월": 7567,
      "돈이": 7568,
      "국민들은": 7569,
      "80": 7570,
      "배신": 7571,
      "장면": 7572,
      "##로남": 7573,
      "##봐도": 7574,
      "뻔뻔": 7575,
      "##수있": 7576,
      "하는거": 7577,
      "관심을": 7578,
      "좋다": 7579,
      "##군요": 7580,
      "한글": 7581,
      "필요하다": 7582,
      "그룹": 7583,
      "##드를": 7584,
      "제외": 7585,
      "판사": 7586,
      "##안에": 7587,
      "##로남불": 7588,
      "방향": 7589,
      "싫어": 7590,
      "비핵": 7591,
      "것이라는": 7592,
      "##냐고": 7593,
      "##수수": 7594,
      "영어": 7595,
      "마을": 7596,
      "##국의": 7597,
      "물어": 7598,
      "작은": 7599,
      "4월": 7600,
      "모른": 7601,
      "힘든": 7602,
      "사실을": 7603,
      "거리": 7604,
      "상황에서": 7605,
      "##사건": 7606,
      "신뢰": 7607,
      "순간": 7608,
      "가만": 7609,
      "##시킨": 7610,
      "문제를": 7611,
      "중국이": 7612,
      "그러니": 7613,
      "더듬": 7614,
      "중간": 7615,
      "##거라": 7616,
      "좋겠다": 7617,
      "시즌": 7618,
      "스트": 7619,
      "##민주당": 7620,
      "##같다": 7621,
      "없는데": 7622,
      "전해": 7623,
      "실제로": 7624,
      "정당": 7625,
      "검수": 7626,
      "##적이고": 7627,
      "국토": 7628,
      "연예": 7629,
      "##릭터": 7630,
      "회의": 7631,
      "##받는": 7632,
      "해임": 7633,
      "그저": 7634,
      "미세": 7635,
      "북한이": 7636,
      "##바이": 7637,
      "달리": 7638,
      "없다고": 7639,
      "##보험": 7640,
      "갑자기": 7641,
      "##에만": 7642,
      "아무것도": 7643,
      "6월": 7644,
      "##나게": 7645,
      "그럴": 7646,
      "##완박": 7647,
      "뛰어": 7648,
      "##받은": 7649,
      "##복지": 7650,
      "장기": 7651,
      "##가락": 7652,
      "사무": 7653,
      "연출": 7654,
      "동네": 7655,
      "31": 7656,
      "위반": 7657,
      "이러한": 7658,
      "##느라": 7659,
      "매출": 7660,
      "##20": 7661,
      "담당": 7662,
      "복지": 7663,
      "##하려고": 7664,
      "당선": 7665,
      "문제는": 7666,
      "것입니다": 7667,
      "##연금": 7668,
      "제한": 7669,
      "##인으로": 7670,
      "알려졌다": 7671,
      "빠져": 7672,
      "##bc": 7673,
      "한류": 7674,
      "광고": 7675,
      "일으": 7676,
      "고통": 7677,
      "하는게": 7678,
      "상관": 7679,
      "##부모": 7680,
      "기념": 7681,
      "500": 7682,
      "했던": 7683,
      "##나면": 7684,
      "8월": 7685,
      "하네": 7686,
      "청소년": 7687,
      "##으니까": 7688,
      "##로부터": 7689,
      "온라인": 7690,
      "##준다": 7691,
      "무료": 7692,
      "점을": 7693,
      "##기사": 7694,
      "남아": 7695,
      "언급": 7696,
      "##트가": 7697,
      "모습이": 7698,
      "유튜": 7699,
      "군사": 7700,
      "이유는": 7701,
      "불쌍": 7702,
      "##함을": 7703,
      "##정상": 7704,
      "입장": 7705,
      "##리도": 7706,
      "진출": 7707,
      "맨날": 7708,
      "공유": 7709,
      "##듯이": 7710,
      "##말이": 7711,
      "의무": 7712,
      "##성은": 7713,
      "##정치": 7714,
      "말씀": 7715,
      "니네": 7716,
      "인구": 7717,
      "##놈이": 7718,
      "필요가": 7719,
      "도내": 7720,
      "##사일": 7721,
      "맞아": 7722,
      "바꾸": 7723,
      "##보네": 7724,
      "가입": 7725,
      "##1년": 7726,
      "올려": 7727,
      "불안": 7728,
      "중구": 7729,
      "자주": 7730,
      "좋았": 7731,
      "##수로": 7732,
      "##상에": 7733,
      "해주": 7734,
      "300": 7735,
      "혜택": 7736,
      "사퇴": 7737,
      "인근": 7738,
      "도움이": 7739,
      "보이": 7740,
      "##문제": 7741,
      "정신차": 7742,
      "통신": 7743,
      "브랜드": 7744,
      "장애인": 7745,
      "훈련": 7746,
      "##조차": 7747,
      "##가요": 7748,
      "하자": 7749,
      "누군": 7750,
      "원내": 7751,
      "조국": 7752,
      "그거": 7753,
      "아래": 7754,
      "있는지": 7755,
      "##는거야": 7756,
      "제도": 7757,
      "##구요": 7758,
      "검찰이": 7759,
      "검수완박": 7760,
      "##하려": 7761,
      "쓰는": 7762,
      "물가": 7763,
      "##50": 7764,
      "진심": 7765,
      "번째": 7766,
      "##한다면": 7767,
      "정신병": 7768,
      "봐라": 7769,
      "##차를": 7770,
      "##냈다": 7771,
      "##주가": 7772,
      "아닐": 7773,
      "아프": 7774,
      "하니": 7775,
      "##계획": 7776,
      "문재인이": 7777,
      "##바로": 7778,
      "선보": 7779,
      "11월": 7780,
      "원하는": 7781,
      "채용": 7782,
      "##든지": 7783,
      "의심": 7784,
      "##부에": 7785,
      "자녀": 7786,
      "하여": 7787,
      "여전히": 7788,
      "##지마": 7789,
      "2016년": 7790,
      "##하였": 7791,
      "##회에서": 7792,
      "기반": 7793,
      "내로남불": 7794,
      "자유한국": 7795,
      "12월": 7796,
      "알아서": 7797,
      "전환": 7798,
      "짜증": 7799,
      "없네": 7800,
      "인물": 7801,
      "검찰은": 7802,
      "##먹는": 7803,
      "여름": 7804,
      "##화에": 7805,
      "고소": 7806,
      "##어야지": 7807,
      "야당": 7808,
      "##지마라": 7809,
      "##리즈": 7810,
      "지정": 7811,
      "##개의": 7812,
      "##것을": 7813,
      "##률이": 7814,
      "아버": 7815,
      "고발": 7816,
      "##자나": 7817,
      "##달러": 7818,
      "없었다": 7819,
      "등장": 7820,
      "##리로": 7821,
      "제출": 7822,
      "##섰다": 7823,
      "##습니까": 7824,
      "더러운": 7825,
      "성폭": 7826,
      "벌써": 7827,
      "##성에": 7828,
      "응원합니다": 7829,
      "##이로": 7830,
      "인간들": 7831,
      "한마디": 7832,
      "들고": 7833,
      "그나마": 7834,
      "동물": 7835,
      "그건": 7836,
      "바란다": 7837,
      "이번에": 7838,
      "##자체": 7839,
      "이라는": 7840,
      "##갔다": 7841,
      "것들이": 7842,
      "느껴": 7843,
      "삼성전": 7844,
      "수십": 7845,
      "이란": 7846,
      "있냐": 7847,
      "소통": 7848,
      "그림": 7849,
      "이명": 7850,
      "##상은": 7851,
      "##하는지": 7852,
      "##거든": 7853,
      "캐릭터": 7854,
      "##구를": 7855,
      "남편": 7856,
      "없어서": 7857,
      "##드가": 7858,
      "까지": 7859,
      "제2": 7860,
      "##세대": 7861,
      "화장": 7862,
      "기소": 7863,
      "##교통": 7864,
      "선생": 7865,
      "무섭": 7866,
      "비상": 7867,
      "됩니다": 7868,
      "##아닌": 7869,
      "그랬": 7870,
      "이끌": 7871,
      "서울시": 7872,
      "이사": 7873,
      "##안전": 7874,
      "일어": 7875,
      "##것은": 7876,
      "##랑스": 7877,
      "##투자": 7878,
      "받았다": 7879,
      "하늘": 7880,
      "##겼다": 7881,
      "##했어요": 7882,
      "점점": 7883,
      "민주주의": 7884,
      "가수": 7885,
      "1월": 7886,
      "##줘야": 7887,
      "##이들": 7888,
      "경찰대": 7889,
      "제조": 7890,
      "##하기도": 7891,
      "모델": 7892,
      "말하는": 7893,
      "부터": 7894,
      "한반도": 7895,
      "뭐냐": 7896,
      "##예요": 7897,
      "특징": 7898,
      "답답": 7899,
      "돌려": 7900,
      "재앙": 7901,
      "##정에": 7902,
      "거부": 7903,
      "낮은": 7904,
      "##했으면": 7905,
      "기레기": 7906,
      "향후": 7907,
      "평점": 7908,
      "일어나": 7909,
      "##으로는": 7910,
      "##시대": 7911,
      "##기만": 7912,
      "아침": 7913,
      "##분을": 7914,
      "다행": 7915,
      "국민은": 7916,
      "정치인": 7917,
      "##이도": 7918,
      "봐도": 7919,
      "갈등": 7920,
      "것이라고": 7921,
      "##상납": 7922,
      "돼지": 7923,
      "양아치": 7924,
      "액션": 7925,
      "##제에": 7926,
      "##리의": 7927,
      "타고": 7928,
      "한미": 7929,
      "미세먼": 7930,
      "##부의": 7931,
      "대화": 7932,
      "부탁": 7933,
      "이유로": 7934,
      "입니다": 7935,
      "생각을": 7936,
      "화재": 7937,
      "##공사": 7938,
      "극우": 7939,
      "##이션": 7940,
      "##단을": 7941,
      "어쩔": 7942,
      "##서비스": 7943,
      "이해가": 7944,
      "한심한": 7945,
      "관련해": 7946,
      "사태": 7947,
      "처럼": 7948,
      "##상도": 7949,
      "촬영": 7950,
      "넘는": 7951,
      "시간을": 7952,
      "수준이": 7953,
      "무능한": 7954,
      "##겁니다": 7955,
      "##느냐": 7956,
      "불러": 7957,
      "우크라이나": 7958,
      "내용이": 7959,
      "유승민": 7960,
      "##어진": 7961,
      "집에": 7962,
      "전세계": 7963,
      "고양": 7964,
      "##라지": 7965,
      "##적을": 7966,
      "친일": 7967,
      "통제": 7968,
      "범죄자": 7969,
      "가슴": 7970,
      "토론": 7971,
      "##노동": 7972,
      "그러나": 7973,
      "##조선": 7974,
      "힘을": 7975,
      "설립": 7976,
      "##치기": 7977,
      "바꿔": 7978,
      "포기": 7979,
      "##인줄": 7980,
      "모지리": 7981,
      "##약을": 7982,
      "상대로": 7983,
      "##잡고": 7984,
      "생각하는": 7985,
      "경우가": 7986,
      "##회사": 7987,
      "기업이": 7988,
      "대장": 7989,
      "이곳": 7990,
      "보이는": 7991,
      "화이팅": 7992,
      "창업": 7993,
      "징역": 7994,
      "##어버": 7995,
      "유일": 7996,
      "공포": 7997,
      "늘어나": 7998,
      "없습니다": 7999,
      "##량을": 8000,
      "게임을": 8001,
      "##인거": 8002,
      "##in": 8003,
      "버스": 8004,
      "확정": 8005,
      "##원으로": 8006,
      "돌아가": 8007,
      "배경": 8008,
      "##럽게": 8009,
      "구체": 8010,
      "2017년": 8011,
      "##도의": 8012,
      "##와의": 8013,
      "##었고": 8014,
      "뽑아": 8015,
      "약속": 8016,
      "오랜": 8017,
      "환율": 8018,
      "통일": 8019,
      "##법을": 8020,
      "##스러운": 8021,
      "바른": 8022,
      "##이에요": 8023,
      "##장애": 8024,
      "종합": 8025,
      "주인공": 8026,
      "##하네요": 8027,
      "##BS": 8028,
      "매년": 8029,
      "이명박": 8030,
      "제목": 8031,
      "그것도": 8032,
      "성상납": 8033,
      "코스": 8034,
      "비난": 8035,
      "징계": 8036,
      "저지": 8037,
      "##운전": 8038,
      "애초": 8039,
      "훌륭": 8040,
      "원전": 8041,
      "수상": 8042,
      "##포츠": 8043,
      "##통신": 8044,
      "적이": 8045,
      "##10": 8046,
      "차별": 8047,
      "반복": 8048,
      "가스": 8049,
      "가능하다": 8050,
      "경북": 8051,
      "##검사": 8052,
      "선고": 8053,
      "반응": 8054,
      "상황이": 8055,
      "과연": 8056,
      "제재": 8057,
      "##디오": 8058,
      "이준석이": 8059,
      "날리면": 8060,
      "##레스": 8061,
      "모양": 8062,
      "안철": 8063,
      "##이버": 8064,
      "취임": 8065,
      "##인과": 8066,
      "태양": 8067,
      "##져서": 8068,
      "전화": 8069,
      "##여명이": 8070,
      "##더만": 8071,
      "경남": 8072,
      "불구": 8073,
      "이기": 8074,
      "##었습니다": 8075,
      "출시": 8076,
      "고생": 8077,
      "##자에": 8078,
      "경기도는": 8079,
      "##질을": 8080,
      "확산": 8081,
      "근거": 8082,
      "정리": 8083,
      "영화가": 8084,
      "관객": 8085,
      "유통": 8086,
      "방침": 8087,
      "##던가": 8088,
      "준석": 8089,
      "롯데": 8090,
      "국짐당": 8091,
      "##기의": 8092,
      "##시키는": 8093,
      "##의가": 8094,
      "실패": 8095,
      "##성도": 8096,
      "중단": 8097,
      "콘텐츠": 8098,
      "투입": 8099,
      "성남": 8100,
      "손해": 8101,
      "미국은": 8102,
      "##있고": 8103,
      "##랐다": 8104,
      "당신의": 8105,
      "북미": 8106,
      "##리게": 8107,
      "눈에": 8108,
      "최저임금": 8109,
      "##중이": 8110,
      "##상공": 8111,
      "동시에": 8112,
      "인한": 8113,
      "##재앙": 8114,
      "##있네": 8115,
      "충분히": 8116,
      "##출신": 8117,
      "##명은": 8118,
      "모자": 8119,
      "호텔": 8120,
      "##선동": 8121,
      "원내대표": 8122,
      "##쳤다": 8123,
      "대통령실": 8124,
      "저러": 8125,
      "물러": 8126,
      "예방": 8127,
      "남성": 8128,
      "무너": 8129,
      "아닌데": 8130,
      "##분에": 8131,
      "대변": 8132,
      "수행": 8133,
      "지금도": 8134,
      "##무리": 8135,
      "##건을": 8136,
      "믿고": 8137,
      "피해를": 8138,
      "##on": 8139,
      "##관을": 8140,
      "##나가": 8141,
      "치매": 8142,
      "전망이다": 8143,
      "못할": 8144,
      "바닥": 8145,
      "이들이": 8146,
      "##전쟁": 8147,
      "아예": 8148,
      "1일": 8149,
      "만족": 8150,
      "##정신": 8151,
      "데이터": 8152,
      "않으면": 8153,
      "아니라고": 8154,
      "##격을": 8155,
      "##받아": 8156,
      "하게": 8157,
      "##0년대": 8158,
      "##때는": 8159,
      "통합": 8160,
      "도는": 8161,
      "듣고": 8162,
      "중에": 8163,
      "간첩": 8164,
      "카드": 8165,
      "피해자": 8166,
      "임대": 8167,
      "비롯해": 8168,
      "것에": 8169,
      "##리그": 8170,
      "##부장관": 8171,
      "2월": 8172,
      "시도": 8173,
      "허위": 8174,
      "남의": 8175,
      "##별로": 8176,
      "점검": 8177,
      "##만으로": 8178,
      "도둑": 8179,
      "이상한": 8180,
      "나선": 8181,
      "##이라니": 8182,
      "하냐": 8183,
      "##시오": 8184,
      "##품을": 8185,
      "스마트폰": 8186,
      "따로": 8187,
      "시대": 8188,
      "##였던": 8189,
      "자료": 8190,
      "##제도": 8191,
      "내용을": 8192,
      "아쉬": 8193,
      "여당": 8194,
      "시위": 8195,
      "모르겠": 8196,
      "혐의로": 8197,
      "비핵화": 8198,
      "##야한다": 8199,
      "먹는": 8200,
      "##ㅡㅡ": 8201,
      "생각해": 8202,
      "만약": 8203,
      "수술": 8204,
      "우리나": 8205,
      "공산당": 8206,
      "199": 8207,
      "팩트": 8208,
      "자율": 8209,
      "논란이": 8210,
      "소송": 8211,
      "말은": 8212,
      "신규": 8213,
      "##국은": 8214,
      "90": 8215,
      "변화": 8216,
      "##전문": 8217,
      "##거운": 8218,
      "앞두고": 8219,
      "불과": 8220,
      "##격이": 8221,
      "목소": 8222,
      "양심": 8223,
      "가득": 8224,
      "하나도": 8225,
      "임명": 8226,
      "##시켜라": 8227,
      "온갖": 8228,
      "##활동": 8229,
      "3일": 8230,
      "수도권": 8231,
      "무죄": 8232,
      "##하려는": 8233,
      "홍콩": 8234,
      "##만명": 8235,
      "아들": 8236,
      "##반기": 8237,
      "불가능": 8238,
      "##했으며": 8239,
      "주도": 8240,
      "등록": 8241,
      "##개가": 8242,
      "##시면": 8243,
      "##함이": 8244,
      "개소리": 8245,
      "##행이": 8246,
      "##발전": 8247,
      "##스럽게": 8248,
      "어이": 8249,
      "회복": 8250,
      "지들이": 8251,
      "##자고": 8252,
      "의원이": 8253,
      "작업": 8254,
      "##증을": 8255,
      "없으면": 8256,
      "##새끼": 8257,
      "보도했다": 8258,
      "비롯한": 8259,
      "mbc": 8260,
      "박진": 8261,
      "조심": 8262,
      "대해서는": 8263,
      "##선이": 8264,
      "영화는": 8265,
      "하며": 8266,
      "부자": 8267,
      "##학년": 8268,
      "나중에": 8269,
      "알바": 8270,
      "봤는데": 8271,
      "책임을": 8272,
      "못하게": 8273,
      "##8년": 8274,
      "이상의": 8275,
      "때는": 8276,
      "자빠": 8277,
      "##으려고": 8278,
      "##없음": 8279,
      "도전": 8280,
      "형태": 8281,
      "똑같은": 8282,
      "전자": 8283,
      "해요": 8284,
      "노무": 8285,
      "못해": 8286,
      "가고": 8287,
      "겨울": 8288,
      "특정": 8289,
      "##수수색": 8290,
      "대통령을": 8291,
      "##히는": 8292,
      "앞에서": 8293,
      "##평가": 8294,
      "결론": 8295,
      "나머": 8296,
      "사실이": 8297,
      "##4범": 8298,
      "대통령과": 8299,
      "기초": 8300,
      "연락": 8301,
      "같아": 8302,
      "어제": 8303,
      "##청은": 8304,
      "전반": 8305,
      "##되며": 8306,
      "선발": 8307,
      "사실상": 8308,
      "상담": 8309,
      "위해서는": 8310,
      "자랑": 8311,
      "2015년": 8312,
      "예전": 8313,
      "ㅎㅎㅎ": 8314,
      "주가조작": 8315,
      "##과는": 8316,
      "##일보": 8317,
      "오르": 8318,
      "지시": 8319,
      "안에": 8320,
      "목숨": 8321,
      "밀어": 8322,
      "##세로": 8323,
      "모여": 8324,
      "선진": 8325,
      "비리": 8326,
      "##기와": 8327,
      "##므로": 8328,
      "국민의힘": 8329,
      "##하겠다는": 8330,
      "##이에": 8331,
      "대표가": 8332,
      "##쓰고": 8333,
      "##하다가": 8334,
      "##대학": 8335,
      "##권이": 8336,
      "##서가": 8337,
      "더불어민주당": 8338,
      "TV": 8339,
      "중공": 8340,
      "압수수색": 8341,
      "5일": 8342,
      "억울": 8343,
      "##상황": 8344,
      "##병원": 8345,
      "##국에": 8346,
      "항공": 8347,
      "너도": 8348,
      "변호사": 8349,
      "그러면": 8350,
      "##가족": 8351,
      "현지시간": 8352,
      "##가면": 8353,
      "있다면": 8354,
      "펼쳐": 8355,
      "##지요": 8356,
      "쏟아": 8357,
      "올리": 8358,
      "내일": 8359,
      "##소에": 8360,
      "이정도": 8361,
      "놈들": 8362,
      "##용이": 8363,
      "##는거다": 8364,
      "국개": 8365,
      "대전": 8366,
      "자본": 8367,
      "한국에": 8368,
      "업계": 8369,
      "우리의": 8370,
      "##도에": 8371,
      "##으로써": 8372,
      "##온다": 8373,
      "것들": 8374,
      "축구": 8375,
      "타이": 8376,
      "##플레이": 8377,
      "##길을": 8378,
      "##께서": 8379,
      "실망": 8380,
      "##적이다": 8381,
      "맞춰": 8382,
      "고위": 8383,
      "졸업": 8384,
      "몰아": 8385,
      "참고": 8386,
      "##대책": 8387,
      "##인듯": 8388,
      "지지하는": 8389,
      "이루어": 8390,
      "비싸": 8391,
      "김문": 8392,
      "양산": 8393,
      "프랑스": 8394,
      "##들이다": 8395,
      "긍정": 8396,
      "수밖에": 8397,
      "##리한": 8398,
      "##스럽다": 8399,
      "##겠나": 8400,
      "윤대통령": 8401,
      "##뉴스": 8402,
      "생긴": 8403,
      "조정": 8404,
      "집행": 8405,
      "감독이": 8406,
      "너네": 8407,
      "강한": 8408,
      "되었다": 8409,
      "조용히": 8410,
      "가해": 8411,
      "사업을": 8412,
      "##번째": 8413,
      "미사일": 8414,
      "정책을": 8415,
      "##주면": 8416,
      "옛날": 8417,
      "인식": 8418,
      "##었다고": 8419,
      "가르": 8420,
      "좋겠": 8421,
      "##해야한다": 8422,
      "만드": 8423,
      "##위해": 8424,
      "6개월": 8425,
      "종교": 8426,
      "##님의": 8427,
      "중국의": 8428,
      "반발": 8429,
      "더이상": 8430,
      "마찬": 8431,
      "아닙": 8432,
      "아동": 8433,
      "떠나": 8434,
      "한국은": 8435,
      "인재": 8436,
      "입학": 8437,
      "##개혁": 8438,
      "거쳐": 8439,
      "##상의": 8440,
      "변경": 8441,
      "##싶다": 8442,
      "에너지": 8443,
      "다가": 8444,
      "##하신": 8445,
      "##an": 8446,
      "건축": 8447,
      "욕설": 8448,
      "최악의": 8449,
      "##건이": 8450,
      "##지의": 8451,
      "위협": 8452,
      "##씨의": 8453,
      "아까": 8454,
      "##져라": 8455,
      "##연합": 8456,
      "제안": 8457,
      "미리": 8458,
      "전과4범": 8459,
      "매국": 8460,
      "공사": 8461,
      "##관광": 8462,
      "##부와": 8463,
      "##지어": 8464,
      "##실이": 8465,
      "들이": 8466,
      "통한": 8467,
      "##라니": 8468,
      "##음이": 8469,
      "잘못된": 8470,
      "자유한국당": 8471,
      "프레": 8472,
      "##요일": 8473,
      "마음이": 8474,
      "나의": 8475,
      "있었던": 8476,
      "명이": 8477,
      "새끼": 8478,
      "##군이": 8479,
      "아냐": 8480,
      "영원": 8481,
      "네이버": 8482,
      "놈이": 8483,
      "보통": 8484,
      "조치": 8485,
      "##하는건": 8486,
      "회담": 8487,
      "##있는데": 8488,
      "인터뷰": 8489,
      "##할까": 8490,
      "하세요": 8491,
      "일은": 8492,
      "임금": 8493,
      "##걸로": 8494,
      "##상으로": 8495,
      "아니지": 8496,
      "##메라": 8497,
      "프리": 8498,
      "##화국": 8499,
      "찬성": 8500,
      "나오고": 8501,
      "##분들": 8502,
      "네가": 8503,
      "##에게는": 8504,
      "잡고": 8505,
      "헛소리": 8506,
      "멤버": 8507,
      "폭행": 8508,
      "라이": 8509,
      "차례": 8510,
      "##개를": 8511,
      "처음으로": 8512,
      "의원은": 8513,
      "이슈": 8514,
      "말로": 8515,
      "접근": 8516,
      "관한": 8517,
      "방식": 8518,
      "4년": 8519,
      "##스의": 8520,
      "##사람이": 8521,
      "이들": 8522,
      "##부로": 8523,
      "가면": 8524,
      "헌법": 8525,
      "##의회": 8526,
      "세월": 8527,
      "게임이": 8528,
      "절반": 8529,
      "집권": 8530,
      "봐야": 8531,
      "크다": 8532,
      "안된": 8533,
      "도착": 8534,
      "희생": 8535,
      "니들은": 8536,
      "##본다": 8537,
      "마치": 8538,
      "새로": 8539,
      "장관이": 8540,
      "높다": 8541,
      "학부모": 8542,
      "같습니다": 8543,
      "재밌게": 8544,
      "위에": 8545,
      "프로젝": 8546,
      "유튜브": 8547,
      "##영업": 8548,
      "##하니까": 8549,
      "##관은": 8550,
      "무식한": 8551,
      "케이": 8552,
      "상황을": 8553,
      "##널드": 8554,
      "저녁": 8555,
      "##과학": 8556,
      "##제는": 8557,
      "##짜리": 8558,
      "##들한테": 8559,
      "이딴": 8560,
      "아름다운": 8561,
      "재정": 8562,
      "직장": 8563,
      "경찰에": 8564,
      "똑같": 8565,
      "##기지": 8566,
      "참석한": 8567,
      "눈치": 8568,
      "이재": 8569,
      "짱깨": 8570,
      "없지": 8571,
      "##만의": 8572,
      "사전": 8573,
      "##을듯": 8574,
      "##인가요": 8575,
      "##은거": 8576,
      "##결과": 8577,
      "거주": 8578,
      "당원": 8579,
      "##op": 8580,
      "##랫폼": 8581,
      "##하러": 8582,
      "둘러": 8583,
      "##이드": 8584,
      "##스코": 8585,
      "교체": 8586,
      "##을텐데": 8587,
      "##ㅎㅎ": 8588,
      "##단은": 8589,
      "때려": 8590,
      "비행": 8591,
      "##으로서": 8592,
      "노무현": 8593,
      "작가": 8594,
      "##처리": 8595,
      "##대학교": 8596,
      "##ㅠㅠ": 8597,
      "ㅉㅉㅉ": 8598,
      "아나": 8599,
      "모두가": 8600,
      "윤정부": 8601,
      "##드립니다": 8602,
      "원칙": 8603,
      "##로서": 8604,
      "수사를": 8605,
      "20년": 8606,
      "분양": 8607,
      "곳이": 8608,
      "##한건": 8609,
      "##보자": 8610,
      "1억": 8611,
      "내부총": 8612,
      "울산": 8613,
      "##가지고": 8614,
      "결과를": 8615,
      "##말로": 8616,
      "##대회": 8617,
      "##화된": 8618,
      "##점은": 8619,
      "학생들이": 8620,
      "4일": 8621,
      "꾸준": 8622,
      "보장": 8623,
      "나섰다": 8624,
      "##금융": 8625,
      "##마을": 8626,
      "윤석열은": 8627,
      "대법원": 8628,
      "마무리": 8629,
      "가치": 8630,
      "국익": 8631,
      "도널드": 8632,
      "정치적": 8633,
      "그렇지": 8634,
      "정보를": 8635,
      "관람": 8636,
      "내고": 8637,
      "조폭": 8638,
      "겁니다": 8639,
      "취소": 8640,
      "##관에서": 8641,
      "내놓": 8642,
      "똑같이": 8643,
      "##간의": 8644,
      "지적했다": 8645,
      "##단다": 8646,
      "입장을": 8647,
      "##명으로": 8648,
      "효과가": 8649,
      "블록": 8650,
      "발생한": 8651,
      "##셔서": 8652,
      "유치원": 8653,
      "##되기": 8654,
      "연속": 8655,
      "학습": 8656,
      "했다고": 8657,
      "10일": 8658,
      "싶어": 8659,
      "한국에서": 8660,
      "풀어": 8661,
      "해석": 8662,
      "##시절": 8663,
      "진보": 8664,
      "ㅜㅜ": 8665,
      "창출": 8666,
      "##죄명": 8667,
      "##운드": 8668,
      "##유가": 8669,
      "확진": 8670,
      "맞지": 8671,
      "##아야지": 8672,
      "초반": 8673,
      "##화폐": 8674,
      "마찬가지": 8675,
      "여야": 8676,
      "기여": 8677,
      "제1": 8678,
      "##공항": 8679,
      "##조가": 8680,
      "민족": 8681,
      "영업": 8682,
      "##단의": 8683,
      "생각한다": 8684,
      "##만을": 8685,
      "완전히": 8686,
      "악마": 8687,
      "##실에서": 8688,
      "열리는": 8689,
      "구청": 8690,
      "##는거냐": 8691,
      "이재명은": 8692,
      "1000": 8693,
      "##임이": 8694,
      "##따라": 8695,
      "##돌아": 8696,
      "연금": 8697,
      "굳이": 8698,
      "##미디": 8699,
      "##시켰": 8700,
      "##말을": 8701,
      "대규모": 8702,
      "무지": 8703,
      "##당을": 8704,
      "##어로": 8705,
      "빠른": 8706,
      "출산": 8707,
      "뉴욕": 8708,
      "인증": 8709,
      "않나": 8710,
      "했지만": 8711,
      "의해": 8712,
      "같아요": 8713,
      "##주민": 8714,
      "경찰국": 8715,
      "이야기를": 8716,
      "뒤집": 8717,
      "것과": 8718,
      "##지기": 8719,
      "동의": 8720,
      "##리와": 8721,
      "지지율이": 8722,
      "인기": 8723,
      "##웠다": 8724,
      "활성화": 8725,
      "저소득": 8726,
      "진정한": 8727,
      "비대": 8728,
      "자기가": 8729,
      "기사를": 8730,
      "##하길": 8731,
      "##주기": 8732,
      "##주시": 8733,
      "의견을": 8734,
      "답이다": 8735,
      "비슷한": 8736,
      "기분": 8737,
      "우려가": 8738,
      "세상이": 8739,
      "##았던": 8740,
      "안나": 8741,
      "작년": 8742,
      "##곳에": 8743,
      "죄다": 8744,
      "##히고": 8745,
      "편의": 8746,
      "따뜻": 8747,
      "세금으로": 8748,
      "대북": 8749,
      "세종": 8750,
      "그래픽": 8751,
      "서비스를": 8752,
      "작성": 8753,
      "전남": 8754,
      "##들로": 8755,
      "##진핑": 8756,
      "가만히": 8757,
      "1차": 8758,
      "일정": 8759,
      "에휴": 8760,
      "집에서": 8761,
      "##보기": 8762,
      "##치지": 8763,
      "북한의": 8764,
      "거야": 8765,
      "나무": 8766,
      "이놈": 8767,
      "축하": 8768,
      "명의": 8769,
      "중국은": 8770,
      "##or": 8771,
      "대한민국의": 8772,
      "##았는데": 8773,
      "국립": 8774,
      "주로": 8775,
      "##미가": 8776,
      "빠르게": 8777,
      "단계": 8778,
      "할수": 8779,
      "어머니": 8780,
      "##거고": 8781,
      "공모": 8782,
      "##달라고": 8783,
      "우승": 8784,
      "여기서": 8785,
      "기회": 8786,
      "덧붙": 8787,
      "하는지": 8788,
      "먹을": 8789,
      "##는가": 8790,
      "떨어진": 8791,
      "##나다": 8792,
      "##악한": 8793,
      "미국과": 8794,
      "뽑은": 8795,
      "주문": 8796,
      "있을까": 8797,
      "담배": 8798,
      "##다른": 8799,
      "수많은": 8800,
      "아쉽": 8801,
      "단속": 8802,
      "안내": 8803,
      "1위": 8804,
      "7일": 8805,
      "##보단": 8806,
      "청구": 8807,
      "바다": 8808,
      "자산": 8809,
      "남은": 8810,
      "메시": 8811,
      "알게": 8812,
      "##스러": 8813,
      "일자": 8814,
      "##점에서": 8815,
      "##먹을": 8816,
      "##움이": 8817,
      "보건": 8818,
      "주장했다": 8819,
      "##대가리": 8820,
      "1만": 8821,
      "가야": 8822,
      "도망": 8823,
      "펠로": 8824,
      "완벽": 8825,
      "##청이": 8826,
      "점에서": 8827,
      "##보내": 8828,
      "##복을": 8829,
      "주관": 8830,
      "특수": 8831,
      "AI": 8832,
      "주최": 8833,
      "활동을": 8834,
      "##이어": 8835,
      "기회를": 8836,
      "##그러": 8837,
      "##하지말고": 8838,
      "중이다": 8839,
      "완성": 8840,
      "유엔": 8841,
      "애들이": 8842,
      "##받을": 8843,
      "왔다": 8844,
      "시리즈": 8845,
      "주세요": 8846,
      "찍은": 8847,
      "내부총질": 8848,
      "의미가": 8849,
      "##시스템": 8850,
      "##던지": 8851,
      "##해진": 8852,
      "##감독": 8853,
      "##학과": 8854,
      "몰라": 8855,
      "##호가": 8856,
      "##방에": 8857,
      "대기": 8858,
      "사람의": 8859,
      "수원": 8860,
      "정작": 8861,
      "관광객": 8862,
      "디자인": 8863,
      "##봤다": 8864,
      "즐길": 8865,
      "마이": 8866,
      "정확한": 8867,
      "##시민": 8868,
      "12일": 8869,
      "##겹다": 8870,
      "앞에": 8871,
      "이나라": 8872,
      "갈라": 8873,
      "##었으면": 8874,
      "명예": 8875,
      "11일": 8876,
      "손가락": 8877,
      "저질": 8878,
      "것처럼": 8879,
      "회장": 8880,
      "한국이": 8881,
      "해체": 8882,
      "20일": 8883,
      "등등": 8884,
      "없으니": 8885,
      "##진을": 8886,
      "##먹은": 8887,
      "##머리": 8888,
      "##법이": 8889,
      "부과": 8890,
      "저거": 8891,
      "맞다": 8892,
      "추정": 8893,
      "대장동": 8894,
      "가라": 8895,
      "느그": 8896,
      "##카오": 8897,
      "플랫폼": 8898,
      "불구하고": 8899,
      "금액": 8900,
      "##TV": 8901,
      "통화": 8902,
      "깨끗": 8903,
      "아시": 8904,
      "아깝다": 8905,
      "##매매": 8906,
      "##하겠다고": 8907,
      "일제": 8908,
      "가격이": 8909,
      "새벽": 8910,
      "취급": 8911,
      "나와서": 8912,
      "월드": 8913,
      "법을": 8914,
      "대회": 8915,
      "진정": 8916,
      "##일까": 8917,
      "##었지만": 8918,
      "주차": 8919,
      "##그래": 8920,
      "태양광": 8921,
      "부인": 8922,
      "전정권": 8923,
      "찾는": 8924,
      "나누": 8925,
      "주말": 8926,
      "개념": 8927,
      "사장": 8928,
      "디지": 8929,
      "소비자": 8930,
      "혹시": 8931,
      "대표는": 8932,
      "무엇보다": 8933,
      "한국인": 8934,
      "2018년": 8935,
      "전면": 8936,
      "후반": 8937,
      "##없어": 8938,
      "초등": 8939,
      "##카드": 8940,
      "마음을": 8941,
      "전투": 8942,
      "페미": 8943,
      "흔들": 8944,
      "##보드": 8945,
      "##NS": 8946,
      "공공기관": 8947,
      "미국에": 8948,
      "결과가": 8949,
      "그만큼": 8950,
      "##절한": 8951,
      "누구나": 8952,
      "##까지는": 8953,
      "신설": 8954,
      "##성장": 8955,
      "투기": 8956,
      "##이든": 8957,
      "멍청한": 8958,
      "배달": 8959,
      "대놓고": 8960,
      "바탕": 8961,
      "##상에서": 8962,
      "##점에": 8963,
      "##거면": 8964,
      "갈수록": 8965,
      "2일": 8966,
      "27일": 8967,
      "언제까지": 8968,
      "이와": 8969,
      "이용해": 8970,
      "논문": 8971,
      "##당에": 8972,
      "##사에서": 8973,
      "##우가": 8974,
      "직업": 8975,
      "발표한": 8976,
      "스포츠": 8977,
      "##항공": 8978,
      "다녀": 8979,
      "여기에": 8980,
      "이럴": 8981,
      "잘하고": 8982,
      "##지와": 8983,
      "김영": 8984,
      "미안": 8985,
      "완료": 8986,
      "외교참": 8987,
      "##상태": 8988,
      "##는건": 8989,
      "찍어": 8990,
      "기가": 8991,
      "민노총": 8992,
      "살펴": 8993,
      "지원을": 8994,
      "##리오": 8995,
      "##좋은": 8996,
      "##금으로": 8997,
      "매력": 8998,
      "폐기": 8999,
      "시원": 9000,
      "하지말고": 9001,
      "SK": 9002,
      "보조": 9003,
      "##해가": 9004,
      "확실히": 9005,
      "##페인": 9006,
      "8일": 9007,
      "시진핑": 9008,
      "18일": 9009,
      "견찰": 9010,
      "출발": 9011,
      "소유": 9012,
      "신용": 9013,
      "##사항": 9014,
      "##형을": 9015,
      "여러분": 9016,
      "기부": 9017,
      "자막": 9018,
      "이라며": 9019,
      "협박": 9020,
      "35": 9021,
      "##리카": 9022,
      "##경이": 9023,
      "그녀는": 9024,
      "긴장": 9025,
      "##려나": 9026,
      "애초에": 9027,
      "체결": 9028,
      "2014년": 9029,
      "##보가": 9030,
      "내내": 9031,
      "교사": 9032,
      "##역을": 9033,
      "##부지": 9034,
      "음주운전": 9035,
      "마누": 9036,
      "15일": 9037,
      "자영업": 9038,
      "키워": 9039,
      "끝난": 9040,
      "분노": 9041,
      "준석이": 9042,
      "##류가": 9043,
      "방안을": 9044,
      "이리": 9045,
      "너무나": 9046,
      "국가가": 9047,
      "5년간": 9048,
      "받지": 9049,
      "나오면": 9050,
      "전기차": 9051,
      "평양": 9052,
      "##바닥": 9053,
      "##원전": 9054,
      "인간들이": 9055,
      "생기": 9056,
      "##만들": 9057,
      "##집단": 9058,
      "심지어": 9059,
      "이벤": 9060,
      "##기준": 9061,
      "예상된다": 9062,
      "생겼": 9063,
      "환불": 9064,
      "##차례": 9065,
      "군대": 9066,
      "왜이": 9067,
      "조합": 9068,
      "##짓을": 9069,
      "차이가": 9070,
      "##신을": 9071,
      "모르겠다": 9072,
      "2번": 9073,
      "선언": 9074,
      "개입": 9075,
      "신속": 9076,
      "어른": 9077,
      "회원": 9078,
      "애플": 9079,
      "이들은": 9080,
      "통계": 9081,
      "19일": 9082,
      "제거": 9083,
      "20대": 9084,
      "사상": 9085,
      "##러스": 9086,
      "14일": 9087,
      "커피": 9088,
      "점이": 9089,
      "##간에": 9090,
      "철저히": 9091,
      "##줘라": 9092,
      "동일": 9093,
      "말해": 9094,
      "법인": 9095,
      "씨가": 9096,
      "##리네": 9097,
      "LG": 9098,
      "인수": 9099,
      "시각": 9100,
      "##미래": 9101,
      "못했다": 9102,
      "##잖아요": 9103,
      "##했지": 9104,
      "사람도": 9105,
      "싱가": 9106,
      "##요금": 9107,
      "##었나": 9108,
      "##스토": 9109,
      "정치를": 9110,
      "취재": 9111,
      "##시킬": 9112,
      "할인": 9113,
      "##진흥": 9114,
      "해보": 9115,
      "엄청난": 9116,
      "검증": 9117,
      "##방울": 9118,
      "이래서": 9119,
      "##식에": 9120,
      "그래야": 9121,
      "카메라": 9122,
      "흥미": 9123,
      "##서에": 9124,
      "생각합니다": 9125,
      "한심하다": 9126,
      "##보호": 9127,
      "말한": 9128,
      "선제": 9129,
      "##쳐서": 9130,
      "##다는게": 9131,
      "##행정": 9132,
      "어울": 9133,
      "##분기": 9134,
      "주둥": 9135,
      "휴대": 9136,
      "##언론": 9137,
      "이른": 9138,
      "법원": 9139,
      "브라": 9140,
      "덧붙였다": 9141,
      "##자치": 9142,
      "##싶은": 9143,
      "30일": 9144,
      "##했네": 9145,
      "##주를": 9146,
      "##리며": 9147,
      "있나요": 9148,
      "##럽다": 9149,
      "똑똑": 9150,
      "압박": 9151,
      "##협력": 9152,
      "부족한": 9153,
      "지하철": 9154,
      "공천": 9155,
      "28일": 9156,
      "대가": 9157,
      "실행": 9158,
      "SNS": 9159,
      "##구는": 9160,
      "나라의": 9161,
      "남녀": 9162,
      "인공": 9163,
      "##림픽": 9164,
      "##직원": 9165,
      "않도록": 9166,
      "##체를": 9167,
      "많고": 9168,
      "모바": 9169,
      "아무도": 9170,
      "1조": 9171,
      "##시기": 9172,
      "국회의": 9173,
      "권한": 9174,
      "이상이": 9175,
      "##비용": 9176,
      "승인": 9177,
      "기회가": 9178,
      "죽은": 9179,
      "##자들을": 9180,
      "##이의": 9181,
      "##협회": 9182,
      "최소한": 9183,
      "김문수": 9184,
      "##됐다고": 9185,
      "##라가": 9186,
      "스토킹": 9187,
      "##금지": 9188,
      "##두환": 9189,
      "##는데도": 9190,
      "##주로": 9191,
      "##예술": 9192,
      "이런거": 9193,
      "눈이": 9194,
      "안철수": 9195,
      "해소": 9196,
      "챙겨": 9197,
      "##면서도": 9198,
      "##위원장": 9199,
      "6일": 9200,
      "외부": 9201,
      "##버스": 9202,
      "아닙니다": 9203,
      "실질": 9204,
      "모아": 9205,
      "치고": 9206,
      "윤가": 9207,
      "노출": 9208,
      "쉽지": 9209,
      "세상에": 9210,
      "##체인": 9211,
      "공장": 9212,
      "없어요": 9213,
      "##할듯": 9214,
      "##정부가": 9215,
      "심각한": 9216,
      "인력": 9217,
      "법카": 9218,
      "##ar": 9219,
      "많은데": 9220,
      "##중앙": 9221,
      "##비는": 9222,
      "시급": 9223,
      "##같은데": 9224,
      "구입": 9225,
      "남탓": 9226,
      "카카오": 9227,
      "냄새": 9228,
      "명작": 9229,
      "##훈련": 9230,
      "자리를": 9231,
      "협의": 9232,
      "이자": 9233,
      "죽을": 9234,
      "조만": 9235,
      "##구조": 9236,
      "##목을": 9237,
      "사진을": 9238,
      "동맹": 9239,
      "이러니": 9240,
      "##했는지": 9241,
      "##유치": 9242,
      "건희": 9243,
      "보낸": 9244,
      "48": 9245,
      "한테": 9246,
      "끌고": 9247,
      "수백": 9248,
      "##주년": 9249,
      "사고가": 9250,
      "몰랐": 9251,
      "방식으로": 9252,
      "##명한": 9253,
      "##세력": 9254,
      "##구로": 9255,
      "##xx": 9256,
      "소상공": 9257,
      "지자체": 9258,
      "##이즈": 9259,
      "##생이": 9260,
      "##건축": 9261,
      "거니": 9262,
      "##tt": 9263,
      "논리": 9264,
      "허용": 9265,
      "진실": 9266,
      "미세먼지": 9267,
      "9일": 9268,
      "나눠": 9269,
      "성범죄": 9270,
      "없나": 9271,
      "##놀이": 9272,
      "##페이": 9273,
      "동영": 9274,
      "와서": 9275,
      "한국어": 9276,
      "코미디": 9277,
      "방탄": 9278,
      "##고를": 9279,
      "##친다": 9280,
      "평소": 9281,
      "아이들이": 9282,
      "접수": 9283,
      "##배우": 9284,
      "받아야": 9285,
      "선동질": 9286,
      "나름": 9287,
      "들어서": 9288,
      "사면": 9289,
      "##되는데": 9290,
      "##아버": 9291,
      "김정": 9292,
      "##안부": 9293,
      "생각하고": 9294,
      "놈들이": 9295,
      "질병": 9296,
      "##고도": 9297,
      "생명": 9298,
      "선물": 9299,
      "##타임": 9300,
      "##리자": 9301,
      "##제한": 9302,
      "##씨를": 9303,
      "##본부": 9304,
      "26일": 9305,
      "멀티": 9306,
      "##회견": 9307,
      "25일": 9308,
      "최초로": 9309,
      "기득": 9310,
      "쓰레": 9311,
      "늙은": 9312,
      "폭염": 9313,
      "##대고": 9314,
      "##화로": 9315,
      "장악": 9316,
      "21일": 9317,
      "17일": 9318,
      "모바일": 9319,
      "1인": 9320,
      "공약": 9321,
      "제품을": 9322,
      "흐름": 9323,
      "폭발": 9324,
      "대한민국이": 9325,
      "13일": 9326,
      "##있어": 9327,
      "23일": 9328,
      "공직": 9329,
      "전용": 9330,
      "찢재명": 9331,
      "##포르": 9332,
      "개편": 9333,
      "되는데": 9334,
      "빼고": 9335,
      "22일": 9336,
      "한편": 9337,
      "삶을": 9338,
      "게임은": 9339,
      "##졌네": 9340,
      "##경기": 9341,
      "겨우": 9342,
      "콘서": 9343,
      "##어리": 9344,
      "답변": 9345,
      "인기를": 9346,
      "##식품": 9347,
      "##제품": 9348,
      "법이": 9349,
      "연장": 9350,
      "##체육": 9351,
      "도민": 9352,
      "시장이": 9353,
      "일하는": 9354,
      "농업": 9355,
      "몰입": 9356,
      "올린": 9357,
      "태극": 9358,
      "쌍욕": 9359,
      "웃기": 9360,
      "##조리": 9361,
      "개검": 9362,
      "대다": 9363,
      "지능": 9364,
      "##필요": 9365,
      "##금리": 9366,
      "##가능": 9367,
      "##라스": 9368,
      "대박": 9369,
      "왜곡": 9370,
      "개가": 9371,
      "발굴": 9372,
      "혼란": 9373,
      "##아도": 9374,
      "##니스": 9375,
      "너의": 9376,
      "동원": 9377,
      "##부대": 9378,
      "단지": 9379,
      "##네시아": 9380,
      "보이고": 9381,
      "적은": 9382,
      "뭐라": 9383,
      "입만": 9384,
      "##있음": 9385,
      "디지털": 9386,
      "하시": 9387,
      "다소": 9388,
      "하나의": 9389,
      "규모의": 9390,
      "임기": 9391,
      "떨어지는": 9392,
      "않을까": 9393,
      "후원": 9394,
      "적폐": 9395,
      "능력이": 9396,
      "일상": 9397,
      "후회": 9398,
      "운영하는": 9399,
      "##의도": 9400,
      "예측": 9401,
      "##방을": 9402,
      "##at": 9403,
      "않습니다": 9404,
      "언론이": 9405,
      "진입": 9406,
      "출근": 9407,
      "##었어요": 9408,
      "##데타": 9409,
      "하는짓": 9410,
      "지역의": 9411,
      "배출": 9412,
      "24일": 9413,
      "넘게": 9414,
      "아내": 9415,
      "다수": 9416,
      "##구역": 9417,
      "법률": 9418,
      "불이": 9419,
      "##연이": 9420,
      "감염": 9421,
      "나머지": 9422,
      "##했음": 9423,
      "나쁘": 9424,
      "설계": 9425,
      "힘이": 9426,
      "##점으로": 9427,
      "개미": 9428,
      "##추고": 9429,
      "관련된": 9430,
      "무서운": 9431,
      "##외교": 9432,
      "분위기": 9433,
      "끝나": 9434,
      "##om": 9435,
      "##al": 9436,
      "윤재앙": 9437,
      "##워크": 9438,
      "기상": 9439,
      "담긴": 9440,
      "초등학교": 9441,
      "강력한": 9442,
      "몰려": 9443,
      "좋고": 9444,
      "인도네시아": 9445,
      "##보수": 9446,
      "버그": 9447,
      "수업": 9448,
      "자가": 9449,
      "적당히": 9450,
      "측은": 9451,
      "##시험": 9452,
      "##겠죠": 9453,
      "경제가": 9454,
      "##중한": 9455,
      "##에서의": 9456,
      "198": 9457,
      "내려와": 9458,
      "존나": 9459,
      "##하더니": 9460,
      "검색": 9461,
      "굉장": 9462,
      "주거": 9463,
      "상당": 9464,
      "##공화국": 9465,
      "국민연금": 9466,
      "##했으나": 9467,
      "경호": 9468,
      "구분": 9469,
      "연계": 9470,
      "조사를": 9471,
      "##했냐": 9472,
      "무대": 9473,
      "측면": 9474,
      "##놈들이": 9475,
      "##트는": 9476,
      "보여주는": 9477,
      "조만간": 9478,
      "우리도": 9479,
      "손을": 9480,
      "치킨": 9481,
      "##들여": 9482,
      "##었음": 9483,
      "마세요": 9484,
      "##은혜": 9485,
      "위치한": 9486,
      "1도": 9487,
      "위기": 9488,
      "입주": 9489,
      "##선언": 9490,
      "##너무": 9491,
      "##시를": 9492,
      "기자회견": 9493,
      "##마저": 9494,
      "##해주세요": 9495,
      "##나무": 9496,
      "공정과": 9497,
      "들여": 9498,
      "부르": 9499,
      "싸움": 9500,
      "국힘당": 9501,
      "적극적으로": 9502,
      "어렵다": 9503,
      "심판": 9504,
      "이다": 9505,
      "내세": 9506,
      "##조직": 9507,
      "##문란": 9508,
      "이것은": 9509,
      "간다": 9510,
      "긴급": 9511,
      "취약": 9512,
      "##소는": 9513,
      "떨어지": 9514,
      "그들은": 9515,
      "##였는데": 9516,
      "이모": 9517,
      "##구의": 9518,
      "##으로부터": 9519,
      "요금": 9520,
      "방침이다": 9521,
      "생태": 9522,
      "이중": 9523,
      "했습니다": 9524,
      "자신을": 9525,
      "초기": 9526,
      "##효과": 9527,
      "비가": 9528,
      "윤리": 9529,
      "지속적으로": 9530,
      "수는": 9531,
      "한달": 9532,
      "보면서": 9533,
      "공산주의": 9534,
      "##게요": 9535,
      "수용": 9536,
      "##해주는": 9537,
      "##이들이": 9538,
      "##트로": 9539,
      "안돼": 9540,
      "합리": 9541,
      "지배": 9542,
      "사건이": 9543,
      "전개": 9544,
      "##길래": 9545,
      "초청": 9546,
      "안타깝": 9547,
      "훌륭한": 9548,
      "보상": 9549,
      "##있냐": 9550,
      "##보를": 9551,
      "##오고": 9552,
      "달려": 9553,
      "##료가": 9554,
      "진술": 9555,
      "서울대": 9556,
      "대단한": 9557,
      "매국노": 9558,
      "싱가포르": 9559,
      "아빠": 9560,
      "##율을": 9561,
      "##인들의": 9562,
      "골프": 9563,
      "우파": 9564,
      "뭔지": 9565,
      "가난": 9566,
      "쇼핑": 9567,
      "##다시": 9568,
      "##고가": 9569,
      "꾸준히": 9570,
      "##향이": 9571,
      "##한번": 9572,
      "##케팅": 9573,
      "##노조": 9574,
      "##로를": 9575,
      "태풍": 9576,
      "##영이": 9577,
      "##식은": 9578,
      "측근": 9579,
      "##증이": 9580,
      "##퓨터": 9581,
      "관측": 9582,
      "국기": 9583,
      "##지말": 9584,
      "리더": 9585,
      "세력": 9586,
      "정권이": 9587,
      "싫다": 9588,
      "완화": 9589,
      "예비": 9590,
      "캐나다": 9591,
      "##규직": 9592,
      "전형": 9593,
      "##었지": 9594,
      "문죄인": 9595,
      "실내": 9596,
      "폭락": 9597,
      "##산이": 9598,
      "형성": 9599,
      "일본이": 9600,
      "##사들이": 9601,
      "추억": 9602,
      "저렴": 9603,
      "##터리": 9604,
      "##었다는": 9605,
      "29일": 9606,
      "##산물": 9607,
      "멋진": 9608,
      "간단": 9609,
      "블랙": 9610,
      "##것같": 9611,
      "##거임": 9612,
      "맞고": 9613,
      "한전": 9614,
      "페이스": 9615,
      "힘내": 9616,
      "2013년": 9617,
      "##까봐": 9618,
      "감사합니다": 9619,
      "횡령": 9620,
      "##과정": 9621,
      "몇년": 9622,
      "##속에": 9623,
      "속에서": 9624,
      "답이": 9625,
      "속에": 9626,
      "세대": 9627,
      "자극": 9628,
      "사건을": 9629,
      "##시켜야": 9630,
      "심사": 9631,
      "거다": 9632,
      "자원": 9633,
      "협상": 9634,
      "화면": 9635,
      "시작한": 9636,
      "가까운": 9637,
      "##르신": 9638,
      "느낄": 9639,
      "반면": 9640,
      "##없네": 9641,
      "에라이": 9642,
      "촉구": 9643,
      "우리나라는": 9644,
      "썩은": 9645,
      "전날": 9646,
      "9년": 9647,
      "##소에서": 9648,
      "##건의": 9649,
      "거기에": 9650,
      "##하고자": 9651,
      "바탕으로": 9652,
      "슈퍼": 9653,
      "촛불": 9654,
      "##로가": 9655,
      "기대하고": 9656,
      "이름을": 9657,
      "##방이": 9658,
      "##서관": 9659,
      "부패": 9660,
      "주제로": 9661,
      "##진짜": 9662,
      "##되서": 9663,
      "##겠어": 9664,
      "어휴": 9665,
      "응답": 9666,
      "##뿐만": 9667,
      "한국을": 9668,
      "##버린": 9669,
      "덕분에": 9670,
      "##하려면": 9671,
      "감안": 9672,
      "뒤에": 9673,
      "##구에": 9674,
      "16일": 9675,
      "도움을": 9676,
      "근본": 9677,
      "##떨어": 9678,
      "##안은": 9679,
      "##류를": 9680,
      "##것들은": 9681,
      "이유를": 9682,
      "아이가": 9683,
      "봤다": 9684,
      "된다는": 9685,
      "36": 9686,
      "##함에": 9687,
      "##우면": 9688,
      "##가의": 9689,
      "##조합": 9690,
      "자금": 9691,
      "##었어": 9692,
      "##계의": 9693,
      "보였다": 9694,
      "상당히": 9695,
      "대우": 9696,
      "이탈": 9697,
      "대한민국을": 9698,
      "똑바로": 9699,
      "문제다": 9700,
      "##추행": 9701,
      "30분": 9702,
      "안됨": 9703,
      "아니야": 9704,
      "##하지않": 9705,
      "##판에": 9706,
      "신기": 9707,
      "밝힌": 9708,
      "##우스": 9709,
      "윤도": 9710,
      "해제": 9711,
      "##았고": 9712,
      "대폭": 9713,
      "훼손": 9714,
      "##일은": 9715,
      "내는": 9716,
      "전두환": 9717,
      "않게": 9718,
      "##하셨": 9719,
      "이민": 9720,
      "공항": 9721,
      "박정": 9722,
      "배치": 9723,
      "##소로": 9724,
      "##해를": 9725,
      "##리어": 9726,
      "놀고": 9727,
      "기업의": 9728,
      "피해가": 9729,
      "그린": 9730,
      "할머니": 9731,
      "이준석은": 9732,
      "모집": 9733,
      "##국제": 9734,
      "보이지": 9735,
      "나라는": 9736,
      "제주도": 9737,
      "##있나": 9738,
      "그들의": 9739,
      "어려워": 9740,
      "저게": 9741,
      "##로지": 9742,
      "##했나": 9743,
      "적자": 9744,
      "사항": 9745,
      "##리나": 9746,
      "##통수": 9747,
      "특별한": 9748,
      "3개월": 9749,
      "그들이": 9750,
      "엉망": 9751,
      "##독교": 9752,
      "##시코": 9753,
      "##프트": 9754,
      "미군": 9755,
      "30년": 9756,
      "고령": 9757,
      "시끄": 9758,
      "말아먹": 9759,
      "실력": 9760,
      "열고": 9761,
      "특검": 9762,
      "##유의": 9763,
      "어린이집": 9764,
      "참여하는": 9765,
      "고마": 9766,
      "실무": 9767,
      "전년": 9768,
      "##관련": 9769,
      "벗어나": 9770,
      "처음이다": 9771,
      "유출": 9772,
      "보여주": 9773,
      "하긴": 9774,
      "성과를": 9775,
      "감정": 9776,
      "철수": 9777,
      "교육을": 9778,
      "그려": 9779,
      "말아": 9780,
      "축제": 9781,
      "필수": 9782,
      "글을": 9783,
      "자세": 9784,
      "착각": 9785,
      "했으면": 9786,
      "##파크": 9787,
      "대로": 9788,
      "베이": 9789,
      "소설": 9790,
      "나를": 9791,
      "##니깐": 9792,
      "##프라": 9793,
      "실적": 9794,
      "조기": 9795,
      "국민들을": 9796,
      "비싼": 9797,
      "##질환": 9798,
      "길을": 9799,
      "물고": 9800,
      "##호를": 9801,
      "##재가": 9802,
      "재명이": 9803,
      "광우": 9804,
      "##공산": 9805,
      "때까지": 9806,
      "에어": 9807,
      "미술": 9808,
      "친환경": 9809,
      "앞으로도": 9810,
      "강원도": 9811,
      "부문": 9812,
      "주사": 9813,
      "##경을": 9814,
      "나아": 9815,
      "지휘": 9816,
      "가게": 9817,
      "하다가": 9818,
      "##처가": 9819,
      "33": 9820,
      "회장이": 9821,
      "민영화": 9822,
      "방치": 9823,
      "##리다": 9824,
      "##리트": 9825,
      "##인들은": 9826,
      "맞춤": 9827,
      "식당": 9828,
      "애니": 9829,
      "##운영": 9830,
      "##st": 9831,
      "##사람들": 9832,
      "폭력": 9833,
      "##하시는": 9834,
      "##건설": 9835,
      "실수": 9836,
      "##en": 9837,
      "##애들": 9838,
      "일찍": 9839,
      "##위의": 9840,
      "##이네요": 9841,
      "프레임": 9842,
      "뜻을": 9843,
      "여자가": 9844,
      "국회에서": 9845,
      "셈이다": 9846,
      "시기": 9847,
      "엔딩": 9848,
      "장관은": 9849,
      "##있게": 9850,
      "연극": 9851,
      "호주": 9852,
      "모른다": 9853,
      "개봉": 9854,
      "세워": 9855,
      "##쓰레기": 9856,
      "중국에": 9857,
      "5년동안": 9858,
      "열어": 9859,
      "##팀이": 9860,
      "400": 9861,
      "폭등": 9862,
      "선진국": 9863,
      "##안하고": 9864,
      "##하긴": 9865,
      "##해지": 9866,
      "##아이": 9867,
      "예고": 9868,
      "재난": 9869,
      "부분이": 9870,
      "세상을": 9871,
      "박용": 9872,
      "봉사": 9873,
      "부작": 9874,
      "좋지": 9875,
      "##으려": 9876,
      "##단에": 9877,
      "3개": 9878,
      "##긴다": 9879,
      "퇴출": 9880,
      "지금의": 9881,
      "불공": 9882,
      "##거리는": 9883,
      "가까이": 9884,
      "수수": 9885,
      "##기기": 9886,
      "교수는": 9887,
      "카페": 9888,
      "##자동": 9889,
      "##단지": 9890,
      "거듭": 9891,
      "굉장히": 9892,
      "정은": 9893,
      "신선": 9894,
      "32": 9895,
      "혐오": 9896,
      "##드라마": 9897,
      "##목이": 9898,
      "##분야": 9899,
      "김성": 9900,
      "김대": 9901,
      "기대된다": 9902,
      "##통이": 9903,
      "##형이": 9904,
      "신문": 9905,
      "컴퓨터": 9906,
      "목소리": 9907,
      "보복": 9908,
      "돈벌": 9909,
      "된다고": 9910,
      "벌금": 9911,
      "##리는데": 9912,
      "오픈": 9913,
      "쿠데타": 9914,
      "괴롭": 9915,
      "##가라": 9916,
      "##ps": 9917,
      "눈물": 9918,
      "하려고": 9919,
      "살해": 9920,
      "연봉": 9921,
      "혐의를": 9922,
      "복귀": 9923,
      "적발": 9924,
      "##쓰는": 9925,
      "차기": 9926,
      "##봤는데": 9927,
      "경고": 9928,
      "충남": 9929,
      "##스티": 9930,
      "사이에": 9931,
      "쓸데": 9932,
      "조중": 9933,
      "증명": 9934,
      "포함한": 9935,
      "하이": 9936,
      "##마자": 9937,
      "이달": 9938,
      "##액이": 9939,
      "앉아": 9940,
      "죽여": 9941,
      "##원과": 9942,
      "시작했다": 9943,
      "조건": 9944,
      "환자": 9945,
      "##대출": 9946,
      "##자금": 9947,
      "##스와": 9948,
      "기준으로": 9949,
      "대가리": 9950,
      "암호": 9951,
      "원인": 9952,
      "충격": 9953,
      "##한것": 9954,
      "##진은": 9955,
      "##곳에서": 9956,
      "윤무": 9957,
      "##달라": 9958,
      "안해": 9959,
      "##합시다": 9960,
      "성폭행": 9961,
      "저희": 9962,
      "형수": 9963,
      "2012년": 9964,
      "연간": 9965,
      "간신": 9966,
      "때마다": 9967,
      "##용으로": 9968,
      "눈길을": 9969,
      "뭐하냐": 9970,
      "등은": 9971,
      "효율": 9972,
      "##사랑": 9973,
      "정상적인": 9974,
      "국무위원": 9975,
      "명확": 9976,
      "임시": 9977,
      "자리에": 9978,
      "##치게": 9979,
      "가을": 9980,
      "증권": 9981,
      "안타까": 9982,
      "퇴직": 9983,
      "##가에": 9984,
      "만난": 9985,
      "##주인": 9986,
      "멕시코": 9987,
      "빨아": 9988,
      "연합": 9989,
      "채널": 9990,
      "##드로": 9991,
      "##명에": 9992,
      "이것이": 9993,
      "버티": 9994,
      "2019년": 9995,
      "다시는": 9996,
      "검새": 9997,
      "깊은": 9998,
      "##만원을": 9999,
      "개막": 10000,
      "##비로": 10001,
      "##투표": 10002,
      "1점": 10003,
      "##일뿐": 10004,
      "##명과": 10005,
      "##뮤니": 10006,
      "검찰총": 10007,
      "lt": 10008,
      "윤씨": 10009,
      "마이크": 10010,
      "단독": 10011,
      "법무부": 10012,
      "바른미래": 10013,
      "국민들의": 10014,
      "어려움을": 10015,
      "기울": 10016,
      "제3": 10017,
      "##차별": 10018,
      "##산을": 10019,
      "##계약": 10020,
      "좋을": 10021,
      "과정을": 10022,
      "##지사가": 10023,
      "##전에서": 10024,
      "##석을": 10025,
      "##겠어요": 10026,
      "##오면": 10027,
      "알지": 10028,
      "오직": 10029,
      "나라에서": 10030,
      "기득권": 10031,
      "그것이": 10032,
      "승리": 10033,
      "잘하는": 10034,
      "##치면": 10035,
      "상황에": 10036,
      "대단하다": 10037,
      "화려": 10038,
      "##대상": 10039,
      "기술을": 10040,
      "포장": 10041,
      "없지만": 10042,
      "##세에": 10043,
      "발달": 10044,
      "##스탄": 10045,
      "많아서": 10046,
      "##실에": 10047,
      "전북": 10048,
      "##조를": 10049,
      "뇌물": 10050,
      "상황이다": 10051,
      "주변에": 10052,
      "실현": 10053,
      "지적이": 10054,
      "##억원을": 10055,
      "유사": 10056,
      "파업": 10057,
      "걸린": 10058,
      "안하는": 10059,
      "##책임": 10060,
      "억지": 10061,
      "##정상회담": 10062,
      "꼬라지": 10063,
      "목적": 10064,
      "지옥": 10065,
      "어르신": 10066,
      "##때도": 10067,
      "전해졌다": 10068,
      "키우": 10069,
      "합격": 10070,
      "##됐고": 10071,
      "##준표": 10072,
      "##40": 10073,
      "##관에": 10074,
      "하나님": 10075,
      "선호": 10076,
      "참으로": 10077,
      "직후": 10078,
      "그러니까": 10079,
      "##사람은": 10080,
      "4차": 10081,
      "동남": 10082,
      "흘러": 10083,
      "나라에": 10084,
      "##석은": 10085,
      "타령": 10086,
      "##저리": 10087,
      "김경": 10088,
      "아베": 10089,
      "마음에": 10090,
      "식품": 10091,
      "지식": 10092,
      "##해온": 10093,
      "##위기": 10094,
      "##성의": 10095,
      "##었을": 10096,
      "10점": 10097,
      "무리": 10098,
      "일이다": 10099,
      "##ou": 10100,
      "지원하는": 10101,
      "형사": 10102,
      "여론조사": 10103,
      "광역": 10104,
      "끝내": 10105,
      "기억이": 10106,
      "생존": 10107,
      "탈원전": 10108,
      "##능력": 10109,
      "돈으로": 10110,
      "상장": 10111,
      "피의": 10112,
      "##이와": 10113,
      "창피": 10114,
      "안되고": 10115,
      "질문": 10116,
      "파괴": 10117,
      "##할지": 10118,
      "아시안": 10119,
      "모를": 10120,
      "이들의": 10121,
      "##공간": 10122,
      "##말은": 10123,
      "다니는": 10124,
      "유아": 10125,
      "멀쩡": 10126,
      "소리를": 10127,
      "상상": 10128,
      "페이스북": 10129,
      "욕을": 10130,
      "추락": 10131,
      "노후": 10132,
      "당사": 10133,
      "두려": 10134,
      "영원히": 10135,
      "참여한": 10136,
      "올랐": 10137,
      "##속도로": 10138,
      "##층이": 10139,
      "많았다": 10140,
      "명령": 10141,
      "활발": 10142,
      "직무": 10143,
      "##경영": 10144,
      "있으": 10145,
      "##가야": 10146,
      "##정의": 10147,
      "##행위": 10148,
      "동아": 10149,
      "##빨리": 10150,
      "지역에": 10151,
      "감기": 10152,
      "##사도": 10153,
      "수요가": 10154,
      "저도": 10155,
      "##주도": 10156,
      "하겠다": 10157,
      "달성": 10158,
      "싶습니다": 10159,
      "입고": 10160,
      "향해": 10161,
      "교회": 10162,
      "넘겨": 10163,
      "당연한": 10164,
      "가치가": 10165,
      "수정": 10166,
      "의혹을": 10167,
      "산다": 10168,
      "상대적으로": 10169,
      "안들": 10170,
      "저기": 10171,
      "최선을": 10172,
      "크리스": 10173,
      "##지방": 10174,
      "생각은": 10175,
      "괜히": 10176,
      "입법": 10177,
      "인지": 10178,
      "##자들에게": 10179,
      "##자체가": 10180,
      "##쪽으로": 10181,
      "쌍방울": 10182,
      "##사무": 10183,
      "걸려": 10184,
      "상징": 10185,
      "##진당": 10186,
      "애국": 10187,
      "태국": 10188,
      "시장에": 10189,
      "틀니": 10190,
      "##세기": 10191,
      "1등": 10192,
      "전력": 10193,
      "종북": 10194,
      "##트워크": 10195,
      "아무런": 10196,
      "프로그램을": 10197,
      "##공개": 10198,
      "중국인": 10199,
      "마케팅": 10200,
      "만들기": 10201,
      "성매매": 10202,
      "##르기": 10203,
      "프로젝트": 10204,
      "##le": 10205,
      "한거": 10206,
      "이지": 10207,
      "##사기": 10208,
      "##되어야": 10209,
      "##도와": 10210,
      "남한": 10211,
      "##류의": 10212,
      "후에": 10213,
      "누굴": 10214,
      "방안": 10215,
      "즉시": 10216,
      "##사태": 10217,
      "일본은": 10218,
      "일도": 10219,
      "역대급": 10220,
      "홍준표": 10221,
      "##총리": 10222,
      "##당하고": 10223,
      "##주지": 10224,
      "두번": 10225,
      "살기": 10226,
      "하라고": 10227,
      "##된다고": 10228,
      "문재앙이": 10229,
      "문을": 10230,
      "중요하다": 10231,
      "더듬어": 10232,
      "나갈": 10233,
      "센터": 10234,
      "##이프": 10235,
      "대표적인": 10236,
      "데리고": 10237,
      "입을": 10238,
      "##일로": 10239,
      "패션": 10240,
      "한두": 10241,
      "삭제": 10242,
      "##차는": 10243,
      "##입니까": 10244,
      "비서": 10245,
      "이웃": 10246,
      "##인트": 10247,
      "부활": 10248,
      "소름": 10249,
      "생겨": 10250,
      "아닌가요": 10251,
      "죽음": 10252,
      "했다는": 10253,
      "##아지": 10254,
      "##ic": 10255,
      "인간의": 10256,
      "블록체인": 10257,
      "혹은": 10258,
      "##회장": 10259,
      "하나로": 10260,
      "인기가": 10261,
      "수준의": 10262,
      "강하게": 10263,
      "평점이": 10264,
      "문정권": 10265,
      "유리": 10266,
      "괜찮은": 10267,
      "45": 10268,
      "적어도": 10269,
      "이것도": 10270,
      "일본의": 10271,
      "##공단": 10272,
      "아이들": 10273,
      "상호": 10274,
      "##혐의": 10275,
      "다를": 10276,
      "##세계": 10277,
      "2019": 10278,
      "존경": 10279,
      "새롭게": 10280,
      "해양": 10281,
      "연설": 10282,
      "좋다고": 10283,
      "팔아": 10284,
      "밝히": 10285,
      "만들어서": 10286,
      "인하": 10287,
      "비밀": 10288,
      "최대한": 10289,
      "미래를": 10290,
      "화가": 10291,
      "##하지도": 10292,
      "뿐이다": 10293,
      "##자원": 10294,
      "사용하는": 10295,
      "양성": 10296,
      "분들이": 10297,
      "작용": 10298,
      "좋아요": 10299,
      "분리": 10300,
      "미쳤": 10301,
      "부부": 10302,
      "##시의": 10303,
      "##드리": 10304,
      "금감": 10305,
      "##분의": 10306,
      "스트레스": 10307,
      "목소리가": 10308,
      "규정": 10309,
      "##장판": 10310,
      "##단계": 10311,
      "아이돌": 10312,
      "로봇": 10313,
      "호남": 10314,
      "##향을": 10315,
      "##우드": 10316,
      "퍼즐": 10317,
      "정부와": 10318,
      "끌어내": 10319,
      "믿을": 10320,
      "옹호": 10321,
      "물건": 10322,
      "삶의": 10323,
      "정체": 10324,
      "좋은데": 10325,
      "실험": 10326,
      "정기": 10327,
      "180": 10328,
      "38": 10329,
      "개인적으로": 10330,
      "단일": 10331,
      "실천": 10332,
      "둘다": 10333,
      "만날": 10334,
      "대부분의": 10335,
      "걸어": 10336,
      "놀라": 10337,
      "연령": 10338,
      "##힌다": 10339,
      "데려": 10340,
      "죄를": 10341,
      "세월호": 10342,
      "##졌고": 10343,
      "설정": 10344,
      "없냐": 10345,
      "##곳이": 10346,
      "##었네": 10347,
      "위원장이": 10348,
      "##해봐라": 10349,
      "##티브": 10350,
      "하지마라": 10351,
      "대처": 10352,
      "수천": 10353,
      "문자": 10354,
      "##할거": 10355,
      "##사실": 10356,
      "##나간": 10357,
      "##리티": 10358,
      "있어도": 10359,
      "삼성전자": 10360,
      "5G": 10361,
      "김종": 10362,
      "서버": 10363,
      "커뮤니": 10364,
      "##님들": 10365,
      "##업계": 10366,
      "평가를": 10367,
      "등에서": 10368,
      "상위": 10369,
      "집을": 10370,
      "##장도": 10371,
      "구글": 10372,
      "오늘은": 10373,
      "기독교": 10374,
      "호소": 10375,
      "진상": 10376,
      "북한에": 10377,
      "날이": 10378,
      "##그릇": 10379,
      "##역이": 10380,
      "##페이지": 10381,
      "htt": 10382,
      "가끔": 10383,
      "레이": 10384,
      "##열이": 10385,
      "##중인": 10386,
      "시작된": 10387,
      "출범": 10388,
      "##전거": 10389,
      "##아닌가": 10390,
      "7년": 10391,
      "KT": 10392,
      "운행": 10393,
      "떠오": 10394,
      "일주": 10395,
      "##재단": 10396,
      "국가의": 10397,
      "떨어져": 10398,
      "장사": 10399,
      "##지다": 10400,
      "##타령": 10401,
      "##하는것": 10402,
      "짓을": 10403,
      "경제적": 10404,
      "길이": 10405,
      "노예": 10406,
      "법적": 10407,
      "##수석": 10408,
      "바이오": 10409,
      "운운": 10410,
      "복잡": 10411,
      "예약": 10412,
      "참석했다": 10413,
      "계산": 10414,
      "영웅": 10415,
      "##세는": 10416,
      "만한": 10417,
      "하라": 10418,
      "당부": 10419,
      "어이가": 10420,
      "문정부": 10421,
      "죄가": 10422,
      "##공원": 10423,
      "##ㅉㅉ": 10424,
      "부모가": 10425,
      "현장에서": 10426,
      "보지": 10427,
      "짓거리": 10428,
      "의혹이": 10429,
      "박범": 10430,
      "백악": 10431,
      "재건축": 10432,
      "효과를": 10433,
      "오로지": 10434,
      "나오지": 10435,
      "설득": 10436,
      "수능": 10437,
      "##부터는": 10438,
      "부여": 10439,
      "받게": 10440,
      "##동맹": 10441,
      "여부를": 10442,
      "##좋아": 10443,
      "##연을": 10444,
      "매각": 10445,
      "##물에": 10446,
      "행사를": 10447,
      "##이라서": 10448,
      "봅니다": 10449,
      "진행된": 10450,
      "차단": 10451,
      "옮겨": 10452,
      "초대": 10453,
      "경험이": 10454,
      "뭐하는": 10455,
      "그렇다고": 10456,
      "사업이": 10457,
      "이영화": 10458,
      "아니지만": 10459,
      "국민에게": 10460,
      "청소": 10461,
      "##미애": 10462,
      "ㄷㄷ": 10463,
      "극복": 10464,
      "관계자": 10465,
      "정황": 10466,
      "말이다": 10467,
      "국기문란": 10468,
      "##서야": 10469,
      "어리": 10470,
      "##되자": 10471,
      "생각하면": 10472,
      "추가로": 10473,
      "##공동": 10474,
      "##겠니": 10475,
      "공짜": 10476,
      "암호화폐": 10477,
      "65": 10478,
      "자기들": 10479,
      "석열이": 10480,
      "구라": 10481,
      "그간": 10482,
      "정상이": 10483,
      "줄여": 10484,
      "재미있게": 10485,
      "진단": 10486,
      "##겠네요": 10487,
      "월드컵": 10488,
      "기생": 10489,
      "피부": 10490,
      "##저히": 10491,
      "세금을": 10492,
      "재벌": 10493,
      "회계": 10494,
      "공무": 10495,
      "대사": 10496,
      "만남": 10497,
      "##리면서": 10498,
      "빠진": 10499,
      "##공무원": 10500,
      "600": 10501,
      "보안": 10502,
      "행사가": 10503,
      "너같은": 10504,
      "##인도": 10505,
      "수립": 10506,
      "필리": 10507,
      "난다": 10508,
      "들은": 10509,
      "집안": 10510,
      "힘들어": 10511,
      "##십니다": 10512,
      "##집니다": 10513,
      "사람들의": 10514,
      "정비": 10515,
      "한화": 10516,
      "우울": 10517,
      "##용을": 10518,
      "그렇고": 10519,
      "펠로시": 10520,
      "마누라": 10521,
      "##했기": 10522,
      "모조리": 10523,
      "34": 10524,
      "법정": 10525,
      "공개된": 10526,
      "보자": 10527,
      "##님은": 10528,
      "##하지마라": 10529,
      "곳에": 10530,
      "낭비": 10531,
      "앞장": 10532,
      "대깨문": 10533,
      "어떠": 10534,
      "연습": 10535,
      "##프레": 10536,
      "기름": 10537,
      "##해질": 10538,
      "박수": 10539,
      "커지고": 10540,
      "살아라": 10541,
      "규모가": 10542,
      "기재": 10543,
      "의한": 10544,
      "##종의": 10545,
      "경찰의": 10546,
      "##니가": 10547,
      "##장관이": 10548,
      "아닐까": 10549,
      "천안": 10550,
      "브라질": 10551,
      "출마": 10552,
      "##라라": 10553,
      "##위원회가": 10554,
      "안다": 10555,
      "방문해": 10556,
      "무엇을": 10557,
      "우주": 10558,
      "가족이": 10559,
      "##여행": 10560,
      "##줘서": 10561,
      "러시아가": 10562,
      "그지": 10563,
      "난민": 10564,
      "못한다": 10565,
      "살려": 10566,
      "##는다고": 10567,
      "주민들이": 10568,
      "감방": 10569,
      "근처": 10570,
      "터키": 10571,
      "고작": 10572,
      "낫다": 10573,
      "민주당의": 10574,
      "150": 10575,
      "교도": 10576,
      "무한": 10577,
      "##패스": 10578,
      "기대한다": 10579,
      "IT": 10580,
      "시범": 10581,
      "체포": 10582,
      "맞추": 10583,
      "안에서": 10584,
      "##국을": 10585,
      "한가": 10586,
      "느낌이": 10587,
      "결제": 10588,
      "뒤에서": 10589,
      "비추": 10590,
      "##으라고": 10591,
      "정치권": 10592,
      "스타트": 10593,
      "무기징": 10594,
      "그에": 10595,
      "비속": 10596,
      "위로": 10597,
      "##∼1": 10598,
      "있었는데": 10599,
      "##하겠습니다": 10600,
      "미쳐": 10601,
      "반대로": 10602,
      "확장": 10603,
      "##하겠지": 10604,
      "제공하는": 10605,
      "원작": 10606,
      "##스런": 10607,
      "5천": 10608,
      "옆에": 10609,
      "##테크": 10610,
      "##았습니다": 10611,
      "##했어": 10612,
      "##아내": 10613,
      "사랑을": 10614,
      "99": 10615,
      "김은혜": 10616,
      "오염": 10617,
      "##해놓고": 10618,
      "##구먼": 10619,
      "##학력": 10620,
      "낮아": 10621,
      "달고": 10622,
      "죄명이": 10623,
      "탄생": 10624,
      "감독의": 10625,
      "드러났다": 10626,
      "혜택을": 10627,
      "##해지는": 10628,
      "##처벌": 10629,
      "자리에서": 10630,
      "한데": 10631,
      "##품이": 10632,
      "재미가": 10633,
      "##해지고": 10634,
      "##률을": 10635,
      "일으키": 10636,
      "박정희": 10637,
      "이내": 10638,
      "기자가": 10639,
      "들었다": 10640,
      "면서": 10641,
      "환영": 10642,
      "##재판": 10643,
      "사서": 10644,
      "권력을": 10645,
      "참석해": 10646,
      "육성": 10647,
      "일부러": 10648,
      "악화": 10649,
      "##때문": 10650,
      "##러워": 10651,
      "말만": 10652,
      "맞게": 10653,
      "이승": 10654,
      "##조원": 10655,
      "미국에서": 10656,
      "##내내": 10657,
      "강요": 10658,
      "들어간": 10659,
      "시민들이": 10660,
      "있으나": 10661,
      "방어": 10662,
      "한국과": 10663,
      "인간은": 10664,
      "디자": 10665,
      "바라는": 10666,
      "최우": 10667,
      "걸쳐": 10668,
      "뭐라고": 10669,
      "보게": 10670,
      "언론에": 10671,
      "연예인": 10672,
      "##지자": 10673,
      "##수에": 10674,
      "이끌어": 10675,
      "몰라도": 10676,
      "시군": 10677,
      "자치": 10678,
      "고등학교": 10679,
      "충성": 10680,
      "성적": 10681,
      "##한지": 10682,
      "이행": 10683,
      "##후보": 10684,
      "담은": 10685,
      "발악": 10686,
      "배려": 10687,
      "시간에": 10688,
      "인민": 10689,
      "입에": 10690,
      "교육부": 10691,
      "이어질": 10692,
      "간담": 10693,
      "주의": 10694,
      "기도": 10695,
      "내다": 10696,
      "언젠": 10697,
      "호구": 10698,
      "##리라": 10699,
      "CC": 10700,
      "메이": 10701,
      "치열": 10702,
      "나라꼴": 10703,
      "부채": 10704,
      "시나": 10705,
      "##교회": 10706,
      "##가격": 10707,
      "대학생": 10708,
      "4개": 10709,
      "왜냐": 10710,
      "##만도": 10711,
      "##평등": 10712,
      "필리핀": 10713,
      "##물고": 10714,
      "##민주주의": 10715,
      "모으": 10716,
      "테러": 10717,
      "한강": 10718,
      "##시로": 10719,
      "출입": 10720,
      "##에겐": 10721,
      "안될": 10722,
[...]
