[PAD]
[UNK]
[CLS]
[SEP]
[MASK]
!
#
$
%
(
)
*
,
.
/
0
1
2
3
4
5
6
7
8
9
?
@
A
B
C
D
E
F
G
H
I
J
K
L
M
N
O
P
Q
R
S
T
U
V
W
X
Y
Z
a
b
c
d
e
f
g
h
i
j
k
l
m
n
o
p
q
r
s
t
u
v
w
x
y
z
~
·
‼
⁉
⃣
™
↗
↘
∼
▪
▶
◀
◻
◾
☎
☠
☺
♀
♂
♠
♥
♨
⚠
⚡
⚰
⛔
✅
✈
✊
✋
✌
✔
✖
✨
❄
❌
❓
❕
❗
❣
❤
➕
➡
⭐
⭕
〰
ㄱ
ㄲ
ㄳ
ㄴ
ㄵ
ㄷ
ㄸ
ㄹ
ㄻ
ㅁ
ㅂ
ㅃ
ㅄ
ㅅ
ㅆ
ㅇ
ㅈ
ㅉ
ㅊ
ㅋ
ㅌ
ㅍ
ㅎ
ㅏ
ㅐ
ㅑ
ㅒ
ㅓ
ㅔ
ㅕ
ㅖ
ㅗ
ㅘ
ㅛ
ㅜ
ㅝ
ㅟ
ㅠ
ㅡ
ㅢ
ㅣ
ㆍ
㈔
㈜
㎍
㎎
㎏
㎒
㎓
㎖
㎘
㎚
㎛
㎜
㎝
㎞
㎡
㎢
㎥
㎾
㎿
㏄
㏊
一
三
上
下
不
世
中
主
乃
之
习
了
事
二
亡
京
人
仁
代
令
以
作
你
信
倍
元
先
光
內
全
八
公
共
冥
出
前
力
化
北
十
南
反
口
古
台
史
合
同
名
君
命
和
四
国
國
圖
在
地
城
報
場
多
夜
夢
大
天
女
奴
好
子
孝
孟
學
安
官
定
害
家
富
寒
射
對
小
尹
展
山
島
川
州
己
市
帶
平
年
張
强
後
德
心
必
志
性
恨
情
惡
意
愛
成
我
戰
所
手
持
支
政
故
教
文
新
日
明
春
是
時
晋
曰
最
會
月
有
朝
本
朴
李
東
林
業
樂
檢
歌
正
死
殃
毅
母
民
氣
水
氷
永
江
河
治
法
洞
洪
流
海
淸
滅
漢
灣
災
無
照
爲
父
犬
狗
王
現
球
生
産
用
田
由
甲
男
病
發
白
百
的
相
省
知
石
社
神
福
私
種
空
立
節
結
罪
美
義
習
老
者
聖
脫
自
臺
與
舊
舟
色
花
英
茶
華
萬
號
蟲
行
西
要
親
記
詩
警
賢
賣
路
身
軍
近
这
道
郞
都
酒
野
金
錄
長
門
门
靑
非
面
韓
頭
風
飛
馬
高
黨
꙼
가
각
간
갇
갈
갉
감
갑
값
갓
갔
강
갖
갗
갘
같
갚
갛
개
객
갠
갤
갬
갭
갯
갰
갱
갸
갹
갼
걀
걍
걑
걔
걘
거
걱
건
걷
걸
검
겁
것
겄
겅
겆
겉
겊
겋
게
겍
겐
겔
겜
겝
겟
겠
겡
겧
겨
격
겪
견
결
겸
겹
겻
겼
경
곀
곁
계
곈
곗
곘
고
곡
곤
곧
골
곪
곯
곰
곱
곳
공
곶
곸
과
곽
관
괄
괌
괏
광
괘
괜
괞
괭
괴
괸
굉
교
굔
굘
굣
굥
구
국
굯
군
굳
굴
굵
굶
굼
굽
굿
궁
궂
궄
궈
궉
권
궐
궜
궤
궨
귀
귄
귈
귐
귓
규
귝
균
귤
그
극
근
귿
글
긁
금
급
긋
긍
긑
긔
긕
기
긱
긴
길
김
깁
깃
깄
깅
깆
깉
깊
까
깍
깎
깐
깔
깜
깝
깞
깟
깠
깡
깤
깥
깨
깬
깰
깸
깻
깼
깽
꺄
꺅
꺠
꺨
꺼
꺽
꺾
껀
껄
껌
껍
껏
껐
껑
께
껜
껨
껫
껭
껴
꼇
꼈
꼐
꼬
꼭
꼰
꼴
꼼
꼽
꼿
꽁
꽂
꽃
꽈
꽉
꽌
꽐
꽝
꽤
꽥
꽹
꾀
꾱
꾸
꾹
꾼
꿀
꿇
꿈
꿉
꿋
꿍
꿎
꿏
꿔
꿘
꿜
꿧
꿨
꿩
꿰
뀌
뀐
뀔
뀜
뀝
뀨
끄
끈
끊
끋
끌
끍
끓
끔
끕
끗
끙
끝
끠
끼
끽
낀
낄
낌
낍
낑
나
낙
낚
난
낟
날
낡
남
납
낫
났
낭
낮
낯
낰
낱
낳
내
낵
낸
낼
냄
냅
냇
냈
냉
냐
냑
냔
냘
냠
냣
냥
냨
냬
너
넉
넋
넌
널
넒
넓
넘
넙
넛
넜
넝
넣
네
넥
넨
넬
넴
넵
넷
넸
넹
넼
녀
녁
년
녈
념
녓
녔
녕
녘
녜
노
녹
논
놀
놈
놉
놋
농
놐
높
놓
놔
놧
놨
놯
뇌
뇨
뇬
뇰
뇸
뇽
누
눅
눈
눌
눔
눕
눗
눙
눜
눟
눠
눴
눼
뉘
뉜
뉠
뉨
뉩
뉴
뉸
늄
늅
늉
느
늑
는
늕
늗
늘
늙
늠
늣
능
늦
늨
늪
늫
늬
니
닉
닌
닏
닐
님
닙
닛
닜
닝
닠
닢
다
닥
닦
단
닫
달
닭
닮
닳
담
답
닷
당
닺
닻
닼
닿
대
댁
댄
댈
댐
댑
댓
댔
댕
댘
댜
댠
댱
댸
더
덕
던
덜
덟
덤
덥
덧
덩
덪
덫
덮
덯
데
덱
덴
델
뎀
뎁
뎃
뎄
뎅
뎈
뎌
뎐
뎠
뎨
도
독
돈
돋
돌
돔
돕
돗
동
돚
돛
돝
돟
돠
돤
돨
돼
됀
됄
됌
됍
됏
됐
되
된
될
됨
됩
됫
됬
됭
됴
둉
두
둑
둔
둘
둠
둡
둣
둥
둬
둿
뒀
뒈
뒤
뒷
뒹
듀
듁
듄
듈
듐
듕
드
득
든
듣
들
듦
듬
듭
듯
등
듵
듷
듸
디
딕
딘
딛
딜
딤
딥
딧
딨
딩
딪
딫
딮
따
딱
딲
딴
딸
땀
땁
땃
땄
땅
땋
때
땍
땐
땔
땜
땟
땠
땡
땨
떄
떈
떔
떙
떠
떡
떤
떨
떫
떰
떱
떳
떴
떵
떻
떼
떽
뗀
뗄
뗌
뗏
뗐
뗑
뗘
뗴
또
똑
똔
똘
똠
똥
똬
똭
뙈
뙤
뚕
뚜
뚝
뚠
뚤
뚫
뚱
뛔
뛰
뛴
뛸
뜀
뜁
뜨
뜩
뜬
뜯
뜰
뜸
뜹
뜻
뜽
띁
띄
띈
띌
띔
띕
띠
띡
띤
띨
띵
라
락
란
랄
람
랍
랏
랐
랑
랔
랖
랗
래
랙
랜
랠
램
랩
랫
랬
랭
랰
랴
략
랸
랼
럄
량
럐
러
럭
런
럴
럼
럽
럿
렀
렁
렇
레
렉
렌
렐
렘
렙
렛
렜
렝
려
력
련
렬
렴
렵
렷
렸
령
렿
례
롄
로
록
론
롤
롬
롭
롯
롱
롷
롸
롹
뢀
뢔
뢰
료
룐
룔
룡
루
룩
룬
룰
룸
룹
룻
룽
뤄
뤈
뤌
뤘
뤠
뤼
뤽
류
륙
륜
률
륨
륭
르
륵
른
를
름
릅
릇
릉
릎
릏
릐
리
릭
린
릴
림
립
릿
맀
링
맄
마
막
만
많
맏
말
맑
맗
맘
맙
맛
맜
망
맞
맟
맡
맣
매
맥
맨
맬
맴
맵
맷
맸
맹
맺
먀
먄
먈
먕
머
먹
먼
멀
멈
멉
멊
멋
멌
멍
멎
멏
멓
메
멕
멘
멜
멤
멥
멧
멨
멩
며
멱
면
멸
몀
몃
몄
명
몆
몇
몈
몌
모
목
몪
몫
몬
몰
몸
몹
못
몽
몾
뫄
뫼
묘
묙
묜
묠
묫
묭
무
묵
묶
문
묻
물
묽
뭄
뭅
뭇
뭉
뭍
뭏
뭐
뭔
뭘
뭡
뭣
뭥
뭬
뮈
뮌
뮐
뮛
뮤
뮨
뮬
뮴
므
믁
믄
믈
믐
믓
믕
믜
미
믹
민
믽
믾
믿
밀
밈
밉
밋
밌
밍
밎
및
밑
바
박
밖
반
받
발
밝
밞
밟
밣
밤
밥
밦
밧
밨
방
밬
밭
배
백
밴
밷
밸
뱀
뱁
뱃
뱅
뱉
뱌
뱍
뱐
뱔
뱡
버
벅
번
벋
벌
범
법
벗
벙
벚
베
벡
벤
벧
벨
벳
벵
벹
벼
벽
변
별
볌
볍
볏
볐
병
볕
볜
보
복
볶
본
볼
봄
봅
봇
봉
봐
봣
봤
봥
봨
봬
뵈
뵌
뵐
뵙
뵜
뵤
뵨
뵹
부
북
분
붇
불
붉
붐
붑
붓
붕
붙
뷁
뷔
뷰
뷱
뷴
뷸
븅
브
븍
븐
블
븡
븥
븨
비
빅
빈
빋
빌
빔
빕
빗
빙
빚
빛
빠
빡
빢
빤
빨
빰
빱
빳
빴
빵
빻
빼
빽
뺀
뺃
뺄
뺌
뺏
뺐
뺑
뺘
뺠
뺨
뺴
뻇
뻐
뻑
뻔
뻗
뻘
뻠
뻣
뻤
뻥
뻬
뻰
뼈
뼉
뼘
뼛
뼝
뽀
뽁
뽂
뽄
뽈
뽐
뽑
뽕
뽜
뽤
뾰
뿅
뿌
뿍
뿐
뿔
뿜
뿟
뿡
쁘
쁜
쁠
쁨
쁩
삐
삑
삔
삘
삣
삥
사
삭
삯
산
살
삵
삶
삻
삼
삽
삿
샀
상
샅
샆
새
색
샊
샌
샏
샐
샘
샙
샛
샜
생
샠
샤
샥
샨
샬
샴
샵
샷
샹
샾
섀
섕
서
석
섞
선
섣
설
섬
섭
섯
섰
성
섴
섶
세
섹
센
셀
셈
셉
셋
셌
셍
셐
셑
셔
셕
션
셜
셤
셧
셨
셩
셰
셱
셴
셸
소
속
솎
손
솓
솔
솜
솝
솟
송
솤
솥
솨
솽
쇄
쇠
쇳
쇼
쇽
숀
숄
숍
숏
숑
수
숙
순
숟
술
숨
숩
숫
숭
숯
숱
숲
숴
숸
쉅
쉈
쉐
쉑
쉔
쉘
쉣
쉨
쉬
쉭
쉰
쉴
쉼
쉽
쉿
슈
슉
슌
슐
슘
슙
슛
슝
스
슥
슨
슬
슭
슴
습
슷
승
슼
싀
싄
싑
시
식
신
싢
싣
실
싨
싫
심
십
싯
싱
싴
싶
싷
싸
싹
싼
쌀
쌈
쌉
쌋
쌌
쌍
쌓
쌔
쌕
쌘
쌤
쌨
쌩
쌰
썅
썌
써
썩
썪
썬
썰
썸
썹
썻
썼
썽
쎀
쎄
쎅
쎈
쎌
쎔
쎠
쎼
쏘
쏙
쏜
쏟
쏠
쏨
쏩
쏫
쏭
쏱
쏴
쏵
쏼
쐇
쐈
쐐
쐬
쑈
쑤
쑥
쑨
쑬
쑹
쒀
쒜
쒯
쒸
쓉
쓔
쓰
쓱
쓴
쓸
씀
씁
씅
씌
씐
씨
씩
씬
씰
씸
씹
씻
씽
앂
아
악
안
앉
않
알
앍
앎
앓
암
압
앖
앗
았
앙
앚
앜
앞
앟
애
액
앤
앨
앰
앱
앳
앴
앵
야
약
얀
얄
얇
얌
얍
얏
얐
양
얔
얕
얗
얘
얜
어
억
얷
언
얹
얺
얻
얼
얽
엄
업
없
엇
었
엉
엊
엌
엎
엏
에
엑
엔
엘
엠
엡
엣
엤
엥
엨
여
역
엮
연
열
엷
염
엽
엾
엿
였
영
옄
옅
옆
옇
예
옌
옐
옘
옛
옜
오
옥
온
올
옭
옮
옳
옴
옵
옶
옷
옹
옻
옼
와
왁
완
왈
왐
왑
왓
왔
왕
왘
왚
왜
왠
왤
왱
외
왼
욀
욌
욍
요
욕
욘
욜
욤
욥
욧
용
욬
욯
우
욱
운
울
욹
움
웁
웃
웅
워
웍
원
월
웜
웟
웠
웡
웤
웨
웩
웬
웰
웸
웹
웽
위
윅
윈
윌
윔
윕
윗
윘
윙
유
육
윤
율
윰
윳
융
윷
으
윽
윾
은
읃
을
읇
읊
음
읍
읎
읏
응
읔
읕
읗
의
읜
읭
이
익
인
읹
읺
읻
일
읽
잃
임
입
잆
잇
있
잉
잊
잌
잎
잏
자
작
잔
잖
잗
잘
잠
잡
잣
잤
장
잦
잪
잫
재
잭
잰
잴
잼
잽
잿
쟀
쟁
쟈
쟉
쟌
쟎
쟐
쟝
쟤
쟨
저
적
전
절
젊
젋
젏
점
접
젓
젔
정
젖
젛
제
젝
젠
젤
젬
젭
젯
젱
져
젹
젼
졀
졉
졋
졌
졍
졎
졓
졔
조
족
존
졷
졸
좀
좁
좃
좄
종
좆
좇
좉
좋
좌
좍
좔
좝
좡
좨
죄
죈
죌
죗
죙
죠
죤
죨
죳
죵
주
죽
준
줄
줌
줍
줏
중
줒
줗
줘
줜
줠
줫
줬
줭
줮
줴
쥐
쥑
쥔
쥘
쥤
쥥
쥬
쥭
쥰
쥴
즁
즈
즉
즌
즐
즘
즙
즛
증
즤
즹
지
직
진
짆
짇
질
짊
짐
집
짒
짓
징
짖
짘
짙
짚
짜
짝
짠
짢
짤
짦
짧
짬
짭
짯
짰
짱
짲
짴
째
짹
짼
쨈
쨉
쨋
쨌
쨍
쨔
쨩
쨰
쩌
쩍
쩐
쩔
쩜
쩝
쩡
쩨
쪄
쪘
쪙
쪼
쪽
쫀
쫄
쫌
쫍
쫏
쫑
쫒
쫓
쫗
쫘
쫙
쫩
쫭
쬐
쬬
쬭
쭈
쭉
쭌
쭐
쭘
쭙
쭝
쭤
쭵
쮜
쮸
쯔
쯤
쯥
쯧
쯩
쯪
찆
찌
찍
찎
찐
찓
찔
찜
찝
찟
찠
찡
찢
찣
찧
차
착
찬
찮
찰
참
찹
찻
찼
창
찾
찿
채
책
챈
챌
챔
챕
챗
챘
챙
챠
챡
챤
챦
챨
처
척
천
철
첨
첩
첫
첬
청
첮
체
첵
첸
첼
쳇
쳉
쳐
쳔
쳣
쳤
쳥
쳬
초
촉
촌
촐
촘
촙
촛
총
촞
촟
촣
촤
촥
촨
촬
촵
최
쵝
쵸
추
축
춘
출
춤
춥
춧
충
춰
췄
췌
취
췬
츄
츈
츌
츙
츠
측
츤
츨
츰
츳
층
츼
칀
치
칙
친
칠
칡
침
칩
칫
칭
칮
카
칵
칸
칼
캄
캅
캇
캉
캍
캐
캔
캘
캠
캡
캣
캤
캥
캬
캭
컄
커
컥
컨
컫
컬
컴
컵
컷
컸
컹
케
켁
켄
켈
켐
켑
켓
켔
켕
켜
켠
켤
켬
켯
켰
켸
코
콕
콘
콜
콤
콥
콧
콩
콰
콱
콴
콸
쾅
쾌
쾡
쾨
쾰
쿄
쿙
쿠
쿡
쿤
쿨
쿰
쿱
쿳
쿵
쿸
쿼
퀀
퀄
퀘
퀴
퀵
퀸
퀼
큐
큘
크
큭
큰
클
큼
큽
킁
킄
킅
킈
키
킥
킨
킬
킴
킵
킷
킹
킼
타
탁
탄
탈
탉
탐
탑
탓
탔
탕
태
택
탠
탤
탬
탭
탯
탰
탱
탸
터
턱
턴
털
텀
텁
텃
텄
텅
텋
테
텍
텐
텔
템
텝
텟
텡
텨
텼
톄
톈
토
톡
톤
톨
톰
톱
톳
통
톼
퇘
퇫
퇴
툇
툥
투
툭
툰
툴
툼
툽
퉁
퉈
퉜
퉤
퉷
튀
튄
튈
튐
튓
튕
튜
튠
튤
튬
튭
트
특
튼
튿
틀
틈
틉
틋
틍
틔
티
틱
틴
틸
팀
팁
팅
파
팍
팎
판
팔
팜
팝
팟
팠
팡
팥
패
팩
팬
팰
팸
팹
팻
팼
팽
퍄
퍈
퍠
퍼
퍽
펀
펄
펌
펍
펏
펐
펑
페
펙
펜
펠
펨
펩
펫
펭
펴
편
펼
폄
폇
폈
평
폐
포
폭
폰
폴
폼
폿
퐁
퐈
퐉
퐝
표
푠
푯
푸
푹
푼
풀
품
풉
풋
풍
퓌
퓨
퓰
퓸
프
픈
플
픔
픕
피
픽
핀
필
핌
핍
핏
핑
하
학
한
핟
할
핡
핥
핧
함
합
핫
핬
항
핮
핰
핱
핲
핳
해
핵
핸
핼
햄
햅
햇
했
행
햌
햏
햐
햑
햔
햘
햝
햠
햤
향
햬
헀
허
헉
헌
헐
험
헙
헛
헝
헠
헣
헤
헥
헨
헬
헴
헵
헷
헸
헹
헿
혀
혁
현
혈
혐
협
혓
혔
형
혜
호
혹
혼
홀
홈
홉
홋
홍
홑
홓
화
확
환
활
홥
홧
황
홰
홱
횃
회
획
횐
횔
횟
횡
효
횽
후
훅
훈
훌
훑
훔
훗
훙
훠
훤
훨
훼
휀
휑
휘
휙
휜
휠
휩
휴
휸
휼
흉
흐
흑
흔
흘
흙
흠
흡
흣
흥
흩
흫
희
흰
히
힉
힌
힐
힘
힙
힛
힝
힣
️
🅱
🆚
🇦
🇨
🇯
🇰
🇲
🇳
🇵
🇷
🇸
🇹
🇺
🇼
🌈
🌐
🌚
🌟
🌶
🌸
🌹
🌺
🌻
🍀
🍆
🍉
🍎
🍏
🍒
🍞
🍣
🍺
🍼
🍾
🎈
🎉
🎗
🎯
🎵
🎶
🏻
🏼
🏽
🏿
🐀
🐁
🐂
🐄
🐈
🐍
🐎
🐑
🐒
🐔
🐕
🐖
🐗
🐦
🐩
🐭
🐮
🐵
🐶
🐷
🐽
👀
👁
👄
👅
👈
👉
👊
👋
👌
👍
👎
👏
👟
👤
👥
👨
👮
👹
👺
👿
💀
💉
💋
💐
💓
💕
💖
💗
💘
💙
💚
💛
💜
💞
💢
💣
💥
💦
💨
💩
💪
💫
💯
💰
💳
📌
📢
📣
🔑
🔔
🔞
🔥
🔨
🔪
🔫
🔴
🔵
🔹
🕊
🕯
🖕
🖤
🗑
🗽
😀
😁
😂
😃
😄
😅
😆
😇
😈
😉
😊
😋
😌
😍
😎
😏
😐
😑
😒
😓
😔
😖
😘
😚
😛
😜
😝
😠
😡
😢
😣
😤
😥
😨
😩
😪
😫
😬
😭
😮
😰
😱
😲
😴
😵
😸
🙀
🙂
🙃
🙄
🙅
🙆
🙈
🙉
🙋
🙌
🙍
🙏
🚀
🚗
🚨
🚩
🚪
🚫
🚬
🛑
🛢
🟥
🟰
🤐
🤑
🤔
🤗
🤝
🤟
🤡
🤢
🤣
🤥
🤦
🤧
🤨
🤩
🤪
🤫
🤬
🤭
🤮
🤯
🤷
🤺
🥨
🥩
🥰
🥲
🥳
🥵
🥶
🥷
🥸
🥺
🦀
🦅
🦆
🦇
🦍
🦜
🦠
🦧
🦮
🦲
🦴
🦶
🦸
🦺
🧟
🧠
🧡
🧨
🩸
🪓
🪰
🪳
🫰
##사
##대
##국
##들
##은
##미
##바
##다
##열
##차
##싼
##택
##시
##가
##많
##아
##졌
##어
##요
##할
##거
##지
##만
##번
##호
##판
##을
##물
##터
##널
##니
##드
##에
##도
##하
##며
##주
##당
##잡
##으
##면
##의
##안
##취
##라
##는
##온
##1
##개
##로
##경
##종
##식
##한
##소
##리
##재
##묭
##과
##급
##쓰
##레
##기
##영
##화
##B
##C
##해
##설
##위
##원
##림
##이
##나
##까
##일
##때
##새
##견
##관
##회
##명
##보
##험
##검
##율
##ㅜ
##침
##돌
##없
##전
##R
##P
##G
##짐
##력
##석
##였
##봐
##딴
##않
##냐
##똥
##략
##고
##근
##혜
##통
##령
##탄
##핵
##범
##p
##좀
##질
##수
##록
##데
##케
##센
##방
##서
##와
##신
##뭐
##우
##중
##성
##진
##님
##점
##정
##환
##야
##올
##게
##임
##평
##축
##키
##공
##준
##상
##자
##를
##랑
##심
##밖
##ㅋ
##되
##세
##런
##비
##르
##끝
##난
##껍
##용
##건
##선
##칼
##렛
##슨
##0
##인
##내
##켜
##렬
##것
##처
##럼
##규
##a
##k
##간
##던
##법
##파
##업
##치
##울
##듯
##월
##버
##교
##습
##무
##살
##좋
##앗
##쩔
##그
##줄
##타
##산
##부
##락
##날
##장
##네
##청
##먹
##렴
##겠
##노
##작
##제
##속
##문
##구
##체
##말
##유
##피
##남
##권
##흠
##감
##픽
##표
##팀
##렇
##됐
##린
##캍
##쿡
##배
##7
##6
##4
##득
##금
##액
##적
##불
##량
##닝
##동
##여
##있
##었
##함
##학
##오
##십
##두
##프
##려
##출
##입
##e
##n
##d
##o
##l
##항
##곡
##모
##져
##책
##행
##끔
##큰
##든
##닌
##룩
##람
##역
##즌
##듀
##션
##분
##쉽
##실
##너
##써
##았
##뉘
##ㅠ
##계
##걸
##콘
##벌
##백
##증
##완
##료
##측
##t
##혼
##접
##럭
##스
##놈
##즐
##익
##폭
##티
##팜
##발
##돼
##캔
##변
##흥
##음
##민
##란
##복
##투
##론
##럽
##죄
##패
##태
##했
##군
##쳤
##믄
##됨
##씩
##따
##뿐
##마
##냥
##같
##육
##생
##각
##참
##넘
##얼
##짜
##순
##빙
##최
##악
##m
##절
##2
##능
##렷
##껏
##5
##억
##약
##언
##답
##챙
##겼
##색
##희
##s
##웨
##브
##박
##러
##워
##창
##운
##혁
##밥
##쟁
##후
##베
##🤮
##햇
##먼
##블
##싱
##녀
##옥
##뚱
##랐
##∼
##초
##형
##찰
##테
##달
##직
##포
##광
##더
##댄
##토
##향
##맞
##뒤
##겜
##집
##쒸
##웠
##봇
##병
##줬
##딱
##꼴
##쳐
##폰
##갑
##떠
##저
##녁
##븐
##누
##죽
##반
##ㅡ
##트
##연
##된
##갱
##괜
##춘
##즈
##웅
##크
##북
##송
##름
##조
##못
##단
##둘
##L
##꾼
##슥
##3
##엄
##ㆍ
##술
##퉁
##극
##콜
##목
##겻
##삐
##팔
##읽
##몾
##귀
##곤
##ㅇ
##독
##8
##㎞
##잼
##겝
##봣
##먄
##딸
##년
##웃
##쪽
##푸
##났
##픈
##편
##겟
##추
##몽
##알
##망
##착
##T
##V
##쏘
##쿠
##현
##립
##탈
##확
##등
##킨
##매
##엽
##꺼
##슬
##족
##힘
##획
##셔
##될
##류
##ㅎ
##텐
##싸
##움
##승
##황
##슷
##볼
##붕
##괴
##쯤
##N
##A
##깐
##쓸
##굥
##낭
##특
##느
##빠
##채
##활
##낙
##총
##강
##켓
##찬
##양
##글
##플
##품
##몰
##땀
##왈
##댓
##낚
##봤
##섭
##릴
##쩌
##겁
##졸
##츄
##외
##끌
##롱
##㎜
##댕
##넣
##😡
##쎄
##받
##땅
##밸
##즘
##뎌
##쫌
##갖
##찍
##셈
##닭
##핑
##굴
##빻
##짓
##숙
##랭
##봉
##끼
##풍
##애
##삶
##둑
##톄
##징
##9
##밝
##힌
##톤
##첩
##홀
##믹
##련
##큼
##슴
##앞
##씨
##디
##카
##융
##ㄱ
##셨
##잖
##칠
##i
##합
##른
##곳
##격
##죠
##길
##혀
##팬
##천
##랙
##앙
##코
##딤
##루
##칸
##읍
##곧
##㎖
##낼
##떤
##컬
##쿄
##싶
##훈
##념
##및
##갈
##놀
##늘
##예
##왓
##맛
##춰
##b
##u
##z
##므
##덜
##섬
##친
##촌
##r
##왘
##ㅅ
##ㄲ
##래
##ㅔ
##결
##ㅉ
##떡
##긋
##왕
##릉
##팥
##틸
##땋
##값
##c
##헌
##팅
##례
##랩
##됬
##존
##꼬
##닥
##맨
##꾸
##머
##컷
##층
##I
##S
##O
##멍
##담
##홍
##둥
##궁
##궐
##눠
##햏
##X
##솔
##손
##챠
##옷
##빈
##놨
##맹
##엔
##뷰
##덱
##팩
##커
##춥
##겨
##얘
##균
##충
##본
##뜯
##넹
##ㅏ
##뒀
##봄
##왜
##빨
##퍼
##페
##g
##졋
##틴
##👺
##잃
##컵
##객
##렸
##왔
##♥
##멋
##잇
##혹
##랍
##텔
##둔
##쾅
##뻔
##덕
##줘
##허
##탱
##눈
##쩝
##뭉
##께
##ㅈ
##탑
##깔
##볐
##클
##긴
##묵
##앴
##쇄
##륜
##쌓
##낀
##젠
##땐
##뷔
##떨
##찌
##쁜
##늠
##앜
##퉤
##째
##잘
##늬
##냈
##쳣
##쓴
##M
##룹
##쉐
##믿
##몬
##h
##릿
##휘
##㎝
##럿
##퀴
##윤
##칙
##막
##힙
##압
##협
##딩
##뜩
##팎
##껴
##휴
##v
##붙
##ㄹ
##철
##H
##E
##흡
##댈
##뉴
##x
##또
##낸
##룡
##딥
##D
##롤
##숨
##렀
##놓
##닫
##🐕
##🐷
##㎡
##뱅
##깝
##W
##툭
##메
##쌍
##렁
##멸
##밀
##폐
##곘
##퍽
##논
##쿨
##f
##뜨
##낯
##쌔
##별
##벽
##쟝
##쾌
##큐
##긍
##히
##톡
##빌
##퇴
##끄
##혐
##쇼
##돈
##엇
##탁
##윈
##잠
##슈
##델
##꿔
##옵
##욕
##옴
##률
##랬
##릭
##쯧
##촉
##찮
##칫
##쉬
##빽
##😄
##😁
##😆
##🤣
##필
##댁
##랜
##쁠
##젝
##륙
##헬
##썩
##멘
##폼
##뢰
##밭
##즙
##꽃
##K
##겄
##룬
##ㅓ
##좌
##핮
##닉
##찾
##륭
##졍
##댜
##롯
##척
##톱
##램
##즉
##졔
##맘
##눔
##렙
##F
##잤
##헤
##짝
##👍
##🍒
##켰
##햄
##샘
##낌
##밤
##씬
##킷
##짱
##엉
##킴
##덤
##갔
##죈
##콤
##걱
##킬
##엎
##굼
##쌀
##씀
##퍄
##뽑
##텃
##괄
##빚
##떻
##댐
##밌
##퓌
##걷
##농
##셜
##뒈
##쑈
##욤
##잎
##겸
##갓
##팁
##땜
##찻
##쥬
##뭇
##탕
##뇌
##젖
##놧
##뽈
##멀
##낳
##응
##녹
##갯
##랴
##냄
##곰
##욱
##줫
##뿌
##랗
##👈
##벨
##먀
##ㅁ
##뻥
##쪄
##ㄴ
##얻
##깜
##효
##닼
##킼
##돗
##뮤
##👏
##💐
##㎢
##팰
##똑
##빼
##🇳
##🇨
##혔
##싀
##낮
##첨
##뭘
##륨
##암
##벤
##김
##틱
##챌
##잔
##떵
##맵
##옆
##띄
##킹
##럄
##높
##벙
##탓
##랰
##ㅂ
##씁
##🔥
##ㄳ
##흐
##씹
##컸
##쩨
##털
##뀌
##뽕
##쎈
##겐
##쥐
##륵
##릇
##렌
##돔
##얄
##젤
##꽁
##흉
##w
##납
##껀
##퓨
##춤
##봅
##쑤
##삑
##붓
##츠
##뇨
##껑
##🥰
##펙
##껄
##렵
##벗
##y
##됩
##홈
##좍
##엿
##캄
##덩
##잉
##빵
##얇
##💙
##쨍
##윙
##헛
##ㅣ
##젓
##끙
##섹
##염
##쩍
##흘
##맙
##냨
##엠
##줍
##짤
##앵
##튕
##콩
##롬
##닷
##컴
##짖
##몇
##끗
##떄
##j
##톨
##찔
##닦
##밍
##샌
##뻘
##힐
##눌
##ㅝ
##탠
##싫
##밋
##삘
##앨
##롭
##펜
##팽
##캐
##턴
##낫
##짠
##ㄷ
##듬
##윌
##찟
##렉
##럴
##놔
##돋
##깡
##컨
##슝
##👉
##윗
##죵
##ㅆ
##랫
##듣
##쟎
##멤
##떼
##뽄
##펀
##골
##쇠
##🇰
##🇷
##✌
##️
##냔
##갇
##궈
##엑
##쎅
##삼
##땨
##샀
##뎅
##챔
##㏄
##삥
##핏
##뤄
##뚝
##톰
##🙏
##얔
##링
##잣
##둬
##묘
##U
##풀
##밑
##녕
##벡
##랸
##듭
##숫
##🙈
##섯
##촬
##늙
##웬
##숭
##빛
##칭
##핫
##찐
##벼
##늄
##텍
##뺘
##튜
##푼
##랄
##괘
##Y
##멩
##덴
##겪
##냉
##촥
##쿵
##뚜
##ㅗ
##찜
##첵
##갚
##멜
##겹
##몸
##썼
##튬
##깨
##쁘
##켐
##숴
##엣
##걔
##앤
##뱐
##셉
##q
##잊
##뼈
##팝
##템
##틀
##룸
##쩡
##Z
##뵈
##훌
##ㅑ
##🥵
##🤢
##폴
##앉
##욜
##잏
##깠
##샤
##쭝
##㎍
##꿰
##엘
##삭
##훨
##떳
##뽁
##꿉
##넼
##깼
##뤘
##퀀
##갠
##옹
##탔
##컥
##혈
##뜻
##텨
##윽
##뛰
##짘
##뻗
##🤔
##뻐
##줌
##둡
##핍
##셋
##땡
##셰
##렘
##닐
##젼
##곶
##쭐
##켸
##빴
##캅
##헝
##쾡
##㈜
##툼
##텝
##핬
##춧
##숩
##봬
##펩
##꾀
##쥴
##핀
##꼰
##팡
##튀
##맥
##㎒
##샹
##맷
##맺
##늨
##씽
##🐶
##킵
##힝
##씌
##팟
##❓
##똘
##큽
##횡
##빗
##쁨
##띠
##뿔
##뿅
##캣
##갸
##듈
##끓
##냅
##둿
##꽂
##탐
##묻
##웁
##딘
##랖
##넓
##뱀
##셐
##힣
##촛
##탤
##됏
##삿
##펴
##샷
##켄
##숲
##첸
##댔
##혓
##뭔
##됫
##멧
##흔
##꼭
##읗
##펠
##쏭
##넷
##ㅊ
##꼼
##챦
##뼛
##엌
##됀
##캠
##칵
##ㅐ
##닮
##쏜
##깍
##굿
##텅
##넴
##띤
##셧
##놋
##겡
##볶
##짯
##밟
##J
##😃
##👮
##쮸
##횟
##👨
##읭
##댑
##걍
##쑥
##뻬
##궉
##닜
##깊
##흑
##킥
##꿈
##딨
##괏
##츰
##돠
##떴
##튄
##헸
##짼
##쫓
##뚤
##랏
##둣
##넥
##쫒
##뷴
##쌈
##뻑
##넛
##낄
##뽀
##펑
##웹
##랼
##덥
##쟈
##딛
##칩
##솟
##넌
##욯
##삽
##읔
##췄
##팹
##툴
##콴
##뗀
##멕
##읎
##끈
##앱
##닙
##옛
##햐
##첼
##퀼
##훼
##픔
##✔
##뱃
##쥔
##꿀
##텡
##귄
##귝
##밴
##켯
##싯
##딜
##츨
##띵
##쥥
##섴
##궤
##릅
##꿇
##밈
##빡
##쯔
##늦
##밧
##뚫
##꼿
##샵
##꼽
##읹
##튼
##왠
##넬
##퀄
##셍
##뮬
##깸
##찢
##좁
##녔
##핸
##😮
##큘
##㎏
##젔
##😂
##😝
##퐁
##윘
##굶
##섞
##뀐
##끊
##짚
##벅
##쩐
##👊
##썻
##숍
##뺌
##눙
##썽
##👎
##옳
##낱
##곱
##쭈
##뀔
##탭
##셀
##넨
##닏
##썰
##됌
##쿤
##몫
##씸
##퀸
##ㅌ
##얌
##딧
##씻
##얹
##툰
##💯
##탬
##맡
##깃
##넉
##짧
##젬
##옮
##뽐
##곗
##뒷
##㎥
##뀨
##텀
##꺄
##썬
##잰
##앚
##쪼
##깤
##읃
##얷
##셕
##깎
##콕
##쭉
##❗
##캉
##죤
##눕
##펌
##쿼
##뤽
##🙄
##덮
##붑
##꺠
##썸
##깅
##딪
##흙
##쉈
##룰
##㏊
##컹
##웟
##셴
##긔
##깽
##벳
##💨
##ㅛ
##💪
##훤
##쏠
##츳
##돤
##놐
##뭄
##팍
##쉘
##싹
##댱
##뾰
##놯
##ㄸ
##곽
##벚
##눴
##빅
##깁
##갰
##퀵
##롸
##샴
##웍
##꿨
##믐
##뻤
##갘
##멈
##깟
##겆
##믈
##킄
##쏴
##쇽
##🧟
##♂
##쉼
##◾
##넸
##얀
##▶
##꽐
##쉴
##💀
##슙
##🐈
##앳
##😅
##숀
##🦺
##꽈
##붐
##🤬
##🤐
##앓
##🇯
##🇵
##🇺
##🇲
##🤧
##벵
##㎾
##틍
##꾹
##🌶
##짬
##녜
##앖
##ㅃ
##캡
##꼈
##꽥
##섣
##냑
##잭
##헐
##챈
##🚬
##훔
##펼
##찡
##껜
##틈
##첫
##늉
##폄
##섰
##뮈
##욧
##햔
##뎃
##홰
##횽
##몀
##뜰
##핥
##풋
##쬐
##낟
##🩸
##뺏
##쉣
##랠
##Q
##릎
##꺾
##얏
##뙤
##몃
##🤭
##🤪
##좆
##턱
##쫙
##됴
##💥
##땔
##🌸
##솥
##껌
##짆
##꽤
##펏
##뺑
##잦
##켈
##웰
##겧
##닿
##캬
##귓
##맴
##핳
##굽
##쌘
##쳇
##덟
##😪
##뜹
##짹
##긱
##펐
##뱉
##젊
##🚗
##슘
##괸
##헉
##뱁
##돕
##깥
##쟤
##캇
##맣
##쪘
##옄
##꺽
##샬
##㎘
##닛
##😣
##볍
##찹
##꿋
##좃
##텋
##엥
##헹
##빕
##믁
##콥
##밷
##🏼
##갬
##빔
##튿
##듵
##듷
##긁
##갤
##퓰
##쉰
##늫
##☠
##룻
##꽉
##쩜
##앍
##땃
##맬
##헙
##뜸
##쭘
##훙
##늑
##젹
##꿩
##띁
##🕊
##🦀
##굉
##녈
##눅
##릏
##셸
##엏
##꼇
##찼
##셩
##튠
##듐
##옇
##깰
##싣
##🏻
##욘
##쐈
##훗
##❤
##쌩
##쳬
##ㅍ
##켕
##🇸
##슛
##몄
##뫼
##헨
##뿜
##빤
##잽
##헷
##💉
##🚫
##⃣
##🐭
##핌
##홧
##읕
##듦
##챤
##ㅢ
##👌
##읺
##엮
##밉
##묶
##깄
##닢
##챗
##쳥
##휀
##🦜
##짰
##쥘
##탰
##탉
##좨
##쿱
##쬬
##♀
##췌
##쫑
##팸
##낑
##뗴
##⚠
##퀘
##힉
##펫
##녓
##쓱
##걀
##왑
##💣
##🚀
##촞
##윅
##팼
##룽
##↗
##ㄵ
##엾
##맑
##퓸
##🖕
##🏽
##굳
##😜
##😀
##뿍
##씰
##묜
##곁
##췬
##삻
##늕
##쉑
##딲
##깬
##맟
##썹
##렐
##펨
##렜
##랔
##🎵
##틔
##꿍
##퉷
##몆
##튐
##줜
##콧
##💕
##둠
##숸
##뱔
##챕
##젱
##즹
##깉
##옌
##뤼
##렝
##팠
##닠
##🤷
##촨
##뭡
##셤
##잪
##릐
##둉
##🍾
##💩
##슐
##댸
##옘
##캥
##숟
##떔
##🌚
##뢀
##껨
##➕
##녘
##떈
##죌
##썪
##셌
##맄
##뜬
##🙀
##쓔
##잌
##땠
##캤
##낰
##ㅟ
##쒀
##캘
##🙅
##켤
##덧
##쨩
##똔
##냠
##듕
##즤
##뮌
##팻
##뎈
##쌌
##😠
##뭥
##툥
##뭅
##풉
##💢
##챨
##훠
##솎
##윔
##😖
##겋
##꼐
##뺀
##굣
##톳
##툽
##휠
##됍
##킈
##왱
##콰
##쥭
##몹
##뿡
##줏
##뇬
##늪
##💫
##짢
##밎
##⭐
##눼
##뙈
##뎠
##쌤
##봨
##셱
##옜
##넝
##멱
##폈
##☺
##끽
##퍈
##묽
##뺴
##햑
##쿸
##쵝
##잿
##됭
##샊
##맀
##뇽
##옐
##ㅕ
##뽂
##숑
##쨉
##쏙
##챘
##볕
##좇
##욬
##롄
##앰
##듸
##낵
##렿
##쏟
##쵸
##홉
##믜
##궜
##🎉
##뒹
##쾨
##😘
##좝
##냇
##🔹
##좡
##잆
##❌
##쏩
##볌
##🐮
##뎨
##읏
##쟌
##솜
##흰
##겔
##욥
##먈
##뻣
##쭌
##💦
##💓
##쟐
##㎎
##띨
##펄
##밨
##땍
##쇳
##뱌
##뎀
##횐
##펭
##쳉
##뼉
##헥
##😤
##촐
##샥
##쎌
##㎛
##🍎
##젛
##햬
##촘
##닳
##흩
##읊
##갛
##솓
##휩
##퉜
##쏱
##엊
##괭
##쨌
##킁
##🖤
##괞
##🚨
##옻
##쯩
##맸
##🇦
##귿
##쭤
##찝
##삔
##됄
##🤑
##꽝
##겉
##핼
##룐
##헣
##샜
##겊
##펍
##귤
##깻
##딕
##뵤
##겅
##👀
##😱
##샅
##뵹
##🦴
##🎶
##🌈
##💜
##😑
##믕
##🐦
##텼
##햅
##젯
##몈
##쌰
##븅
##켠
##톼
##횔
##푹
##삣
##뺄
##🧡
##읜
##찿
##쨋
##🪰
##뎁
##헴
##뺐
##틉
##헿
##눟
##쨰
##♨
##곪
##쭙
##룔
##쌕
##뵙
##갉
##짲
##곸
##왼
##뉨
##쥑
##볏
##옶
##🍀
##뚠
##뎐
##첬
##핲
##즁
##™
##쌉
##햤
##딫
##얽
##엨
##폿
##얕
##앟
##텁
##짴
##뀜
##🐵
##빰
##뭍
##떽
##💰
##✋
##멓
##꿧
##뮴
##빳
##텟
##🙃
##튭
##왤
##짭
##쫄
##쭵
##훅
##슼
##껐
##놉
##빋
##솝
##줴
##핰
##🐁
##🐀
##😍
##묠
##ㄻ
##🤨
##넒
##찓
##홋
##깞
##쨔
##몌
##뺠
##뛴
##쿙
##벋
##쥰
##먕
##ㅖ
##헀
##잫
##😰
##🐩
##🐒
##🥶
##갼
##늣
##옼
##웡
##😊
##🐖
##톈
##😒
##뗑
##짊
##🍺
##벹
##싴
##끠
##냣
##넜
##줭
##쫭
##퐈
##🦅
##💖
##얐
##곈
##킅
##탸
##뮨
##츈
##쟨
##픕
##탯
##땟
##앎
##뽜
##👹
##🪳
##🪓
##🤺
##💘
##샏
##넵
##휑
##웩
##💗
##슭
##욌
##얺
##첮
##뺨
##숏
##닻
##띔
##엤
##😎
##틋
##햘
##컄
##폇
##⛔
##🎗
##튈
##뵐
##윷
##욀
##🗽
##솤
##❕
##🙌
##뤠
##붉
##쌨
##츌
##럐
##샛
##숯
##궄
##졉
##쫏
##힛
##쮜
##🔞
##ㅄ
##쌋
##귐
##뵜
##쳔
##샙
##맗
##츼
##꿘
##🤗
##흣
##😭
##쟉
##뗄
##낍
##슉
##🎯
##끕
##샠
##줗
##쐬
##뗘
##껫
##🍆
##😋
##퇘
##낡
##븍
##🍉
##맏
##샐
##🦇
##🦠
##😔
##뻇
##듁
##👥
##롷
##꿜
##볜
##썌
##뫄
##흫
##🔔
##🐔
##빱
##넋
##퉈
##씐
##🦧
##싷
##뭣
##굔
##쪙
##멊
##🤩
##🔪
##붇
##댘
##뉩
##썅
##샾
##귈
##🫰
##🤦
##㎓
##잗
##죗
##섀
##젋
##뗌
##곀
##✨
##똭
##넙
##✖
##냬
##뷸
##왁
##쐐
##😛
##햌
##💞
##쟀
##🙆
##💛
##💚
##뭏
##ㅒ
##짙
##뛸
##셑
##짒
##샨
##🥳
##븡
##뤈
##🤯
##🔵
##즛
##긑
##멉
##츤
##횃
##쫍
##젭
##쑨
##🍣
##🥩
##㎿
##홓
##싢
##뜀
##뀝
##켔
##뇰
##츙
##웤
##솨
##뛔
##믓
##뤌
##꿎
##읻
##졓
##쎔
##핟
##삯
##쐇
##😉
##촤
##눗
##뗏
##🥺
##❄
##쑬
##촵
##💋
##졎
##꙼
##얗
##쿰
##숱
##삵
##깆
##🦮
##쏼
##쫀
##👿
##뷱
##꽌
##왚
##댠
##땄
##핧
##😸
##쯥
##봥
##닺
##돝
##쉅
##🔴
##🤥
##푠
##⭕
##졀
##↘
##뿟
##쁩
##윳
##뉜
##🤡
##멥
##뼘
##퍠
##냘
##🎈
##웜
##😏
##밬
##쥤
##💳
##ㅘ
##🐽
##맜
##윰
##졷
##욍
##긕
##돟
##햠
##밣
##휼
##엡
##띌
##쫗
##칮
##좔
##촣
##🇼
##🇹
##왐
##덫
##묙
##궂
##똬
##🟰
##뱡
##꺅
##띡
##🙉
##뇸
##돨
##쎠
##얍
##샆
##줮
##슌
##뺃
##😩
##멎
##휸
##챡
##쉔
##븥
##쏫
##뼝
##➡
##섶
##쨈
##씅
##칀
##굯
##죳
##😐
##😬
##뻠
##쎼
##콸
##🐍
##늗
##뭬
##롹
##퐝
##갗
##🐂
##큭
##😴
##😲
##섕
##짇
##켬
##😥
##뎄
##🛑
##쏨
##눜
##굘
##헵
##🐑
##덯
##◀
##🙂
##잴
##핡
##뢔
##찣
##싄
##뗐
##웽
##홱
##😚
##싨
##껭
##♠
##휙
##얜
##숄
##쫘
##돚
##🐎
##굵
##븨
##곯
##꽹
##걑
##🥸
##뜽
##😓
##툇
##뵌
##쫩
##밦
##🔑
##컫
##뽤
##😫
##줒
##빢
##쓉
##🦶
##뱍
##묫
##🤟
##갹
##찎
##뮐
##👟
##뵨
##윕
##돛
##갭
##😵
##⚰
##푯
##뉸
##🦆
##🔨
##솽
##꿏
##쒜
##😇
##앂
##훑
##👅
##😈
##😌
##😢
##🌐
##땁
##🌻
##듄
##🍼
##젏
##🥲
##윾
##휜
##🤫
##쿳
##떰
##😨
##🙋
##✊
##찧
##㎚
##믾
##뚕
##🧠
##뉠
##켁
##🏿
##띈
##❣
##👤
##벧
##콱
##쉨
##겍
##텄
##쯪
##괌
##멌
##쉭
##멏
##👋
##🦍
##🍏
##✈
##🥷
##🥨
##싑
##퐉
##📢
##딮
##🗑
##늅
##📌
##🙍
##◻
##촟
##🤝
##👁
##끋
##떙
##🦲
##멨
##🌹
##🌺
##퇫
##☎
##믽
##헠
##뻰
##⚡
##줠
##핱
##홥
##욹
##햝
##🧨
##밞
##🟥
##🍞
##🌟
##좉
##몪
##꾱
##튤
##좄
##쑹
##덪
##🕯
##켑
##쉿
##찠
##뮛
##🐗
##쎀
##떱
##죙
##🛢
##뜁
##📣
##뷁
##튓
##똠
##짦
##✅
##읇
##👄
##🆚
##옅
##쒯
##캭
##꺨
##걘
##끍
##칡
##🚪
##쾰
##🔫
##죨
##촙
##으로
##에서
##하는
##하고
##니다
##들이
##이다
##했다
있다
##는데
ㅋㅋ
##다고
있는
국민
##지만
##다는
##라고
사람
아니
##통령
##들은
##까지
##면서
##00
##습니다
한국
대통령
##하게
##에게
##한다
##해서
하는
우리
대한
##부터
##이라
20
생각
##으면
##이나
##하다
##에는
##적으로
##적인
나라
미국
##하면
##었다
##하지
영화
이런
##기도
##리고
경찰
##대로
민주
지난
##들의
중국
지금
문제
것으로
##해야
진짜
##보다
너무
##는거
정부
10
만들
하고
정치
##렇게
##세요
##하기
민주당
##네요
##인데
##리는
##이고
##니까
때문
윤석
위해
그냥
##입니다
같은
##된다
문재
##자가
##되는
##어요
한다
##재명
지지
##ㅋㅋ
이번
##어서
하나
서울
##들을
것이
윤석열
##지는
필요
##합니다
이상
없는
##라는
게임
인간
##기를
##지고
##사가
ㅋㅋㅋ
그래
경기도
이재명
201
정말
##장이
##인이
모르
가능
##해라
들어
##에도
아닌
일본
##리가
##도록
##기가
##라도
다른
##사를
##겠다
##구나
국가
지역
이제
북한
경제
많은
##처럼
그런
##원이
##나라
검찰
없다
##자는
보고
아이
##한테
많이
##성이
##려고
대표
##았다
##에서는
##민국
##이지
함께
시작
##같은
##시아
##명이
경우
기업
##리를
##어야
그러
##가는
##됐다
당신
다시
통해
대한민국
##혔다
무슨
시간
아니라
정신
아무
##정부
가장
관련
사회
##시간
##으니
것이다
세계
##기에
##이는
밝혔다
##기는
지원
사업
나오
아직
##이가
진행
그리고
모두
사실
문재인
했다
##하며
위한
##레기
##으며
##하면서
좋은
국회
##아서
##장을
##이라고
이유
##위원
##되고
하지
나는
자신
수사
교육
##준석
##기업
상황
##였다
언론
##인가
따라
때문에
##들에게
어떻
##는게
얼마
##지도
피해
##것도
내가
이준석
이어
관계
##하여
해야
##주의
모든
기대
##사는
재미
##사람
정권
어떻게
것은
정도
##장은
##는다
##졌다
이게
##들도
수준
계속
최고
##거나
##다가
##영화
##는지
##이라는
말했다
대해
##대표
국내
30
좋아
사용
19
##수가
있을
있어
사람이
있었
떨어
범죄
결과
##인지
이렇게
##보고
##운데
잘못
##상이
100
조사
##지가
어디
저런
이미
대통령이
##소리
특히
##력이
이용
것을
자기
전문
##력을
##해도
정책
관심
이후
처음
경기
내용
##하네
##어나
##있는
##만원
기사
##성을
##하나
만들어
현재
##없는
돌아
##이냐
##레이
##지를
##동안
12
누가
발생
##들과
그렇게
탄핵
##아야
세금
##잖아
정상
##들아
##놓고
##체가
최근
##겠지
##시키
##대가
가운데
쓰레기
제대로
11
참여
자유
보면
장관
##더니
프로
올해
##주는
##스트
그만
##상을
이해
바이
운영
댓글
등을
문화
다음
##정을
있다는
있습니다
얼마나
모습
사건
##거리
다양
지지율
국힘
##이네
200
##자를
##하는데
어려
러시아
설명
바로
좌파
확인
##학교
우리나라
하면
역시
##하냐
중요
지난해
학생
##없이
책임
##비스
##말고
##자들이
##로운
시장
사고
보여
##정이
##거지
##도가
된다
##어도
재밌
##에서도
어떤
##치는
##했다고
마음
##자들
알려
등이
##이야
거짓
그는
가족
언제
그럼
직접
##주고
외교
조선
15
추진
의원
##전에
##했던
공개
제발
##의원
전국
##하겠
##정권
이라고
##르면
방송
배우
않은
이날
투자
이야
여러
검사
나온
##인다
##사업
오늘
기술
않고
알고
##정도
사이
앞으로
아니고
##0년
##가지
여성
국민의
빨리
##시켜
다양한
계획
받아
##한다고
5년
##나요
개발
이러
ㅎㅎ
##화를
##적이
학교
금융
있도록
##라마
##교육
개인
##자의
되는
같이
있는데
보내
없이
한번
이건
보수
합니다
스토
않는
없어
사랑
당시
예정
살아
연구
더불
있고
##한거
18
##리에
근데
삼성
##들어
##이면
##치고
##기로
그래서
말고
대상
##하자
감독
##되어
##되면
##가가
시민
일부
말이
없고
외국
사진
과학
무능
##시는
나타
완전
아주
있다고
##시장
내려
##야지
결국
가격
##드는
이거
누구
발표
##무원
##기관
##제로
안전
##진다
만든
##리면
인정
아직도
일반
ㅉㅉ
##위원회
##부분
##보면
##로나
##하는거
현실
##식을
전쟁
##을까
찾아
##스크
소리
##식이
하루
##으나
나라가
##당이
##스로
조작
그렇
##개월
참석
산업
##동을
방문
국짐
대학
사기
해결
##센터
##가서
##하라
마약
사람들이
사과
마련
국제
##마다
아닌가
부산
높은
저는
반대
##하던
않았
구속
##시다
요즘
##의를
##하니
부모
##러운
아니다
##억원
해외
##같이
##이라도
##그램
본인
준비
절대
만큼
제품
##부가
##봐라
때문이다
해라
##려는
따르면
##정은
평가
##더라
친구
먼저
##문에
기자
의미
##되지
##리지
감사
청와
50
주민
더불어
##자리
이것
바이든
선동
##동산
어느
##이었
선거
어린
##에요
제공
##도를
분석
환경
##돼지
노동
##겠네
드라마
수도
공정
##밖에
증가
문제가
포함
##없다
##스럽
새로운
##있다
만나
##났다
동안
주장
##치를
13
##관이
##했는데
정부가
받고
전망
코로나
나왔
기준
당연
기억
서비스
판단
불법
문재앙
니가
여자
국민들
추가
##다니
오후
기본
##지역
##시고
최대
여기
##파트
세상
14
예상
후보
정보
##프로
##라이
건강
영향
그게
##텐데
##렸다
##인을
##이랑
미래
열린
이를
부동산
25
##지지
##거다
기록
거짓말
##대를
대부분
##위를
선택
##회를
##회가
보인다
##사의
##화가
##제를
현지
것도
소비
지방
16
##한다는
##먹고
보도
중심
##구만
##던데
##동훈
있었다
설치
한심
##장에서
##중에
기존
##르고
##해요
판매
##럼프
작품
##해주
올라
##원은
요구
##씨가
부족
안되
공무원
주변
##했고
##가고
보는
트럼프
인터
힘들
같다
처벌
##수를
개선
##명을
##하는게
지나
전기
##대통령
내부
엄청
해도
##명의
우리는
경쟁
하는데
조금
가지고
국민이
##아요
드러
##마라
한동훈
행사
결정
##점이
##조사
이름
국민을
해당
##게임
##스가
##원을
##었는데
##건데
##대는
24
발전
관리
사람들
부분
무엇
나와
40
##부는
당대표
등의
##인은
전체
우려
과거
##려면
장애
지적
##시가
넘어
##안을
자리
##서는
보다
위해서
##스템
확대
성공
공연
##마트
라고
인사
그래도
생산
공산
상태
##지막
더욱
있지만
공동
##르는
오는
##장의
##장에
도움
위원
##도로
청년
##건가
##제가
##것이
##회의
의혹
##단체
그동안
##시설
##한데
아파트
특별
##수는
개최
그리
생활
##치가
##아니
##랜드
##동이
##장관
프로그램
관계자는
##민주
##기고
##다면
##이트
하지만
##대체
청와대
물론
##인의
출신
얘기
스타
공공
##보는
마지막
스스로
집중
비교
국민들이
이뤄
17
인생
재판
빨갱
해서
전부
우리가
어렵
##이스
젊은
자동
효과
##나는
비롯
지속
##자로
현대
##하지만
##시에
##들만
##수록
##려서
전문가
규모
아님
##점을
매우
뭐가
##회담
일이
대단
받은
모르는
못한
##물이
##기술
응원
##지않
##방역
##금을
얼굴
도대체
활용
걱정
##만에
##이상
##건지
##산업
크게
서민
의견
##하다고
전세
방법
미친
##린다
연기
경찰은
선수
##조건
사라
##건희
남북
위험
강화
나라를
주요
과정
유치
필요한
추천
니들
유지
강조
1년
집단
자신의
대구
##정책
##ㅋㅋㅋ
##이니
##보니
여론
##문화
적극
내년
##이터
수출
ㅠㅠ
##란다
제일
##지로
다니
적용
광주
##일이
##대에
남자
어쩌
가능성이
제주
관광
오전
살인
##지원
비판
성장
##은행
##머니
2찍
##인들
서로
공매
대선
##었던
업무
분야
대체
##어라
##하다는
##식으로
회사
##때문에
구성
다만
##이를
도시
노력
한다는
역할
##5년
##스를
시행
##인들이
##했지만
##했다는
참가
예산
괜찮
아니면
대해서
##내고
##계가
##으면서
유럽
전과
거의
권력
아무리
못하고
무식
예정이다
그걸
사는
##원의
못하는
##OO
##려라
설명했다
이야기
논란
##소년
기간
김건희
역사
##거야
먹고
부담
##000
국회의원
실시
잡아
##에선
##조작
##물을
##받고
나서
공부
되고
음악
경험
##BC
##세를
대깨
활동
상승
고객
느낌
대만
없애
일을
##근혜
존재
##난다
되어
##겠냐
##위가
##연구
말을
혐의
##전을
또한
보호
선정
개돼지
고려
니들이
아니냐
##라인
##간다
사람은
##료를
경찰이
##소득
##리아
자연
인상
행복
##지면
##감을
##국이
글로
##경제
21
최소
##심히
##겠다는
##개발
##드시
신고
##자인
제작
##했습니다
##계를
휴가
전혀
##국민
##7년
사망
##씨는
##감이
직원
##하시
인천
##주택
##당은
사형
정의
한다고
##대한
투표
##하세요
무조건
성과
차량
상대
거래
시간이
행정
결혼
가는
고용
##이란
대통령은
##주세요
##원에서
28
지켜
안되는
##두고
##음을
##구가
기다
많다
안보
중소
나온다
맞는
자체
변호
##더라도
됐다
되었
빨갱이
##권을
우선
##아라
##선을
##겠지만
지들
##6년
##경찰
##원에
공격
##범죄
##스타
##석이
오래
60
확실
대비
##르게
##수도
글로벌
신경
혼자
보니
대응
하락
인도
열심히
당신이
000
도입
궁금
나가
##만큼
부정
나도
박근혜
대책
표현
재미있
미국이
바보
##수사
조직
증거
##히려
대상으로
##단이
두고
##학생
실제
##과의
22
##을때
솔직
집값
높아
구조
제기
공급
##일을
이전
##이었다
오히려
받는
신청
은행
하면서
스토리
에서
있으며
의료
##환경
같은데
##것들
##업체
시키
##되었
어찌
충분
여행
등에
강남
국정
중요한
구매
##해야지
분위
##당한
27
##정한
받을
이루
김정은
싶은
영상
주식
최저
않아
##업을
능력
주가
라는
##관리
않는다
##겠습니다
##분이
불가
스마트
##위에
##나오
관심이
정확
ㅡㅡ
최악
##안이
##는거지
하다
23
10년
이젠
반드시
##일부터
가진
했는데
합의
그녀
않을
##것이다
조성
있으면
##라면
##장과
건설
##어가
##사회
##이며
##자들은
##이지만
안타
2018
발견
업체
당장
머리
으로
시스템
독립
조용
시켜
너희
이에
마스크
민생
자체가
최고의
지도
받았
확보
따른
##우는
어려운
좌빨
그대로
권성
##하겠다
##정보
전에
##끼리
아는
##져야
그런데
밖에
행동
##내는
고민
##지말고
##이크
노조
단체
##사고
심각
한국의
70
공매도
##기간
##봐야
플레이
##선거
가서
생각이
교통
##부를
요청
##서를
늘어
희망
##아먹
처리
##율이
멍청
##인간
가지
##겠다고
나쁜
운동
##와서
##만한
정도로
각종
##일까지
운전
않았다
##자들의
##어를
기관
불편
##하도록
##지에
뉴스
바람
핵심
평생
인권
##할때
차지
윤석열이
그때
푸틴
##할수
자살
나이
민간
논의
그것
##소를
전했다
##워서
##나고
##로는
대법
발언
전라도
금리
나올
이래
있게
2년
갖고
일자리
##사와
202
홍보
대출
어린이
##신이
주택
이유가
가까
윤통
##대의
앞서
그의
##되었다
등으로
소속
지구
##자기
자식
많아
비용
##생활
##들고
이재명이
##우고
항상
노래
무역
개딸
국방
아름
##가를
나오는
과학방역
윤핵
##랍니다
##도는
있어서
알아
국무
비슷
수입
주고
인간이
자동차
경영
계약
##임을
##2년
##라서
역대
없음
쪽팔
##까요
##소가
있지
##텐츠
난리
대형
우크
무서
영국
수가
음식
판결
있나
26
##나서
저렇게
##자와
주는
밝혀
이걸
중앙
전통
분명
##하거나
보기
노인
만드는
의사
##세가
바뀌
##만이
##놈들
##려야
##생각
강력
##9년
있어요
##없고
OOO
##방송
인해
없었
아마
정부는
일단
주목
지루
검토
##쟁이
사법
쉽게
MBC
소득
이하
하기
##트남
솔직히
원래
들어가
##스터
##라리
있으니
##당의
상품
인터넷
안하고
##되면서
전시
경기도가
##아가
보험
미국의
자격
공간
돈을
민주당이
##그룹
주인
가능한
택시
치료
대신
##금이
##했을
##사에
##너지
무시
##문을
교수
##운동
또는
이는
바라
##량이
##하기로
만에
엄마
당신은
##등학교
##거래
시험
##국가
개판
##트를
##움을
##왔다
한마
독일
##성과
사례
유명
목표
수요
있음
사회적
##진이
##이기
도로
##지게
##사로
외국인
##스는
중인
베트남
평화
움직
##하였다
거지
지금은
있네
gt
그나
소개
폐지
없다는
##장으로
##거냐
끌어
##반도
우크라
용산
##해보
어디서
싶다
안정
별로
제가
시설
##아치
시절
이동
근로
놓고
혁신
말도
애들
지키
##4년
반도
##롭게
법무
감동
##비를
규제
위치
##도시
달라
##당히
모르고
금지
과정에서
##리기
지난달
정상회담
##관계
##심이
##님이
반성
##한게
단순
##업이
사람들은
보유
##일에
##전이
가져
대중
강원
중소기업
대통령의
그가
##립니다
윤석렬
모습을
있던
지급
##한국
나타났다
##보다는
독재
대통
차라리
##여서
3월
되면
##이팅
사람을
시청
우수
전달
공감
자꾸
통과
##비가
만들고
지하
2차
부끄
감소
##이자
반영
비해
모지
##수준
민주당은
총선
##회는
##다운
있어야
##행을
##회에
##오는
현장
가짜
공식
없을
여전
최초
무기
##시키고
사기꾼
##위는
자신이
지가
9월
##이라면
좋아하는
아시아
오른
##가리
윤핵관
정부의
느끼
##민이
재산
29
##놓은
10월
기능
이익
##깝다
다들
최종
본격
안된다
평균
않다
3년
영향을
벌어
소방
기획
음주
줄어
취업
중심으로
예술
석열
협력
대기업
##차가
이라
장난
쓰고
있기
너는
##지사
달러
알았
##차피
##시길
근무
개정
거기
##됩니다
전략
##수의
가정
##하라고
되지
출연
바랍니다
##3년
다르
연결
나왔다
강제
5월
철저
권성동
##자도
건물
##들에
마라
어차피
계획이다
조선족
문죄
하던
##규모
##고기
당연히
##임금
병원
##질이
##실을
뭔가
수익
훨씬
체험
##심을
매일
월급
##리스
지금까지
감옥
각각
유승
제시
도와
백신
영화를
역할을
반도체
해야지
소재
##문이
개혁
##노총
##자에게
활성
##디어
살고
##지면서
##위로
상식
##많은
파악
강조했다
##er
방역
본다
이제는
끝까지
본인이
##30
구축
##것들이
7월
돈이
국민들은
80
배신
장면
##로남
##봐도
뻔뻔
##수있
하는거
관심을
좋다
##군요
한글
필요하다
그룹
##드를
제외
판사
##안에
##로남불
방향
싫어
비핵
것이라는
##냐고
##수수
영어
마을
##국의
물어
작은
4월
모른
힘든
사실을
거리
상황에서
##사건
신뢰
순간
가만
##시킨
문제를
중국이
그러니
더듬
중간
##거라
좋겠다
시즌
스트
##민주당
##같다
없는데
전해
실제로
정당
검수
##적이고
국토
연예
##릭터
회의
##받는
해임
그저
미세
북한이
##바이
달리
없다고
##보험
갑자기
##에만
아무것도
6월
##나게
그럴
##완박
뛰어
##받은
##복지
장기
##가락
사무
연출
동네
31
위반
이러한
##느라
매출
##20
담당
복지
##하려고
당선
문제는
것입니다
##연금
제한
##인으로
알려졌다
빠져
##bc
한류
광고
일으
고통
하는게
상관
##부모
기념
500
했던
##나면
8월
하네
청소년
##으니까
##로부터
온라인
##준다
무료
점을
##기사
남아
언급
##트가
모습이
유튜
군사
이유는
불쌍
##함을
##정상
입장
##리도
진출
맨날
공유
##듯이
##말이
의무
##성은
##정치
말씀
니네
인구
##놈이
필요가
도내
##사일
맞아
바꾸
##보네
가입
##1년
올려
불안
중구
자주
좋았
##수로
##상에
해주
300
혜택
사퇴
인근
도움이
보이
##문제
정신차
통신
브랜드
장애인
훈련
##조차
##가요
하자
누군
원내
조국
그거
아래
있는지
##는거야
제도
##구요
검찰이
검수완박
##하려
쓰는
물가
##50
진심
번째
##한다면
정신병
봐라
##차를
##냈다
##주가
아닐
아프
하니
##계획
문재인이
##바로
선보
11월
원하는
채용
##든지
의심
##부에
자녀
하여
여전히
##지마
2016년
##하였
##회에서
기반
내로남불
자유한국
12월
알아서
전환
짜증
없네
인물
검찰은
##먹는
여름
##화에
고소
##어야지
야당
##지마라
##리즈
지정
##개의
##것을
##률이
아버
고발
##자나
##달러
없었다
등장
##리로
제출
##섰다
##습니까
더러운
성폭
벌써
##성에
응원합니다
##이로
인간들
한마디
들고
그나마
동물
그건
바란다
이번에
##자체
이라는
##갔다
것들이
느껴
삼성전
수십
이란
있냐
소통
그림
이명
##상은
##하는지
##거든
캐릭터
##구를
남편
없어서
##드가
까지
제2
##세대
화장
기소
##교통
선생
무섭
비상
됩니다
##아닌
그랬
이끌
서울시
이사
##안전
일어
##것은
##랑스
##투자
받았다
하늘
##겼다
##했어요
점점
민주주의
가수
1월
##줘야
##이들
경찰대
제조
##하기도
모델
말하는
부터
한반도
뭐냐
##예요
특징
답답
돌려
재앙
##정에
거부
낮은
##했으면
기레기
향후
평점
일어나
##으로는
##시대
##기만
아침
##분을
다행
국민은
정치인
##이도
봐도
갈등
것이라고
##상납
돼지
양아치
액션
##제에
##리의
타고
한미
미세먼
##부의
대화
부탁
이유로
입니다
생각을
화재
##공사
극우
##이션
##단을
어쩔
##서비스
이해가
한심한
관련해
사태
처럼
##상도
촬영
넘는
시간을
수준이
무능한
##겁니다
##느냐
불러
우크라이나
내용이
유승민
##어진
집에
전세계
고양
##라지
##적을
친일
통제
범죄자
가슴
토론
##노동
그러나
##조선
힘을
설립
##치기
바꿔
포기
##인줄
모지리
##약을
상대로
##잡고
생각하는
경우가
##회사
기업이
대장
이곳
보이는
화이팅
창업
징역
##어버
유일
공포
늘어나
없습니다
##량을
게임을
##인거
##in
버스
확정
##원으로
돌아가
배경
##럽게
구체
2017년
##도의
##와의
##었고
뽑아
약속
오랜
환율
통일
##법을
##스러운
바른
##이에요
##장애
종합
주인공
##하네요
##BS
매년
이명박
제목
그것도
성상납
코스
비난
징계
저지
##운전
애초
훌륭
원전
수상
##포츠
##통신
적이
##10
차별
반복
가스
가능하다
경북
##검사
선고
반응
상황이
과연
제재
##디오
이준석이
날리면
##레스
모양
안철
##이버
취임
##인과
태양
##져서
전화
##여명이
##더만
경남
불구
이기
##었습니다
출시
고생
##자에
경기도는
##질을
확산
근거
정리
영화가
관객
유통
방침
##던가
준석
롯데
국짐당
##기의
##시키는
##의가
실패
##성도
중단
콘텐츠
투입
성남
손해
미국은
##있고
##랐다
당신의
북미
##리게
눈에
최저임금
##중이
##상공
동시에
인한
##재앙
##있네
충분히
##출신
##명은
모자
호텔
##선동
원내대표
##쳤다
대통령실
저러
물러
예방
남성
무너
아닌데
##분에
대변
수행
지금도
##무리
##건을
믿고
피해를
##on
##관을
##나가
치매
전망이다
못할
바닥
이들이
##전쟁
아예
1일
만족
##정신
데이터
않으면
아니라고
##격을
##받아
하게
##0년대
##때는
통합
도는
듣고
중에
간첩
카드
피해자
임대
비롯해
것에
##리그
##부장관
2월
시도
허위
남의
##별로
점검
##만으로
도둑
이상한
나선
##이라니
하냐
##시오
##품을
스마트폰
따로
시대
##였던
자료
##제도
내용을
아쉬
여당
시위
모르겠
혐의로
비핵화
##야한다
먹는
##ㅡㅡ
생각해
만약
수술
우리나
공산당
199
팩트
자율
논란이
소송
말은
신규
##국은
90
변화
##전문
##거운
앞두고
불과
##격이
목소
양심
가득
하나도
임명
##시켜라
온갖
##활동
3일
수도권
무죄
##하려는
홍콩
##만명
아들
##반기
불가능
##했으며
주도
등록
##개가
##시면
##함이
개소리
##행이
##발전
##스럽게
어이
회복
지들이
##자고
의원이
작업
##증을
없으면
##새끼
보도했다
비롯한
mbc
박진
조심
대해서는
##선이
영화는
하며
부자
##학년
나중에
알바
봤는데
책임을
못하게
##8년
이상의
때는
자빠
##으려고
##없음
도전
형태
똑같은
전자
해요
노무
못해
가고
겨울
특정
##수수색
대통령을
##히는
앞에서
##평가
결론
나머
사실이
##4범
대통령과
기초
연락
같아
어제
##청은
전반
##되며
선발
사실상
상담
위해서는
자랑
2015년
예전
ㅎㅎㅎ
주가조작
##과는
##일보
오르
지시
안에
목숨
밀어
##세로
모여
선진
비리
##기와
##므로
국민의힘
##하겠다는
##이에
대표가
##쓰고
##하다가
##대학
##권이
##서가
더불어민주당
TV
중공
압수수색
5일
억울
##상황
##병원
##국에
항공
너도
변호사
그러면
##가족
현지시간
##가면
있다면
펼쳐
##지요
쏟아
올리
내일
##소에
이정도
놈들
##용이
##는거다
국개
대전
자본
한국에
업계
우리의
##도에
##으로써
##온다
것들
축구
타이
##플레이
##길을
##께서
실망
##적이다
맞춰
고위
졸업
몰아
참고
##대책
##인듯
지지하는
이루어
비싸
김문
양산
프랑스
##들이다
긍정
수밖에
##리한
##스럽다
##겠나
윤대통령
##뉴스
생긴
조정
집행
감독이
너네
강한
되었다
조용히
가해
사업을
##번째
미사일
정책을
##주면
옛날
인식
##었다고
가르
좋겠
##해야한다
만드
##위해
6개월
종교
##님의
중국의
반발
더이상
마찬
아닙
아동
떠나
한국은
인재
입학
##개혁
거쳐
##상의
변경
##싶다
에너지
다가
##하신
##an
건축
욕설
최악의
##건이
##지의
위협
##씨의
아까
##져라
##연합
제안
미리
전과4범
매국
공사
##관광
##부와
##지어
##실이
들이
통한
##라니
##음이
잘못된
자유한국당
프레
##요일
마음이
나의
있었던
명이
새끼
##군이
아냐
영원
네이버
놈이
보통
조치
##하는건
회담
##있는데
인터뷰
##할까
하세요
일은
임금
##걸로
##상으로
아니지
##메라
프리
##화국
찬성
나오고
##분들
네가
##에게는
잡고
헛소리
멤버
폭행
라이
차례
##개를
처음으로
의원은
이슈
말로
접근
관한
방식
4년
##스의
##사람이
이들
##부로
가면
헌법
##의회
세월
게임이
절반
집권
봐야
크다
안된
도착
희생
니들은
##본다
마치
새로
장관이
높다
학부모
같습니다
재밌게
위에
프로젝
유튜브
##영업
##하니까
##관은
무식한
케이
상황을
##널드
저녁
##과학
##제는
##짜리
##들한테
이딴
아름다운
재정
직장
경찰에
똑같
##기지
참석한
눈치
이재
짱깨
없지
##만의
사전
##을듯
##인가요
##은거
##결과
거주
당원
##op
##랫폼
##하러
둘러
##이드
##스코
교체
##을텐데
##ㅎㅎ
##단은
때려
비행
##으로서
노무현
작가
##처리
##대학교
##ㅠㅠ
ㅉㅉㅉ
아나
모두가
윤정부
##드립니다
원칙
##로서
수사를
20년
분양
곳이
##한건
##보자
1억
내부총
울산
##가지고
결과를
##말로
##대회
##화된
##점은
학생들이
4일
꾸준
보장
나섰다
##금융
##마을
윤석열은
대법원
마무리
가치
국익
도널드
정치적
그렇지
정보를
관람
내고
조폭
겁니다
취소
##관에서
내놓
똑같이
##간의
지적했다
##단다
입장을
##명으로
효과가
블록
발생한
##셔서
유치원
##되기
연속
학습
했다고
10일
싶어
한국에서
풀어
해석
##시절
진보
ㅜㅜ
창출
##죄명
##운드
##유가
확진
맞지
##아야지
초반
##화폐
마찬가지
여야
기여
제1
##공항
##조가
민족
영업
##단의
생각한다
##만을
완전히
악마
##실에서
열리는
구청
##는거냐
이재명은
1000
##임이
##따라
##돌아
연금
굳이
##미디
##시켰
##말을
대규모
무지
##당을
##어로
빠른
출산
뉴욕
인증
않나
했지만
의해
같아요
##주민
경찰국
이야기를
뒤집
것과
##지기
동의
##리와
지지율이
인기
##웠다
활성화
저소득
진정한
비대
자기가
기사를
##하길
##주기
##주시
의견을
답이다
비슷한
기분
우려가
세상이
##았던
안나
작년
##곳에
죄다
##히고
편의
따뜻
세금으로
대북
세종
그래픽
서비스를
작성
전남
##들로
##진핑
가만히
1차
일정
에휴
집에서
##보기
##치지
북한의
거야
나무
이놈
축하
명의
중국은
##or
대한민국의
##았는데
국립
주로
##미가
빠르게
단계
할수
어머니
##거고
공모
##달라고
우승
여기서
기회
덧붙
하는지
먹을
##는가
떨어진
##나다
##악한
미국과
뽑은
주문
있을까
담배
##다른
수많은
아쉽
단속
안내
1위
7일
##보단
청구
바다
자산
남은
메시
알게
##스러
일자
##점에서
##먹을
##움이
보건
주장했다
##대가리
1만
가야
도망
펠로
완벽
##청이
점에서
##보내
##복을
주관
특수
AI
주최
활동을
##이어
기회를
##그러
##하지말고
중이다
완성
유엔
애들이
##받을
왔다
시리즈
주세요
찍은
내부총질
의미가
##시스템
##던지
##해진
##감독
##학과
몰라
##호가
##방에
대기
사람의
수원
정작
관광객
디자인
##봤다
즐길
마이
정확한
##시민
12일
##겹다
앞에
이나라
갈라
##었으면
명예
11일
손가락
저질
것처럼
회장
한국이
해체
20일
등등
없으니
##진을
##먹은
##머리
##법이
부과
저거
맞다
추정
대장동
가라
느그
##카오
플랫폼
불구하고
금액
##TV
통화
깨끗
아시
아깝다
##매매
##하겠다고
일제
가격이
새벽
취급
나와서
월드
법을
대회
진정
##일까
##었지만
주차
##그래
태양광
부인
전정권
찾는
나누
주말
개념
사장
디지
소비자
혹시
대표는
무엇보다
한국인
2018년
전면
후반
##없어
초등
##카드
마음을
전투
페미
흔들
##보드
##NS
공공기관
미국에
결과가
그만큼
##절한
누구나
##까지는
신설
##성장
투기
##이든
멍청한
배달
대놓고
바탕
##상에서
##점에
##거면
갈수록
2일
27일
언제까지
이와
이용해
논문
##당에
##사에서
##우가
직업
발표한
스포츠
##항공
다녀
여기에
이럴
잘하고
##지와
김영
미안
완료
외교참
##상태
##는건
찍어
기가
민노총
살펴
지원을
##리오
##좋은
##금으로
매력
폐기
시원
하지말고
SK
보조
##해가
확실히
##페인
8일
시진핑
18일
견찰
출발
소유
신용
##사항
##형을
여러분
기부
자막
이라며
협박
35
##리카
##경이
그녀는
긴장
##려나
애초에
체결
2014년
##보가
내내
교사
##역을
##부지
음주운전
마누
15일
자영업
키워
끝난
분노
준석이
##류가
방안을
이리
너무나
국가가
5년간
받지
나오면
전기차
평양
##바닥
##원전
인간들이
생기
##만들
##집단
심지어
이벤
##기준
예상된다
생겼
환불
##차례
군대
왜이
조합
##짓을
차이가
##신을
모르겠다
2번
선언
개입
신속
어른
회원
애플
이들은
통계
19일
제거
20대
사상
##러스
14일
커피
점이
##간에
철저히
##줘라
동일
말해
법인
씨가
##리네
LG
인수
시각
##미래
못했다
##잖아요
##했지
사람도
싱가
##요금
##었나
##스토
정치를
취재
##시킬
할인
##진흥
해보
엄청난
검증
##방울
이래서
##식에
그래야
카메라
흥미
##서에
생각합니다
한심하다
##보호
말한
선제
##쳐서
##다는게
##행정
어울
##분기
주둥
휴대
##언론
이른
법원
브라
덧붙였다
##자치
##싶은
30일
##했네
##주를
##리며
있나요
##럽다
똑똑
압박
##협력
부족한
지하철
공천
28일
대가
실행
SNS
##구는
나라의
남녀
인공
##림픽
##직원
않도록
##체를
많고
모바
아무도
1조
##시기
국회의
권한
이상이
##비용
승인
기회가
죽은
##자들을
##이의
##협회
최소한
김문수
##됐다고
##라가
스토킹
##금지
##두환
##는데도
##주로
##예술
이런거
눈이
안철수
해소
챙겨
##면서도
##위원장
6일
외부
##버스
아닙니다
실질
모아
치고
윤가
노출
쉽지
세상에
##체인
공장
없어요
##할듯
##정부가
심각한
인력
법카
##ar
많은데
##중앙
##비는
시급
##같은데
구입
남탓
카카오
냄새
명작
##훈련
자리를
협의
이자
죽을
조만
##구조
##목을
사진을
동맹
이러니
##했는지
##유치
건희
보낸
48
한테
끌고
수백
##주년
사고가
몰랐
방식으로
##명한
##세력
##구로
##xx
소상공
지자체
##이즈
##생이
##건축
거니
##tt
논리
허용
진실
미세먼지
9일
나눠
성범죄
없나
##놀이
##페이
동영
와서
한국어
코미디
방탄
##고를
##친다
평소
아이들이
접수
##배우
받아야
선동질
나름
들어서
사면
##되는데
##아버
김정
##안부
생각하고
놈들이
질병
##고도
생명
선물
##타임
##리자
##제한
##씨를
##본부
26일
멀티
##회견
25일
최초로
기득
쓰레
늙은
폭염
##대고
##화로
장악
21일
17일
모바일
1인
공약
제품을
흐름
폭발
대한민국이
13일
##있어
23일
공직
전용
찢재명
##포르
개편
되는데
빼고
22일
한편
삶을
게임은
##졌네
##경기
겨우
콘서
##어리
답변
인기를
##식품
##제품
법이
연장
##체육
도민
시장이
일하는
농업
몰입
올린
태극
쌍욕
웃기
##조리
개검
대다
지능
##필요
##금리
##가능
##라스
대박
왜곡
개가
발굴
혼란
##아도
##니스
너의
동원
##부대
단지
##네시아
보이고
적은
뭐라
입만
##있음
디지털
하시
다소
하나의
규모의
임기
떨어지는
않을까
후원
적폐
능력이
일상
후회
운영하는
##의도
예측
##방을
##at
않습니다
언론이
진입
출근
##었어요
##데타
하는짓
지역의
배출
24일
넘게
아내
다수
##구역
법률
불이
##연이
감염
나머지
##했음
나쁘
설계
힘이
##점으로
개미
##추고
관련된
무서운
##외교
분위기
끝나
##om
##al
윤재앙
##워크
기상
담긴
초등학교
강력한
몰려
좋고
인도네시아
##보수
버그
수업
자가
적당히
측은
##시험
##겠죠
경제가
##중한
##에서의
198
내려와
존나
##하더니
검색
굉장
주거
상당
##공화국
국민연금
##했으나
경호
구분
연계
조사를
##했냐
무대
측면
##놈들이
##트는
보여주는
조만간
우리도
손을
치킨
##들여
##었음
마세요
##은혜
위치한
1도
위기
입주
##선언
##너무
##시를
기자회견
##마저
##해주세요
##나무
공정과
들여
부르
싸움
국힘당
적극적으로
어렵다
심판
이다
내세
##조직
##문란
이것은
간다
긴급
취약
##소는
떨어지
그들은
##였는데
이모
##구의
##으로부터
요금
방침이다
생태
이중
했습니다
자신을
초기
##효과
비가
윤리
지속적으로
수는
한달
보면서
공산주의
##게요
수용
##해주는
##이들이
##트로
안돼
합리
지배
사건이
전개
##길래
초청
안타깝
훌륭한
보상
##있냐
##보를
##오고
달려
##료가
진술
서울대
대단한
매국노
싱가포르
아빠
##율을
##인들의
골프
우파
뭔지
가난
쇼핑
##다시
##고가
꾸준히
##향이
##한번
##케팅
##노조
##로를
태풍
##영이
##식은
측근
##증이
##퓨터
관측
국기
##지말
리더
세력
정권이
싫다
완화
예비
캐나다
##규직
전형
##었지
문죄인
실내
폭락
##산이
형성
일본이
##사들이
추억
저렴
##터리
##었다는
29일
##산물
멋진
간단
블랙
##것같
##거임
맞고
한전
페이스
힘내
2013년
##까봐
감사합니다
횡령
##과정
몇년
##속에
속에서
답이
속에
세대
자극
사건을
##시켜야
심사
거다
자원
협상
화면
시작한
가까운
##르신
느낄
반면
##없네
에라이
촉구
우리나라는
썩은
전날
9년
##소에서
##건의
거기에
##하고자
바탕으로
슈퍼
촛불
##로가
기대하고
이름을
##방이
##서관
부패
주제로
##진짜
##되서
##겠어
어휴
응답
##뿐만
한국을
##버린
덕분에
##하려면
감안
뒤에
##구에
16일
도움을
근본
##떨어
##안은
##류를
##것들은
이유를
아이가
봤다
된다는
36
##함에
##우면
##가의
##조합
자금
##었어
##계의
보였다
상당히
대우
이탈
대한민국을
똑바로
문제다
##추행
30분
안됨
아니야
##하지않
##판에
신기
밝힌
##우스
윤도
해제
##았고
대폭
훼손
##일은
내는
전두환
않게
##하셨
이민
공항
박정
배치
##소로
##해를
##리어
놀고
기업의
피해가
그린
할머니
이준석은
모집
##국제
보이지
나라는
제주도
##있나
그들의
어려워
저게
##로지
##했나
적자
사항
##리나
##통수
특별한
3개월
그들이
엉망
##독교
##시코
##프트
미군
30년
고령
시끄
말아먹
실력
열고
특검
##유의
어린이집
참여하는
고마
실무
전년
##관련
벗어나
처음이다
유출
보여주
하긴
성과를
감정
철수
교육을
그려
말아
축제
필수
글을
자세
착각
했으면
##파크
대로
베이
소설
나를
##니깐
##프라
실적
조기
국민들을
비싼
##질환
길을
물고
##호를
##재가
재명이
광우
##공산
때까지
에어
미술
친환경
앞으로도
강원도
부문
주사
##경을
나아
지휘
가게
하다가
##처가
33
회장이
민영화
방치
##리다
##리트
##인들은
맞춤
식당
애니
##운영
##st
##사람들
폭력
##하시는
##건설
실수
##en
##애들
일찍
##위의
##이네요
프레임
뜻을
여자가
국회에서
셈이다
시기
엔딩
장관은
##있게
연극
호주
모른다
개봉
세워
##쓰레기
중국에
5년동안
열어
##팀이
400
폭등
선진국
##안하고
##하긴
##해지
##아이
예고
재난
부분이
세상을
박용
봉사
부작
좋지
##으려
##단에
3개
##긴다
퇴출
지금의
불공
##거리는
가까이
수수
##기기
교수는
카페
##자동
##단지
거듭
굉장히
정은
신선
32
혐오
##드라마
##목이
##분야
김성
김대
기대된다
##통이
##형이
신문
컴퓨터
목소리
보복
돈벌
된다고
벌금
##리는데
오픈
쿠데타
괴롭
##가라
##ps
눈물
하려고
살해
연봉
혐의를
복귀
적발
##쓰는
차기
##봤는데
경고
충남
##스티
사이에
쓸데
조중
증명
포함한
하이
##마자
이달
##액이
앉아
죽여
##원과
시작했다
조건
환자
##대출
##자금
##스와
기준으로
대가리
암호
원인
충격
##한것
##진은
##곳에서
윤무
##달라
안해
##합시다
성폭행
저희
형수
2012년
연간
간신
때마다
##용으로
눈길을
뭐하냐
등은
효율
##사랑
정상적인
국무위원
명확
임시
자리에
##치게
가을
증권
안타까
퇴직
##가에
만난
##주인
멕시코
빨아
연합
채널
##드로
##명에
이것이
버티
2019년
다시는
검새
깊은
##만원을
개막
##비로
##투표
1점
##일뿐
##명과
##뮤니
검찰총
lt
윤씨
마이크
단독
법무부
바른미래
국민들의
어려움을
기울
제3
##차별
##산을
##계약
좋을
과정을
##지사가
##전에서
##석을
##겠어요
##오면
알지
오직
나라에서
기득권
그것이
승리
잘하는
##치면
상황에
대단하다
화려
##대상
기술을
포장
없지만
##세에
발달
##스탄
많아서
##실에
전북
##조를
뇌물
상황이다
주변에
실현
지적이
##억원을
유사
파업
걸린
안하는
##책임
억지
##정상회담
꼬라지
목적
지옥
어르신
##때도
전해졌다
키우
합격
##됐고
##준표
##40
##관에
하나님
선호
참으로
직후
그러니까
##사람은
4차
동남
흘러
나라에
##석은
타령
##저리
김경
아베
마음에
식품
지식
##해온
##위기
##성의
##었을
10점
무리
일이다
##ou
지원하는
형사
여론조사
광역
끝내
기억이
생존
탈원전
##능력
돈으로
상장
피의
##이와
창피
안되고
질문
파괴
##할지
아시안
모를
이들의
##공간
##말은
다니는
유아
멀쩡
소리를
상상
페이스북
욕을
추락
노후
당사
두려
영원히
참여한
올랐
##속도로
##층이
많았다
명령
활발
직무
##경영
있으
##가야
##정의
##행위
동아
##빨리
지역에
감기
##사도
수요가
저도
##주도
하겠다
달성
싶습니다
입고
향해
교회
넘겨
당연한
가치가
수정
의혹을
산다
상대적으로
안들
저기
최선을
크리스
##지방
생각은
괜히
입법
인지
##자들에게
##자체가
##쪽으로
쌍방울
##사무
걸려
상징
##진당
애국
태국
시장에
틀니
##세기
1등
전력
종북
##트워크
아무런
프로그램을
##공개
중국인
마케팅
만들기
성매매
##르기
프로젝트
##le
한거
이지
##사기
##되어야
##도와
남한
##류의
후에
누굴
방안
즉시
##사태
일본은
일도
역대급
홍준표
##총리
##당하고
##주지
두번
살기
하라고
##된다고
문재앙이
문을
중요하다
더듬어
나갈
센터
##이프
대표적인
데리고
입을
##일로
패션
한두
삭제
##차는
##입니까
비서
이웃
##인트
부활
소름
생겨
아닌가요
죽음
했다는
##아지
##ic
인간의
블록체인
혹은
##회장
하나로
인기가
수준의
강하게
평점이
문정권
유리
괜찮은
45
적어도
이것도
일본의
##공단
아이들
상호
##혐의
다를
##세계
2019
존경
새롭게
해양
연설
좋다고
팔아
밝히
만들어서
인하
비밀
최대한
미래를
화가
##하지도
뿐이다
##자원
사용하는
양성
분들이
작용
좋아요
분리
미쳤
부부
##시의
##드리
금감
##분의
스트레스
목소리가
규정
##장판
##단계
아이돌
로봇
호남
##향을
##우드
퍼즐
정부와
끌어내
믿을
옹호
물건
삶의
정체
좋은데
실험
정기
180
38
개인적으로
단일
실천
둘다
만날
대부분의
걸어
놀라
연령
##힌다
데려
죄를
세월호
##졌고
설정
없냐
##곳이
##었네
위원장이
##해봐라
##티브
하지마라
대처
수천
문자
##할거
##사실
##나간
##리티
있어도
삼성전자
5G
김종
서버
커뮤니
##님들
##업계
평가를
등에서
상위
집을
##장도
구글
오늘은
기독교
호소
진상
북한에
날이
##그릇
##역이
##페이지
htt
가끔
레이
##열이
##중인
시작된
출범
##전거
##아닌가
7년
KT
운행
떠오
일주
##재단
국가의
떨어져
장사
##지다
##타령
##하는것
짓을
경제적
길이
노예
법적
##수석
바이오
운운
복잡
예약
참석했다
계산
영웅
##세는
만한
하라
당부
어이가
문정부
죄가
##공원
##ㅉㅉ
부모가
현장에서
보지
짓거리
의혹이
박범
백악
재건축
효과를
오로지
나오지
설득
수능
##부터는
부여
받게
##동맹
여부를
##좋아
##연을
매각
##물에
행사를
##이라서
봅니다
진행된
차단
옮겨
초대
경험이
뭐하는
그렇다고
사업이
이영화
아니지만
국민에게
청소
##미애
ㄷㄷ
극복
관계자
정황
말이다
국기문란
##서야
어리
##되자
생각하면
추가로
##공동
##겠니
공짜
암호화폐
65
자기들
석열이
구라
그간
정상이
줄여
재미있게
진단
##겠네요
월드컵
기생
피부
##저히
세금을
재벌
회계
공무
대사
만남
##리면서
빠진
##공무원
600
보안
행사가
너같은
##인도
수립
필리
난다
들은
집안
힘들어
##십니다
##집니다
사람들의
정비
한화
우울
##용을
그렇고
펠로시
마누라
##했기
모조리
34
법정
공개된
보자
##님은
##하지마라
곳에
낭비
앞장
대깨문
어떠
연습
##프레
기름
##해질
박수
커지고
살아라
규모가
기재
의한
##종의
경찰의
##니가
##장관이
아닐까
천안
브라질
출마
##라라
##위원회가
안다
방문해
무엇을
우주
가족이
##여행
##줘서
러시아가
그지
난민
못한다
살려
##는다고
주민들이
감방
근처
터키
고작
낫다
민주당의
150
교도
무한
##패스
기대한다
IT
시범
체포
맞추
안에서
##국을
한가
느낌이
결제
뒤에서
비추
##으라고
정치권
스타트
무기징
그에
비속
위로
##∼1
있었는데
##하겠습니다
미쳐
반대로
확장
##하겠지
제공하는
원작
##스런
5천
옆에
##테크
##았습니다
##했어
##아내
사랑을
99
김은혜
오염
##해놓고
##구먼
##학력
낮아
달고
죄명이
탄생
감독의
드러났다
혜택을
##해지는
##처벌
자리에서
한데
##품이
재미가
##해지고
##률을
일으키
박정희
이내
기자가
들었다
면서
환영
##재판
사서
권력을
참석해
육성
일부러
악화
##때문
##러워
말만
맞게
이승
##조원
미국에서
##내내
강요
들어간
시민들이
있으나
방어
한국과
인간은
디자
바라는
최우
걸쳐
뭐라고
보게
언론에
연예인
##지자
##수에
이끌어
몰라도
시군
자치
고등학교
충성
성적
##한지
이행
##후보
담은
발악
배려
시간에
인민
입에
교육부
이어질
간담
주의
기도
내다
언젠
호구
##리라
CC
메이
치열
나라꼴
부채
시나
##교회
##가격
대학생
4개
왜냐
##만도
##평등
필리핀
##물고
##민주주의
모으
테러
한강
##시로
출입
##에겐
안될
의견이
끝날
마트
처음부터
1시간
같음
경찰을
문제로
했고
유명한
아웃
털어
##아는
선출
인성
##운이
태극기
기온
개고기
때도
여의도
정답
설명이다
외교참사
오지
초딩
##란드
줄어들
##놈은
##보지
담겨
클럽
##대에서
너가
민정
##70
##학을
성추행
응급
이틀
##는구나
감독은
우습
장르
2찍들
일베
예정이
외치
유전
전정부
나에게
뿐만
##들이나
기사가
##있으면
##∼2
거예요
박살
##무시
과도
생각보다
실시간
저리
전직
기업들이
대한민국은
죽어
발사
##관의
##길이
반박
여성이
급격
뭐야
절차
##짓거리
부실
심리
참사
##선수
##조정
바이든이
안나오
##답게
당한
애들은
은퇴
##모델
전국민
겁나
##때마다
##그리
조중동
입은
앨범
아르
큰일
##행동
##든가
거론
##땜에
해봐라
삶은
예수
##때부터
반려
한명
중국산
못하면
축소
쓰레기들
국토교통
김동
##르지
머리가
유도
폭망
##였고
가동
개별
것인지
손흥
##하면서도
법안
##잡아
아버지
뒤집어
순수
해명
나타나
집어
##교사
안맞
##ㅜㅜ
##성애
##예산
단어
##구석
가자
다운
어릴
##개선
##때까지
분들
싸우
언어
##된다는
꼴통
때가
맘에
##년간
고맙
우영
##었냐
##셔야
언제나
참여해
게시
돌파
유일한
인물이
중립
##상과
도덕
##당과
##력과
이번이
강경
##보세요
갓겜
이죄명
안가
##정도로
5개
##피해
##쓴다
사립
##란히
##죄로
폐쇄
프리미
에이
##니아
있는거
정책이
김진
말레이
##른다
그것을
든다
했어요
##이던
##전은
알려진
##저기
##이라며
갖다
막을
##판을
##무를
점이다
최적
##배가
31일
상영
##거리가
영상을
주제에
초과
##좌파
이나
##ew
수준으로
수작
갔다
연말
##해주고
검찰에
따뜻한
IM
##지에서
열린다
##았네
내린
둘이
##력으로
쪽팔려서
늘고
만들었다
수박
스릴
말한다
##해줄
자전거
라며
이득
태어
##처를
계획을
##권도
##리스트
##버리고
##팔이
##나와
정도의
KBS
체계
##상담
##하고는
아이폰
공기업
##시부터
가볍
뜨거운
평택
퇴근
중국과
미디어
이혼
투명
##기구
필요하다는
가능성을
눈을
뒤로
압도
지지자
풀이
##금은
##it
오랜만에
주제
방법을
오세
짧은
영화의
A씨가
넣어
할줄
2011년
여가
조치를
올리고
어지
##됐던
##건가요
조문
타격
##데이트
분명히
##돈으로
##박한
그를
##법은
##루킹
정권을
보세요
소환
요리
추미애
않음
주주
##가며
##참에
변화가
잠재
정부에서
올해는
데뷔
비중이
강릉
역사를
절대로
지역에서
##소리를
##워라
진행된다
존중
##국으로
##였습니다
가구
끝에
사유
##급이
사용할
커뮤니티
##군의
2만
올바
겪고
얻어
##시티
건립
매번
통해서
기술이
52
##댓글
대표팀
##다리
##많이
##안보
내용은
##아니고
Pop
경찰청
김기
않지만
##테타
##이었던
특징이다
구체적인
잠시
##테니
엠비
의도
입증
##비에
2010년
수학
##표를
사로
핵무
##생을
아이를
시민단체
있는게
경기도와
철도
##망이
개방
광화
음식을
##법에
일본에
극단
자료를
준다
국방부
감시
알아야
방법이
수치
하지마
국내외
기타
제명
하반기
실종
시장에서
깡패
말할
버리고
전원
맘대로
스페인
그런거
##만하고
##줌마
확인할
상반기
##벌레
공연을
##지능
##물로
##력은
부담이
출전
##기면
##나네
현금
##비리
##연구원
교류
방해
보유한
친일파
것이고
책을
시작으로
세계적인
제정
기대를
##장면
##화는
##편이
가짜뉴스
계열
국민들에게
https
##양이
탄압
##돼야
3차
ㄹㅇ
김혜
보인
핸드
##re
동남아
말레이시아
가치를
장모
홈페이지
재미없
##으론
총리
있음을
표절
##있지
30대
2030
보냈
올리는
서민들
아프리카
동료
##법인
##버렸
##앞에
예전에
##위한
힘들다
복합
김태
쉬운
##아님
##하이
자빠졌네
포항
행태
##선에
선수들이
정확히
대상이
용인
지껄
하야
##가게
##리냐
##함으로써
늘어난
##바이오
##재산
유발
##시간에
개의
##정부는
##하라는
해야한다
발표했다
2020년
곳은
주어
##피스
동반
성인
##정으로
되는거
##았다고
##럽고
필요하다고
중국에서
전부터
팔아먹
##됐다는
사람들을
꼰대
했을
##식의
##벌이
##he
갖춘
개그
충북
특혜
해놓고
남자가
##전으로
그것은
받으
폼페이
대해서도
##성으로
##건강
##트에
고급
박원
맛이
##기능
역겨
잘한다
##증권
##년이
발의
##의료
보완
제정신
##기자
여기저기
품질
의미를
대부분이
할까
##서도
##놈의
업데이트
##탄압
중국을
이미지
분이
스테
체육
##거같
폼페이오
메뉴
##우디
##친구
갈라치기
37
급여
급증
아깝
##독재
2천
후속
반대하는
더럽게
##하시고
##장난
PC
##리니
계기로
김학
남을
높이
하니까
##피언
발생하는
바른미래당
가맹
경상
행위
외교부
자국
종부
종료
파면
##화와
##이사
##조치
노력을
시대에
조롱
마시고
좀비
하더니
##율은
들어가는
이참에
밝혔
##거리를
개나
고정
느낀
시장을
허가
고쳐
##넘들
경기가
북부
##개로
쉴드
##시장이
매달
##00원
이용할
대충
소리가
예능
다이
있었지만
믿는
같네요
차원에서
##나보네
##처분
시장의
사례가
2000
되냐
우린
##주에
##한테는
##60
관세
##하에
방지
##보도
민심
아닌지
나은
출석
이익을
##시간이
뮤지
소식
##해준
국힘은
각자
견제
돈은
어떡
즉각
폭탄
##가다
당신을
그만하고
고등
떠들
행동을
구성된
오를
##미를
추구
##사이
##날이
##싸움
##끄는
감당
서서
##돌이
싶어요
뛰어난
시나리오
비중
많네
부모님
설마
원자
##됐지만
검찰의
소상공인
가계
경상도
특허
##전과
##신문
##분쯤
건지
망가
따라서
##업자
##알고
##특별
##아니라
우수한
부적
죽는
##네들
##겁게
확인됐다
보내고
귀여
##스키
지내
##졌다고
부대
##거니
##스에
저소득층
합시다
회사가
무기징역
살다
유입
현행
##여자
오늘도
이런게
좌파들
주사파
##동의
맞이
배운
되어야
하나가
##연히
구간
부품
이재명을
대책을
##mp
197
도심
선전
##부한
수소
알려져
내리
자존
기록했다
씨는
##았으면
##봉사
김치
매수
##사업을
정착
##겠는데
국민대
국민세
대통령도
방탄소년
##만원이
바퀴
뿌리
협약
##하는구나
적극적인
저지른
전공
##상승
전교
지연
피곤
항의
##우기
##활동을
본격적인
기계
대거
집계
##진의
##것만
xx
붕괴
태어나
로맨
무당
유기
일방
##시와
##지나
4대
수영
##씨와
때문입니다
그렇다
독특
##분간
##인권
발행
신체
붙어
멀리
종목
##재를
##션을
문화를
당하고
웃음
죽어나
##당에서
##원들이
씨부
사람들에게
행복한
##무가
##체험
깜빵
대학교
##줄이
이야기가
약간
아니냐는
열렸다
지는
행사는
##범이
##월드
51
##감도
##계층
##천지
찬양
##지며
##질은
기각
##쳐먹
농촌
매체
투자를
문재인은
간호
건의
졸라
중독
칭찬
편안
##익을
##직을
75
핑계
##선의
##군은
현실을
포함해
서초
곳에서
네트워크
##비아
친구가
매장
합법
사업은
##평화
노동자
미래가
유포
인용
##치료
인공지능
전형적인
IC
신분
출동
##위에서
##함과
다름
돋보
시장은
앞뒤
관련한
쥴리
##종합
재밋
짐승
드루킹
사람에게
##바다
##해져
55
주장이
한참
사회주의
있을지
##되나
##후에
것이에요
이제와서
물타
바쁘
한마디로
민원
편하게
##책을
##객이
##80
도저히
인데
주지
거기서
쯧쯧
##동물
국가를
계기가
보일
향상
##현이
##해서는
가로
##되냐
##감은
10억
한다면
지방자치
##아니냐
아들이
했는지
후보가
무료로
게다가
산불
인프라
종사
정부에
2개
재개
한게
주목된다
광우병
욕심
이따
아니라는
IMF
##이너
##상품
등과
장비
총장
단축
차이
##아리
##종이
단순히
가상
끝났
현직
시키고
문통
번역
스토리가
인건
##와는
##말도
##았지만
받아들이
시내
되나
##살이
세일
##덩어리
싸이
정신이
이어지고
유력
잡을
떨어질
김대중
김현
##권에
이용한
장제
##여명의
대리
##면을
구속영
싹다
점도
편집
혈세
##분은
준석아
기원
속도
해주세요
##력에
모임
트위
활약
##관과
피해자가
2009년
것들은
안산
##니터
41
이정
##마니
정상화
40대
몽골
미만
학원
##지구
##생산
민주당과
정신나간
발생했다
목숨을
강간
##이기도
이정도면
받는다
시킨
##이게
추진하는
시켜라
어우
##할것
##내서
##하나요
선생님
맞은
물리
외환
힘들게
올랐다
##잘못
아이디
우리나라가
위원장
제외한
##사인
##역에서
##만으로도
경기를
밥그릇
이때
##시작
##설팅
보급
연관
북한은
돌아가는
나불
조절
##배를
당이
첨단
1심
1천
놀이
집회
함부로
##경쟁
##조사를
검은
물을
보육
맞춤형
분열
관계가
확진자
나아가
박지
보다는
특성
사고를
가시
##동네
이유다
개성
달라고
박사
##기전에
##는거임
##수와
분석했다
활용해
교수가
내에
재활
##근로
리스크
보관
이끄는
종전
##웨이
무관
지인
당당
##만든
발생할
점은
느꼈
민주화
코스피
밑에
중도
##제의
##래도
##다는거
CCTV
소녀
##지니
##다니는
없애고
배신자
##스티벌
당을
수비
이낙
적응
지원이
기능을
고향
소화
할배
##대비
##피아
사회에
반전
정지
고기
꿈을
동해
##안되는
부진
즐기
향한
##하자는
과학기술
39
EU
선임
##종을
민주노총
당부했다
못된
부추
식으로
나가서
듣는
행정부
##재미
관계를
직원이
나면
말에
선수가
의문
##박이
콘서트
노사
표시
##번에
하는구나
전문가들은
##자동차
수석
어째
사랑하는
요구하는
우즈
이름이
귀가
좋겠습니다
##워요
부끄러운
공통
바뀐
옳은
볼만
비율이
음성
잔인
##티스트
아이고
##정과
##렀다
정권의
명품
부처
연기가
분위기가
재밌다
진심으로
광화문
금방
올림픽
2008년
몇번
시대가
##봐요
경기도의
그만해라
고집
배제
##했으니
빼앗
입국
##아주
정도가
잘못을
조언
##민의
##봤자
XX
살아남
##량의
##연맹
거짓말을
##판이
정신병자
치료를
##생에
문제지
요즘은
공영
다루
않아요
##메이션
목소리를
제로
##최고
사이비
경력
##물질
##통을
##야말로
당초
뭔데
스타일
불리는
##심한
무시하고
있었고
구제
서해
##인상
##단으로
##빠진
하셨
##중공
##장한
2시간
싫은
악의
좌우
##타격
좋습니다
창의
##줬다
120
직전
합동
##쪽에
스타트업
##내용
##클럽
문제인
자격이
부상
##혁신
##토록
나선다
나대
숨진
##가도
내에서
무게
속이
찾은
끝나고
##km
김용
보좌
안하면
비즈
건데
남성이
뻔한
점차
com
드는
며칠
##인에
구청장
수사가
의식
##카페
아닌듯
경제를
##세상
고려해
먹은
표준
##망을
사로잡
고교
양반
##음악
하나같이
##수있는
걸렸
국격
목적으로
제약
##연기
넘쳐
놀랍
놓은
떠올
악질
##전략
내려와라
상환
나라냐
이준석을
조선일보
한번도
곳으로
죽이
하였다
##받았다
위원장은
공수
변화를
일대
##망신
일관
고스
입으로
평범
##버리
시기에
보낼
##모를
##리는게
세뇌
없었던
진실을
후진
이용하는
도박
질환
챔피언
##훈이
아시안게임
모색
##메달
날아
##출산
##했다가
본인의
##직한
들어갈
있었습니다
끔찍
##하하
배송
석렬
챙기
영화다
수사에
착용
##되니
건강한
살아야
외면
이겨
탈출
하네요
2억
너나
하는건
성폭력
58
말라
지겹다
강남구
갈아
의존
전라
호흡
##것처럼
##프로그램
거대
##만하면
##주행
##등급
##협의
학생이
기존의
가려
거품
기후
의뢰
취득
탁월
##대문
##표가
##됨에
##느니
##교체
공기
듯한
안됩니다
고시
명절
##화하고
##살인
##사람들이
고의
마땅
분석이
패싱
##자리에
고객이
적합
##해진다
##였음
높아지고
##십시오
##스테
발언을
##ing
검사가
남는
화물
세계에서
뇌가
##부족
##감한
##러진
CE
갤럭
##시켰다
철회
자유를
ㅇㅇ
비정
지방선거
나락
미치
연방
하노
##자산
되길
전쟁을
간의
갑질
권리
마인
이화
##사용
수준을
내용도
아까운
다르게
신호
유해
##유예
않았지만
무섭다
신한
안좋
팬들이
##졌다는
사업에
객관
빨간
산림
##파가
가능성도
개설
즐거
##가스
##선에서
##배상
스크
질질
##호텔
##민족
##꺼다
만들어야
탄핵이
감싸
법과
손님
외에
찾을
사회가
동참
##차이즈
##영웅
시스템을
43
심한
양국
##하더라
##오염
##순간
들을
지은
##치로
현대차
시점
운용
##학습
##고한
어떻게든
기획재
되기
마포
멸공
##시즌
##감과
##oo
지어
##화점
##법으로
##버그
##부채
##동에
이재명의
너를
##놈들은
이외
경험을
정의당
공작
슬프
##대와
42
얻고
어쩔수
죽이고
##100
##내려
이른바
결승
안전한
이탈리아
핸드폰
기분이
동성애
수리
영구
해먹
##검찰
대통령으로
##하기는
감히
나랏
##정당
##있으니
##하다니
파견
다르다
기어
깔끔
재미도
나만
##문학
이번엔
어려울
보여준
웃긴
##리즘
팀이
##면에
불공정
##졌습니다
##었는지
##낸다
지상
친중
통상
한동훈이
선사
잘라
##경은
모르나
2배
마시
아픈
익숙
국힘이
1회
거냐
##적으로는
유행
##일도
떨어지고
발휘
성능
앞둔
화성
공연이
디스
##나니
미국을
개인의
50대
독도
안팎
진작
자연스럽게
나가는
어설
평등
##원도
##고는
부담을
성격
죄송
침해
전작
##개국
##승을
우리에게
생각도
줄이고
##하든
알았다
영양
##기나
업무를
머리를
부당
##미는
##화하는
##됐으며
범죄를
재미는
분위기를
불가피
##액을
정신차려라
않냐
이주
장소
##드려
##하노
##너스
공무원이
패거리
##데이터
가지가
불리
사우디
작업을
##상식
##계에
공개했다
스파
의회
##그라
##계는
##즈아
휴대폰
스케
##발을
박용진
간부
몸에
##하죠
##보다도
모든게
넘치는
달하는
죽고
##인물
지역은
아직까지
관여
중에서
##매가
자유롭게
하여간
재앙이
김명
모니터
증시
##먼트
작품을
##하시길
매입
이념
##어준
##했다면
김재
말하고
충청
당신에게
버닝
손에
용서
토착
여성의
인정하고
걸릴
나이가
대화를
막아
어마
이전에
있구나
##모가
참여할
가벼
계좌
광복
끝이
미치는
저장
조사하고
늦게
아우
한일
##으신
##선택
##내야
언론의
추석
파트
##준비
##자료
경우도
도지사
##여성
##하겠네
소식이
치는
달아
로스
일시
하려
##트롤
44
꼬라
둘째
소각
##대사
##실한
인간들은
때부터
뜯어
아티스트
##권은
##권의
내용의
걸고
리그
뭐지
##적이지
게임입니다
목표로
건너
없던
잠깐
이번에는
##센터가
오랫
웃기는
이수
이렇
테스트
##익이
윤석열을
##교육을
소수
##만은
증거가
올바른
amp
노릇
석유
영혼
전수
협조
호응
많지
오리
충돌
##거라고
2022년
제2의
교과
읽어
진료
##축구
주장하는
비속어
방사
한국영화
상태에서
안타깝다
막기
탈북
##량은
한국당
연애
##갑니다
진행되는
박홍
불거
예를
언제부터
무엇인지
49
강제로
##점검
##순환
##위원회는
않아도
본격적으로
46
동생
재수
##XX
이런걸
그녀의
끌려
많을
토대로
##발이
##훼손
기사는
의결
##단과
생길
작동
##늦게
거리두
전망이
병역
행안부
##∼20
방향으로
면접
역겹다
##재밌
10시
발전을
대답
산하
유저
종로
지출
클라
##자유
전망된다
화려한
차를
##인에게
##슬람
맡은
야구
주한
의사가
창원
##아냐
##하던데
집값이
메시지를
그다
스팀
했지
다큐
박탈
주면
##가면서
##구멍
##으로도
어디로
느끼는
기생충
소요
##주니
##든다
아기
##방에서
##플레
부정선거
현상이
##성한
##워야
##하고도
하지말
기다려
없네요
오토
유니
##혀서
환경을
없애라
풀이된다
원인이
적지
지금이
검사를
나설
돌봄
아이템
읽고
실시한
이벤트
한인
##으세요
##들에게는
욕하는
##지네
##되게
영향으로
기아
나간
보니까
정진
주력
차가
조금만
재무
저건
둘러싼
3대
서류
시발
요양
한정
##가자
비트
##차로
##봐서
유동
쿠테타
끼리
인사를
클래
##ST
대대
위하여
총리가
코리아
##재로
##카르
무릎
저딴
후손
##세다
##농업
자신들의
하루빨리
뭐하나
파티
일주일
윤썩
상생
##신도
##실히
만들어진
자유민주주의
동영상
멀쩡한
##으러
부회
분탕
수집
안한다
##북부
건강보험
제조업
##드만
##싱턴
지들끼리
리얼
##선으로
##타고
##받지
문제에
##을까요
인생을
여유
즐기는
196
긍정적인
드러나
##되는거
위험한
800
목사
회장은
##색이
##허가
국민과
현재까지
막말
비례
잡는
##중에도
인간을
지속적인
유튜버
내야
당일
언론사
선포
없도록
탑승
##접한
일자리를
측이
##부장
사람들도
알았는데
남겨
드디어
또다시
자진
정규직
크고
##령을
억지로
##소한
##이브
##신청
##코리아
확인하고
질문에
프리미엄
1위를
외에도
찾고
##스팅
##론을
##추진
##센터에서
##화의
트위터
감성
미개
적절한
없게
워낙
윤짜
자리가
분야에서
능력을
한자리
##서의
무려
보존
코인
많음
엄벌
##아파트
##공산당
균형
##19
경제는
꿈꾸
아줌마
##👍👍
스트레
국산
높게
경우에는
##그런
결정을
대국민
의지를
일하고
중고
##하더라도
##am
없어져야
구멍
시사
싸게
자발
접촉
유일하게
최강
##내기
부지
오프
##세포
##역에
##래기
9시
김포
업체가
원을
이같이
##없으면
장점
##연한
10만
이뤄질
보조금
명백
발목
연주
##거는
##키로
정도면
다음달
##해주면
구경
미중
##과제
미국도
돈도
하는것
대표하는
배상
유능
3천
공중
단기
먹어
##대도
망할
잡은
정식
파는
119
몰래
어깨
##낭비
정권은
공익
무상
##소의
##인데도
비행기
적절
##여야
구태
판문
##하느라
이어지는
애를
의사를
임신
지랄
##우지
##부담
##집에
재밌는
##때가
만만
해산
##행사
예산을
갤럭시
쓰지
자폐
상태다
활용한
상업
##드라
##등록
이러다
##장애인
깊이
##쇼핑
증가한
포함된
다주택
삭감
키우는
퇴임
##저씨
검찰공화국
버닝썬
벌레
##듯한
안만
유족
##기관이
사적
##인게
62
받으면
비디오
인종
하수
##가로
##겨서
##케이
모르겠지만
어디에
학교에
비용이
검찰총장
정도는
부탁드립니다
사전에
##기록
박홍근
결합
전장
##값이
의원의
곳이다
특유의
지지자들
대한민국에
이어졌다
##억원의
개딸들
3만
이길
토지
했냐
어쩌다
보입니다
소식을
착한
틀린
##하지마
대변인은
많습니다
육아
재능
주기
보내는
충분한
##지마세요
결코
면역
##하기를
비교적
궁금하다
몇몇
현황
##하지는
##하기가
민주당에
입원
##건으로
##스에서
##ver
사고로
물타기
군인
방북
자체를
건가
얻을
편리
##신고
##청에
##ct
##레이드
할지
할아버
##호선
##EC
사건의
개발한
KB
갑니다
무더
빌려
대통령에게
들어오
중간에
한미동맹
들려
연휴
청약
##신은
##무역
##마리
##크로
##들이랑
영화에
##우를
##타운
그러면서
놀아
않다는
일에
##소송
##였지만
##정지
경쟁력
개돼지들
운동권
누군가
성접
스피
오면
자아
징징
평가가
국내에서
놀러
이메
##린다고
못함
얘기를
임원
항소
##것같다
화장실
노력이
메르
욕하고
총질
포착
사회의
않는다는
화장품
심의
월세
충전
처벌을
무혐의
##부인
##모르
##합니까
윤이
청와대가
확실한
오세훈
더블
덮어
막장
비정상
철학
테마
하도
##주년을
워싱턴
##폭탄
##메디
지지를
부끄럽
국개의원
하더라도
기대가
조금씩
탓에
현장에
##하는거지
다수의
문가
##해왔다
##석열
경찰들
망하게
학생들의
60대
넘어서
못해서
베이징
몸을
##있다고
초등학생
머물
##로도
##인척
1명
A씨
안쓰
전파
##으려는
##해졌다
##적은
##트리
그러다
책임이
개돼지로
권고
망쳐
##단체가
국정원
총선에서
교환
뭐니
이xx
장례
##도안
대다수
소중한
##름이
되었습니다
추종
##보복
정치가
깜짝
요새
얼굴이
차지하는
원희
##만들어
##용차
##션이
##더냐
기업을
진행됐다
학교에서
사과를
##테인
일어난
구현
내릴
다스
아끼
앞세
영업이
절차를
중학교
즐거운
참모
##스파
불쌍한
개뿔
그중
분류
##누리
##풀이
재미있는
스토리도
것인가
싱글
전주
추방
정치인들
북괴
##였으면
##수하고
##버려
박원순
마치고
올렸
임영웅
환자가
##결이
##줘도
정치인이
기다리고
싶으면
##자다
것이란
아름다
몸이
승객
식물
##것다
직원들이
기반으로
9급
급등
3억
막고
##걸까
##넘이
하나는
아는데
즐겨
폭로
##∼3
어려움
어떨
이성
##진과
##겠습니까
내놓은
떠나서
잔잔
포스코
##견이
공개한
방문한
시키는
대형마트
망신
벤처
일각
다음에
개인정보
윤통이
커녕
##인사
##bs
10개
수습
##공장
##하는거야
각자도
해주는
여행을
윤도리
##해야함
추진하고
공정한
영장
좋게
준서
한계가
편의점
불확
##바리
##호는
지불
채권
##않고
물이
보증
천공
##지수
##았을
형태로
만났
10대
선도
시켰
세계적으로
애니메이션
욕먹
이들을
임직원
미성
원숭
좀더
##잡이
##분들이
일정을
줘야
##00만원
세금이
어느정도
놈들은
비호
이쯤
팬들의
아름답
끊임
여자는
이죄
이슬람
##🚬🚬
사건은
##보유
지역을
기사에
논의가
종부세
6개
마감
##론이
##답니다
##좀해라
먹으면
##체계
##es
이상민
들어갔
그런지
시골
현상
하나님의
경우는
김정숙
설문
제도를
타임
##폭력
##is
부분을
가중
나경
##어져
##TA
단순한
##선은
##감사
##놨다
보건복지
딸이
##대응
뒤를
체크
허구
힐링
##랑이
##트랙
##왔던
모인
##치한
어케
##시요
##부문
##합의
##😱😱
뚜렷
안되지
업종
에게
재명
채워
전망했다
완벽한
내각
이대
치우
##반대
대통령님
늘어날
에어컨
배가
요소
##해봐야
결과에
그릇
수급
##스럽고
한겨
##인멸
수수료
민폐
지분
하던데
##맞고
그런가
평가했다
감옥에
자본주의
선제타격
못차
##사령
오죽
##잔아
##에게도
문제의
돈주고
애기
##인건
##웠던
그러고
2007년
사이트
전쟁이
쓰면
오르고
점령
인간아
수사권
##기업이
살면서
올라가
##치의
##펀드
이런데
이상을
금융당
갈등이
식사
##할게
##심사
사이에서
꺼져라
되겠네
##소시
##재는
##농단
재판에
같네
늘려
당첨
모은
싶어서
찍고
티켓
##드니
##이죠
##질러
가격을
아마도
허위사실
말아야
명복을
인구가
##률은
47
내지
합병
##모습
##집을
##촬영
서울의
보이스
승진
##봅니다
##릅니다
아쉬운
스티
원인을
프로그램이
곳곳에
만세
받아서
쓰러
영끌
##있습니다
##ion
##시간을
보여주고
A씨는
매주
상당한
선박
썩어
입맛
비용을
과정이
신중
올렸다
할만
##화한
##올림픽
손해배상
북송
만나는
뮤지컬
머리에
북측
뽑았
사교육
##졌는데
##리핑
상품을
장면이
1개
이은
좋아서
채택
파주
##작품
과태
서양
한남
##관계를
다섯
도쿄
##해봐
##관계가
##억달러
함께하는
삼성바이오
##연구소
가질
날씨
손실
안하냐
##심의
##혁명
언론탄압
교통사고
정부를
7시
##ed
##정권이
원희룡
수여
신흥
##풍이
머저리
이시
하나요
반응을
마친
부천
배우고
하여튼
써라
에너
착수
##서로
소위
##해양
##없는데
##속으로
본인은
가난한
개고
골목
보수가
위장
포스터
하겠지
##달아
어떠한
당분간
세부
싫으면
애가
좋았다
좌좀
해줄
##들인
철거
##보며
##그만
##얀마
소년
옷을
유죄
##력도
##마냥
우리나라도
마주
준공
컨트롤
##축제
##키스탄
##구니
##값을
고민정
낮추
라인
일삼
##되었고
노래를
법조
스웨
##이구나
##질의
싶은데
##PG
국가에서
정신을
##정부의
나섰
보며
컨텐츠
컨설팅
하청
##바라
##시장은
##보건
##둥이
가졌다
인명
처먹
##가구
어쩌고
최신
##기다
##줄알
위원장의
유투
있네요
화학
##불가
##곳을
집행유예
##사이트
##식과
2시
대안
성동
시정
##터테인
##토리
##빨갱
문화가
앞장서
저걸
비서실
놈은
웃고
##et
결국은
불편한
부작용
더한
보네
부총
패널
##러가
##닫고
영향이
저렴한
김원
얻은
침략
팔고
뭐든
상속
##모로
정치경찰
비즈니스
건조
인가
탄탄
##있을
10여
북한과
주둥이
것이라
명분
##요일에
##음에도
하나하나
그러게
뒤통수
변동
부부가
사찰
안되면
하겠다는
##미나
##보이
면허
트렌
##국인
국가와
현재의
##이었는데
계약을
##티즌
두산
아는게
표적
하늘을
독특한
반등
##처먹
##정책을
걸로
격려
없어도
잇따라
점유
##에다
##였다고
내려오
이르
입시
조사됐다
비대위
김경수
공을
너거
보다가
##물은
##웨어
윤석열과
날려
원활
이스
##는것
바람이
매출이
4분기
것만
엉뚱
할때
윤석열의
필요합니다
분당
안할
##퇴근
언론은
경기에서
다해
위안부
##못하고
국회가
증거인멸
원장
잊혀
민주당을
어렵게
그날
어색
##라는게
운영하고
올릴
짜고
추적
텐데
##라며
##자식
48초
4명
길게
데다
말자
##급을
##케이션
##감에
##시설을
비판했다
이낙연
강추
증언
한쪽
만진당
미얀마
중증
##철도
방향을
넣고
찾기
##국에서
##질에
##ED
공부를
창작
흥행
##FC
왜냐하면
벗어
비하면
윤미
정수
##네ㅋㅋ
기준을
쓸데없는
과도한
신도시
진지
##나이
##못하는
피의자
간편
전당
쪽으로
진행될
24시간
가즈아
속도를
식민
##하의
지금이라도
러시아는
정상회담을
노잼
매도
열면
##11
##로만
나서서
기자회견을
1층
목격
불량
파렴
##례를
##담당
갖춰
공시
나토
허리
##00만
진행하는
기준이
구체적으로
ㅈㄴ
집으로
##두창
우습게
2명
조현
##종일
이해를
증가하고
대중교통
사안
오르는
왼쪽
##벤처
사실이다
상태로
배터리
위대한
창조
##기한
##회의를
있는가
계속해서
시켜야
에서는
##치에
능력도
선배
저학력
한층
##마가
##광역
노조가
강의
중반
진행하고
문화재
행사에는
가슴이
CEO
건보
불어
지사는
참신
경기도지사가
사실은
여론이
뻔뻔한
귀엽
대량
미칠
벤츠
저항
나오는데
차지했다
모으고
미성년
##였어
이제야
정책에
대책이
경계
동기
스페
##현실
대한민국에서
빕니다
삶이
##나도
##속히
##약품
경쟁력을
행사에
전교조
베네
##건에
구역
복원
죽일
제품이
##은행이
넘들
면제
애쓴다
##중의
##팀은
우리나라의
그녀가
철저한
케이팝
오랫동안
않아서
이쁘
현장을
무역전쟁
관람객
공략
매매
버려
불륜
시달
없기
적정
##하기에
이해할
위험이
성형
일할
종이
통보
##졌지만
고용노동
기무
심화
엄격
##겠군
##뿐이다
##옵니다
판단했다
힘내세요
높이고
만화
손잡고
은혜
##서와
##각을
물류
기업에
각자도생
시선을
##즈를
더듬당
바쁜
사드
생기는
시대를
여태
##데이
만든다
받기
사장이
캠프
활성화를
##주인공
파트너
당내
안심
측정
##사범
##령이
##속에서
부장판
상임
##치도
##겠구나
##하는거냐
권성동이
연기를
##하가
##설이
##고에
##수지
##애들이
아이들을
재발
좋음
##공연
##생명
10명
구형
소외
외무
##공자
정말로
국가대표
수면
저출산
조카
걱정이
해준
##견을
##목으로
지나가는
일으킨
수의
자는
##결을
##회의에서
분야의
##꼴통
대해선
굥이
왜이리
5억
것보다
마구
방영
이간
##아들
##졌던
경찰과
가볍게
침체
티비
##있어요
##참여
아이디어
집무
그리스
못하면서
싶지
한나라
##없지
##였네
비정규직
거두
대외
셀프
##바람
##자마자
##배는
소비자가
3D
56
열었다
##님을
##되길
넘어가
부끄러
계엄
내렸다
아파
여기는
작품이
국세
술을
에스
잘살
증상이
할말
##전의
##임에도
##위원장이
기본적인
겪는
써야
##환자
##외로
서울중앙
##전문가
손바닥
접대
##시지
##순위
공론
북한을
국익을
물려
입장에서
##사진
중심의
말하면
신임
오만
##살을
##구리
교육이
##하겠냐
기간이
근로자
담아
천재
할일
비판이
사망자
죽인
##서울
보고도
보여준다
재밌음
얘기다
늘어나고
##ol
부분은
고속도로
파리
##부부
일어날
스웨덴
네티즌
세운
아울
주범
피고
##이유
##래요
막상
맞을
성별
##없어서
결과는
서비스가
6시
모여서
상습
의장
재배
프랜
##없다고
##되도록
기업은
SBS
공화
꺼내
뒤늦게
장식
지목
펀드
##인력
이런건
사용한
음악을
많다는
확충
나빠
난이도
연루
이르는
사건에
이뤄진
기능이
실질적인
검출
되게
방식이
소프트
위법
인류
인스타
##롭고
195
격리
메인
박물
시는
지사
조사한
권력에
신뢰를
##라스틱
85
가이드
지긋
추모
##람회
##il
있다가
하루에
공동으로
단체로
넓은
법사
판사가
##당으로
##평양
좋겠어요
53
따져
치명
있다며
검사는
웃기고
찌질
##시켜서
무정부
변명
숙박
않기
영토
##락을
무서워
##유치원
기관이
높고
숨겨
의지가
헤어
##가입
##잡을
##보증
2주
나눔
만들지
##사람들은
공간을
누적
심심
야외
##지는데
##터가
정치에
경비
널리
비하
##나가는
##렸는데
지구를
잇따
##았다는
##층의
##납니다
대한항공
상용
수업을
유쾌
##어는
우리나라에
말라고
법원이
부드
실업
줄줄이
##철수
10분
기록한
엄마가
석열아
불확실
강행
시공
##자본
##쳐라
##꾸로
가능할
##지않고
거기다
북미정상회담
5000
와이프
지났
##질로
##료로
난이
살짝
죽어도
진영
##포를
마지막에
목적이
합류
##반이
민정수석
발급
영상이
##앞에서
##렸던
지원할
무엇이
안타까운
2명이
같냐
무소
뭉가
신경쓰
김씨는
되면서
스위
청렴
포인트
해수
##지않은
손흥민
8시
주가가
돌아다니
전기요금
물에
숫자
싸가지
유독
적어
##식에는
##못해
없다면
스튜
아부
##15
무능하고
기억에
경쟁이
지도자
어서
잊지
전체가
##그네
기자님
얼굴을
방법으로
건진
##하실
##집행
돌입
망한다
사세요
스카
에는
연준
최창
텔레
##이한
늘었다
데모
한때
##이블
##둬라
00
시가
위기에
조종
##12
##중국
##같음
없는게
오래된
장제원
기강
##는거고
손절
운동을
##일으
건드
끝나는
세무
천연
투쟁
##나온다
신고를
밖으로
죽이는
##택시
사이버
냄새가
김씨
맛을
##하듯
지원금
고통을
남양
도가
사회에서
병원에
##받침
##시장에서
갖추
걸리
실태
여부
정규
##이면서
뷰티
비율
생겼다
입장이
살인마
반응이
감상
공인
하태
##해야할
소득주도
뛰어나
행안
사회를
정권교체
알려주
독립운동
누리
미니
비열
##구려
##함은
##un
분석이다
희망을
종전선언
구상
문학
##대기
##협의회
사진이
무서워서
이재용
고문
기자들
꼼수
날뛰
불만
있긴
##물의
##라운드
상태가
김민
자문
##비와
##편은
250
법무부장관
내다봤다
붙여
만들었
정확하게
뭐하러
한사람
진행되고
인터뷰에서
마찬가지로
되도록
소중
처분
##el
##연의
##센터는
최초의
##ews
개인이
신입
적게
할거
##어마
##급여
##됐는데
##포럼
역사적
54
개소
꺼져
송파
일환
전담
접속
거리두기
고성
끝나면
중동
코메디
장관을
공정거래
떠들어
속도가
지네
패스트
##았나
##쳐도
##받게
반미
얼른
##기소
대하여
조항
체감
할수있
##개는
떨어뜨
만나서
성공한
깨끗한
두드
발광
부서
사과하고
공수처
녹색
어딜
있습니까
침묵
혼밥
##거리고
##보면서
다리
반납
수구
연일
##포먼
##추가
##ch
##밀한
나라망
명시
##에서만
현실이
몰고
배당
성향
없구나
인식이
잘해
차관
##패를
어려움이
판문점
57
남이
몇십
인적
##소와
##데로
##치며
방송을
이것들은
성과급
멈추
심장
지닌
##할려고
##마나
##넘은
돌아오
망해
##사한
##번호
##권력
##이라는게
가해자
유형
참나
고양이
박범계
##임대
마련됐다
선택한
생활을
조회
한방
##있어서
100만
마지막으로
범행
우유
위축
투자가
##미술
##내라
지역구
살아가는
선정된
벌이고
양측
만들어라
판결을
떠난
이영
##이런
##욕을
평범한
불쌍하다
물러나
맞서
삼성이
열릴
##라엘
마음대로
아마존
기온이
프랜차이즈
##지인
##억원이
스릴러
부정부
##교류
20여
지원한다
가격에
자영업자
감축
근육
뭐하고
안달
했나
##소방
##일듯
##실험
##OP
김지
당하는
##전한
##비도
하는거지
서울에
된다면
김일
소셜
접종
##회계
##산화
활용할
성과가
노인네
고스란히
##되기도
##인생
역사에
구미
##센트
##군을
귀찮
아픔
##시장을
##면이
##전부터
##마디
말로만
김학의
되니
벌인
일당
정계
해고
##아니다
##하루
##부처
##까지도
싫어하는
눈빛
답했다
부들
이대로
##간첩
##겠는가
##년을
좋겠네요
쇼핑몰
뮤직
부각
##로그
##있던
철저하게
59
높이는
맞음
분쟁
사시
영역
들어도
##시장의
당대표가
거세
길거리
살게
워크
주장을
##양을
살면
중장
##미로
##이치
##보게
##노릇
##마크
##편의
이게임
원내대표는
봤습니다
치안
##아웃
##판매
연구원은
아쉽다
눈물이
탈탈
회장의
##탄핵
##확인
11시
바이러스
행정안전
3000
4시
샘플
전후
##청장
제공하고
최창식
상처
안먹
##통에
##스포츠
비트코
곧바로
해상
다음은
무덤
안하
##보로
##자격
##렸을
제기됐다
같아서
넘은
등도
배현
비록
잃은
##일자리
##억원으로
부자감
타이틀
담겼다
약한
자라
모르냐
휴대전
거리가
노선
매니
##위반
##나갈
##만원의
너희들
상관없이
국무위원장이
마냥
오류
태권도
##까진
##인것
##부에서
##변호
기자야
벗고
부통령
암튼
지경
청주
한해
주민들의
얼굴에
기획재정부
구직
배후
분들은
##디션
사람과
치열한
과제
냈다
높여
무사
배웠
행동이
##넣고
##듣고
국가에
194
미래에
상식이
이로
초래
##무는
##편을
남편이
이스라엘
순위
양도
얘는
전락
충족
##ay
진행한
던져
드론
보행
중대
##하진
##런스
있을까요
바퀴벌레
여겨
저정도
최순
##박물
##알바
##하였고
감빵
낫지
내보
신축
연기도
##나온
##걸고
##연대
##싫다
이상으로
관심도
분석한
지나면
국회의원이
가관
잡아서
##공사가
##음에
일반인
##생활을
판결이
tv
거대한
뒷받침
버린
영입
의정부
쳐먹
활동이
##림을
최고다
청문
##화될
##색을
##달라는
##된다면
전문가가
##하자고
##하시면
지키는
퍼포먼
포럼
한계
##통합
정치는
진행할
누구를
재판부는
라이브
고인의
편입
조장
##지긋
##남도
##박스
다니고
남자는
법으로
소장
온다
유관
추잡
##치면서
##싸고
##골을
있었다고
어디까지
줄어든
2층
모범
아가리
어처
표창
##대전
##림이
일본에서
진행한다
입장이다
몰라서
상가
색깔
예쁘
경기북부
무능력
국경
자들이
협상이
##차에
##돈이
혐의가
스크린
먹여
여당이
그딴
씨의
자제
제품은
어렵고
확실하게
동일한
가지가지
강도
맡고
문건
오해
유학
전동
##테고
제공한다
2위
똘마니
메모
점심
##호의
##접종
##다는건
필요없다
2회
김해
낙태
성장을
조차
차려라
포르
##한테도
재미를
소송을
세입
작작
편파
##한걸
##실은
모르면
세계가
문재인과
가격은
역사상
바람에
개통
납부
로드
부디
워터
행위를
##개념
##렬한
국회에
않았던
기본소득
데이터를
내리는
배울
##으셨
##재해
##중독
##히지
##기업의
##시키면
오른쪽
문죄앙
농민
원의
윤정권
즐겁게
##로드
##수술
이런식으로
만들면
댓글을
##시설이
좌빨들
관측이
백악관
61
감동을
못살
없는거
여자들
##화할
##방문
떨어진다
신천지
##수산
안되는데
각오
복구
안고
오고
##기획
예상되는
선택을
추천합니다
일자리가
꿀잼
올리면
차고
##면허
##형으로
생각하지
이후로
추진할
같고
##석의
##왔는데
모르겠네
받아들여
비교해
차량이
희망이
모자라
블루
아저씨
전까지
##평균
##세한
##용품
##마스
##년에
##id
##걱정
##들과의
마음으로
대체로
금메달
딱히
선한
배우들의
김혜경
거라고
규제를
더해
차세대
천벌
틀딱
편성
회수
후배
##써라
##ㄷㄷ
앞으로는
준비를
##어버린
간접
근대
동양
붙잡
우버
##소비
##일세
##등등
##렸고
안정적인
날리
이집
기업과
최소한의
한겨레
계절
도리도
빅데이터
시중
##쳐먹고
진짜로
##한거다
드라마를
공동체
어마어마
BM
경유
법치
정당한
세계적
지나치게
투기꾼
1번
7억
나갔
났다
말장난
소형
카르
##져도
경제에
증가했다
드리
법대로
잡혀
패턴
한창
##곳은
사회복지
교육과
찾아가
만나고
자율주행
그정도
돈만
많아요
물건을
##두로
##느낌
금융감독
깨달
나옴
될까
무력
사죄
쌓아
유권
##어지고
##재난
##세의
역시나
받아라
어렵다는
강력하게
똑똑한
지방자치단체
3번
됐다고
소규모
심하게
##실로
##갈이
빨갱이들
가르쳐
살지
오피스
##왜구
사람만
그러냐
코로나로
내리고
맞다고
이같은
##어지는
##여도
거절
##병이
현재는
우영우
예외
이준
청산
출판
취향
협치
##버리는
##현동
보고서
마련된
이름으로
동북
진로
캐스팅
##라시
##렸다고
8개
공원
관내
문의
##어린
##분양
##사업이
##위원회의
제출한
수강
판타
##사과
##지대
##줘야지
일본을
학생들은
관종
##영은
##키는
##치네
##부러
##겠고
##작을
##조는
##받아서
분야에
논란을
63
공시가
농협
무단
패배
##하구
##집이
##협약
가능성
느낌을
주목을
4개월
모름
부사
이순
할듯
했으니
##방은
##문화가
##LC
##시키기
모습은
재밌어요
누구도
5시
김어준
밤에
재개발
##트의
##겟다
##렉시
끌어올
밀어붙
라도
##내지
##더군요
범죄자가
민생은
강압
바꿀
법은
소련
안걸
의도가
주시
확신
##반하
정권에
##들만의
김수
내게
싸지
저축
##차량
##였다는
##연은
한국문화
대선때
관찰
##ea
##겠지요
정보가
방법은
끊임없이
듣기
마다
킥보드
##만명이
##그냥
##금의
설치된
움직이는
걸리면
말이야
안함
탈당
##조로
우리를
멍멍
세탁
##여개
가족과
차지하고
원내대표가
건들
또라이
주체
평창
##투기
이어진
휴가를
보유하고
어딨
오빠
##🤣🤣
최근에는
##시장에
##거든요
조치가
커버
모니터링
브리핑
서명
##RA
##겠음
##돈을
수준에
전문가들이
감세
위주로
융합
탄력
##발언
잘못이
계획이
사라져야
최우수
성접대
방한
##장인
##갈등
개선을
아침에
주한미
64
위기를
##시네
##소나
나라도
급격히
대립
묻고
서구
알아라
##수밖에
##나라가
개무시
도서관
##동강
##주와
##일지
아이들은
다음날
##교육청
해봐
##전기
##피싱
시간은
들어가면
##어들
##재생
##통화
서울중앙지
지긋지긋
무고
역량
자국민
지들은
큰소리
##한거지
##통제
##외과
지원해
##사업에
근거로
윤미향
700
DM
공평
무대에
##TS
##받아야
대표로
판단이
깡통
니는
줄이
집이
김병
대목
한은
자동으로
커질
하려면
##즈가
##으로만
의원들이
금융위
5세
방안이
수록
이사람
인지도
잡으면
##캠프
느끼고
가득한
이룬
크로
판단을
불을
해운
##어질
##기네
##스톤
전체적으로
윤석렬이
종로구
가공
귀국
노하
출퇴근
##진한
김씨가
플라스틱
시민들의
태어난
넘이
신앙
외신
위탁
이가
##지길
##주식
##길에
참여했다
3시
개같은
##수엘
경기도지사
조금이라도
3명이
독점
되는지
조리
재미없다
95
갖게
건가요
고백
노트
영어를
해킹
##사리
##시나
##깡통
세계의
기본적으로
젊은이
가속
가량
그놈의
매력을
알면서
잘난
적반하
##분들은
##gg
문화예술
선정됐다
서서히
나고
맡아
밀려
야당이
영광
하시는
회사의
##거네
##청산
##알아
정치보복
지역이
자존심
##카르타
김상
도서
되어서
똥을
말대로
야간
침수
획득
휴가가
##었으니
##조에
발생해
이것을
방식을
위에서
페스티벌
하려는
##당하는
##올라
선교
한숨
할말이
##급으로
##화학
##까지만
조선시대
국어
면담
풍부한
휘둘
##모양
있어라
##레이션
나경원
기쁨
##할텐데
##수있다
대표를
주관하는
인건비
고래
곳을
오바
##미사일
##면으로
##았음
맞는말
법원행정
공영방송
검거
사악한
쳐다
킬링
토사
할려고
##미터
최고위원
사랑의
과정에
늘어나는
3배
7개
경매
##개입
##관으로
##파로
##액은
##란을
##애들은
생각만
일본과
역겨운
끼리끼리
노답
자카르타
정경
##가는데
##평을
감사원
시행령
예산이
대깨윤
답답하다
72
갖는
역사가
학술
##야구
##준다고
##유산
##줬으면
이재명과
사업의
소리하고
가벼운
막대한
반찬
양쪽
있겠지만
틀어
##않는
정책은
좌파들은
새해
인성이
터뜨
발견된
70대
기록을
해당하는
공범
했어
협상을
##가루
##취급
##빼고
언론을
발효
##로로
##보여
##부들
들어가서
이후에
선택적
처벌이
회사에
부정적인
전략을
맞습니다
양보
이처럼
회의를
##지는게
제대로된
높았다
뻔히
성사
실적이
전술
해마다
거주하는
##감으로
베네수엘
엔진
후퇴
##라의
##됐습니다
##잖은
범죄가
소방당
50년
더더
떳떳
무장
조례
필요할
66
강아지
댄스
석탄
위해선
지원하고
있었으면
참가한
가맹점
고조
류삼
번호
수료
의지
정무
주재
아무나
있었다는
그쪽
어두
정유
핵을
들어갔다
좌파들이
전세계가
느끼게
부러
붉은
위생
##새가
확인해
안전을
사례를
관리가
역량을
##인걸
가리
겨냥
다닌
연동
##으려면
##화되고
##전자
##되거나
##참사
지역사회
페미니
멈춰
비공개
생생
유용
인디
들어온
콘텐츠를
담고
수령
어쩜
##주자
##났다고
이번에도
금리를
뜬금
위헌
조사가
##바지
##방지
현실은
극혐
보도가
아오
지사가
아닌거
장관의
간단한
GS
그립
글이
대피
##안정
서울에서
배우들
문씨
샀는데
##설을
##전시
##동원
대표의
더불당
##한거야
힘들고
하는짓이
3명
든든
로또
##을지
##환이
서울시가
것인데
절감
생각할
IP
김연
남부
이병
##가나
수준이다
훈훈
##나지
##료는
찾아가는
지적이다
갈등을
부정부패
꼬리
##졌으면
##근무
##중심
##비의
##편에
##잖어
하노이
로스쿨
1호
거꾸로
미사
슬슬
학살
##폭이
##희롱
한국도
불가능한
가기
부딪
생명을
욱일
컸다
아이들의
연구개발
드러난
이하의
여가부
you
라면
로그
무산
믿어
병원에서
파워
학대
##정말
##줍니다
국민만
처음에는
나서는
맞는데
새겨
승리를
조달
한건
##18
##업에
##받는다
##센터를
마련한
금강
##십니까
##튜브
대통령에
사업이다
기대해
떨어지면
벌어진
아버지가
##서비스를
마이너스
##인들에게
##두면
##러리
경찰서
신청을
5분
쏠리고
유망
##크가
##못한
하나씩
기존에
수익을
거임
명심
순경
주머니
쪼개
##이익
성공적으로
공간이
98
노란
니들도
발송
비극
작전
총경
##방안
##병을
그러지
##나오는
pop
신혼
자고
진화
##들끼리
이상은
지키고
웃기네
들여다
될듯
많다고
무대를
옆에서
예의
주행
지진
##주얼
##당시
##마를
##마켓
##몰이
##셨다
국민혈
귀를
눈물을
묻는
얘기가
하위
##드의
##as
##파악
##부르
##운용
6년
보편
사리
##적한
##추어
없애야
곳곳에서
내면
미흡
별다른
스탠
인테
자식이
##기금
국민들도
한국시간
인생이
전통시장
정은이
다채
비겁
서열
실화
점수
체제
하겠다고
##신의
보여줄
전체를
것임
관리를
내외
돕는
사는게
시대의
신당
안그래
알리는
장점이
##통상
##법상
하나만
##위원회를
보이스피싱
하태경
73
내수
말인가
수주
전광
조각
하라는
형이
##비한
##내가
지지율은
푸틴이
전시회
숨어
타는
##사들
##려도
괜찮고
불편을
##수준이
상식적으로
우즈베
감각
당할
만5
밀집
발령
북쪽
조명
한진
2006년
권력의
자원봉사
브렉시
안보고
은근
##시리즈
##다는걸
규모로
실시한다
차량을
사태가
복수
정직
죽어라
플래
##터를
부분에
국토부
교도소
암살
오지게
하겠습니다
했네
##년도
##ig
보고싶
확인했다
세상에서
생기면
촉구했다
끈다
알리
정치적으로
보이는데
보러
안양
영유
할것
##급한
##이후
경찰도
돌아간다
안된다고
자세히
갖추고
골라
남긴
납품
##면에서
드라마가
의혹에
도와주
헌법재판
해볼
##자들과
##뒤에
##랍시고
##헨티
##하지말
여성들이
##이었고
앉혀
야생
한시
##조한
시작해
모습으로
국민의짐
훈련을
구걸
다닐
되서
무용
안녕
작곡
주호
코믹
하거나
##케어
##구속
##억이
영화로
아니라면
구독
다녔
휘두
들어와
엄청나게
대깨들
수호
하드
##대교
##혜택
##구에서
##박살
민주당에서
기상청은
계곡
내보내
리뷰
보스
빼돌
엑스
치솟
시작됐다
이미지를
친구들과
측면에서
감안하면
OO
양승
탑재
##수요
##업무
##😂😂
사업으로
역할이
결론은
엠비씨
감수
실정
유리한
잘했다
##물가
##방의
##우리
생각해요
게임의
##가는게
강성
걸그룹
대륙
싫어서
일고
##24
책임은
검사들
나와도
국정운영
안들어
이천
입찰
정해
호기
##대행
##질만
##포가
전국에서
방송에
##대한민국
거래가
몇달
버릇
성희롱
역겹
##이니까
우울증
아울러
BMW
농가
소고기
##적의
운전자
게이
머가
알면서도
이론
줄을
촉법
하더라
##영상
이뤄지지
3위
결의
끌었다
날씨가
라디오
멸망
어때
쫓아
출국
파탄
허락
##식에서
##집회
경기도내
검찰과
마련했다
어쩌면
5명
날짜
당황
대접
실력이
해군
환장
##바뀌
##아까
##절을
##꺼야
미국으로
지지합니다
받아들
요청했다
말아라
무주택
씨를
윤돼지
##아나
##간다고
##양반
전국민이
1인당
가세
깨닫
보소
세우
인상을
지고
이해찬
가족을
개연
바꾼
솔루
싶네요
앉아서
형량
##하는것도
##영화가
아르헨티
고도
뜻이다
산책
신도
짓고
키운
투어
##기까지
##관학교
##공급
##따위
아이콘
##인간들
나라꼴이
기성
일만
중개
##수당
##러니
결말
극장
보는데
##판에서
##을거
##영의
##기간이
케이블
두려워
구나
권선동
백화점
슬픈
운송
##량한
환경이
바람직
4명이
굴욕
택배
##내면
##NA
댓글이
이러고
보수의
##되었습니다
흐름을
녹취
잘한
죽을때
크지
##작이
##마이
##지역에
내년에
수신
임상
중견
짓이
한복
##십시요
개헌
걸리는
경주
꼴보기
낚시
발매
부자들
잔뜩
##같네
언급한
나몰
##폭등
100여
##계획을
동행
무언
살리
솔로
중기
총리는
##적도
##북도
20프로
가능성은
자식들
김부
더러
드럽게
부르는
소용
심어
자르고
죽으면
홈런
##선생
##DP
명예훼손
계신
빨라
제도가
하천
##90
해결할
대우조선
오프라인
내란
도모
불행
위안
입이
침공
생각함
저런게
2005년
##대통령이
개최했다
혼자서
시스템이
살펴보면
구단
독서
별도의
종종
주연
창당
챙기는
##거품
기업들의
스토리는
형태의
주최하고
기회에
##인증
##ot
권한을
고등학생
녹음
신념
안남
지겨
##시청
##주차
##선과
이간질
FA
강연
모욕
시세
오버
인원
했음
##채용
국내에
발생하지
여러가지
클라우드
가야지
김호
일정이
##으라
##기념
아니네
지역주민
재판을
제시한
구린
##ut
세계를
나오네
보수는
안전하게
준비한
입장에서는
VR
될지
실효
어쨌
있잖아
##하잖아
마약을
삼성전자가
합리적인
180석
눌러
되기를
바닷
압색
점수를
##을수
##투리
##군에
않았다는
바라보는
글쎄
단위
못하겠
성경
안성
외치는
유가족
한걸
##하우스
도전과제
##스파이크
DMZ
LH
가요
뒷통수
원유
지명
지혜
진학
##사회의
##돼지가
##홀에서
##얘기
관련이
아직은
##사업은
안되나
법의
총알
치러
협력을
##방위
##액의
##행위를
##찍은
준비하고
3년간
코스프레
CG
급락
별도로
원가
중에는
체납
펑펑
항명
부정적
메이저
4천
40년
68
교훈
먼지
장학
추경
황교
##아프
##히면
##인간이
##연합회
영원한
나지
수두
잇는
##졌을
##제와
##꺼면
하나인
##사무소
선을
신인
좋지만
죽는다
줄일
지리
촉진
##였지
##언이
##떨어진
건강을
파악하고
구급
꼼꼼
모았다
선행
스펙
악용
에효
청탁
품목
##한가
##되지만
##복합
공짜로
올려라
희대의
##하구나
##버려라
##IC
##맘대로
##영화는
맙시다
몇백
신세계
양심이
##하락
##방법
##ow
##NG
자신들이
오늘날
사라진
역사의
합쳐
해보고
##개도
##리포
##보인다
##방안을
##인구
##간이
##im
비판을
개를
규칙
믿음
서부
올리지
유착
##와라
니네가
부자감세
무척
안락
안중에도
##영향
##위와
##수호
문화체육
않았고
제공할
이래도
우즈베키스탄
다문화
미루
수차례
앞당
전임
흡연
##잡는
##교수
생각에
같으니
우상
우연히
절망
토요일
##보장
##영화를
이러면
봐서
북핵
사냥
저래
##타를
##협상
않는다고
코스닥
윤짜장
5개월
CJ
간절
맞나
이었다
잠수
주유
줄이는
차원의
##부도
여론조작
그때는
수거
역적
트집
하겠냐
협업
홀로
##리세요
##치다
##무슨
유럽연합
기레기들
이모양
맞아요
상실
순천
시비
신발
커플
##였어요
##결제
총선때
이사장
고전
당해
살자
성적을
수고
수렴
앞선
일요일
학력
##시각
##님께서
##프가
사람으로
가족들이
개선이
67
na
논의를
인격
임용
청원
##구팽
##마는
##만원씩
전기세
##효과가
걸레
권리를
안한
작업이
저것들
회사는
##통은
##수출
진행했다
1학년
꼴이
말까지
맛있는
박수를
역전
와중에
웃긴다
으이
입력
청춘
##았어요
참여를
고려하면
77
과목
과잉
맞네
명칭
섭취
있으니까
키우고
탈퇴
##대표가
잘못한
러시아의
그들
어짜
##콘텐츠
##카데
추진한다
디스플레이
그와
마크
봤던
안좋은
원천
했더니
##놔라
중국으로
지지자들이
##하는거다
모자란
일환으로
들리는
안해도
잠을
형편
##들이지
방송에서
다행히
취약계층
MB
단단
데는
땅에
시킬
여운이
총괄
##의혹
##법원
##았어
김여
사지
##놈을
지역경제
시민이
증가하는
##진흥원
귀여운
발로
불필요
죄명
추측
패스
##리는거
##유지
##답다
경찰관
배우는
과거에
당의
망치고
맞냐
수사는
확인한
한두번
78
8년
감정을
금리가
농산물
도주
못배
박멸
봤어요
##자랑
##조의
모르게
원자력
가축
간에
내비
땅을
중지
파고
##아의
##석에
##수급
이상하게
관계자들이
민간인
같지
뭐라도
지킬
##처는
##업체가
##났네
정치하는
지루한
LA
낮춰
받으며
설레
수시로
이넘
해안
지금처럼
100년
모습이다
15년
꼽힌다
멘토
뭐고
시위를
온통
형제
후보로
직원들
움직임
김원웅
예쁜
찢죄명
후에는
##소리가
##되네
최근에
주민이
자료에
엉뚱한
아녀
이례
##집에서
##공동체
특성상
못했던
진주
##아시아
##17
##희가
토사구팽
공적
##였나
모든걸
the
기자는
소주
손으로
수혜
신의
작가가
추세
할게
해주고
황운
##간히
##베이
##더라고
나라로
국회를
자체는
화재가
5만
개꿀
국고
상대가
종류
팀을
합의를
##내에
영화라고
런던
임종
##방식
##운동을
전국에
않았다고
50억
수출이
전과자
##터테인먼트
도중
매칭
무책임
사후
누가봐도
일반적인
제품에
이꼴
해대
##의미
##공감
##것임
아시아나
신뢰가
##사항을
금감원
마침
본사
욕은
모르지만
시작하는
가족의
##산업의
최소화
쓰레기를
공군
벤투
출생
황금
##롭다
너무너무
정신적
제품의
싸이코
당당하게
news
대화가
되나요
모순
징글
##이여
##장비
##았냐
경향이
주위
초밥
탈락
했으나
##도에서
경제의
물량
외모
자금을
콜라
클릭
투약
##인터
##규제
문재인정부
##이었습니다
관할
귀신
기어나
임진
창립
후안
##시하는
##레일
##입학
병원으로
원숭이
개척
맡겨
밖에서
빼면
쉽고
않나요
주식을
##겠구만
민주당으로
어쩌라고
감면
단점
오락
##파는
##하는가
만들려고
재밌고
특별히
내놓고
소리는
왕따
테이블
##시마
##로의
##끼고
##층을
##ve
##들이네
##주의자
##지역의
성공을
##그룹이
##시킨다
4범
84
간만에
레벨
잡았다
첫날
터져
##건은
##장사
나타나는
바꾸고
영세
조별
토트
##방향
##살에
완전한
고수
그들을
여성을
착공
##14
##탄을
##만원으로
그렇다면
##기술을
##국민이
납득
수색
여수
열등
이종
족속
평화를
##통일
##긴한데
##었다면
정권에서
책임지고
지루하고
혜택이
근거가
4만
그야말로
레드
베스트
북으로
소문
웃겨
##기반
##동생
준비가
제기한
##되었으며
너희들이
윤리위
신선한
호응을
맥락
밥먹
연수
정원
##국과
##가들이
##형의
모르지
피해는
130
##OOO
1대
육사
짖어
캠페인
키보드
흡수
##전환
##MC
자기들이
운영을
우리나라에서
바뀔
사각
최재
추산
포털
##들보다
##16
##리랑
##권과
행복하게
개미들
거고
나중
되돌
써서
좌익
##수아
##상관
##렸네
##시키지
투자자
않았습니다
극대
넷플
드립니다
육군
재료
포용
##mm
##저가
##총장
전국적으로
킬링타임
다같이
막는
많지만
있겠지
판을
##기에는
##PS
##인지는
##것네
##폐지
북한으로
본인들이
약속을
폐기물
가뭄
고소득
무속
버리는
잡아야
친절
카톡
피로
하신
##지냐
##있는거
경기침
우려를
참고로
토착왜구
국채
남쪽
노인들
데이
도발
레알
법관
엄중
포토
##두에
##분쟁
2021년
긍정적
공교육
과일
몇명
자칭
전화를
지향
##드에
##체에
##항을
##ra
##IA
유지하고
정의로운
변호사가
정상회담이
과장
포천
##노인
생각으로
구속수사
번째로
억울한
탁월한
카르텔
감추
까고
자칫
##국회
##고용
세계에
재밌는데
배우들이
정밀
중대한
##상한
##노잼
##창업
현실이다
##000원
in
여배우
인사가
잃고
질의
해방
아니잖아
시민의
본인들
UN
감지
수험
적당
##와도
이해하고
2찍들은
배경으로
단일화
골든
팍팍
##시위
게임이다
관심과
정상적으로
해외에서
거덜
관해
높다는
다이어
무인
미뤄
소멸
얘네
투수
환수
##례가
돌아갈
이화영
유능한
강화를
박성
발을
시상
좁은
##다녀
##마스크
##위원장은
당뇨
쿠팡
##차게
##일리
##말에
##등을
##값에
지나가
사무실
골로
땜에
왠지
위선
하든
##한이
##공격
##았지
##생들이
##형은
생각없이
기대감이
가까워
김기현
문화체육관광
그니까
정쟁
좋네요
##등이
하지도
##억원에
결론을
목포
사장은
안했
##과장은
국민청
사과하면
청년들이
똑같네
어울리는
간신배
수두룩
독자
부하
스캔
우기
절라도
천지
##이래
##나올
##일때
##산은
##얼굴
어디갔
##더라구요
별도
아메
##분석
한국어를
##위원은
학교를
목표를
##모델링
재활용
이쯤되면
걷어
국악
##위험
##침을
##님과
##군데
처음엔
의원들
산업용
갑작
소대가리
실감
심사를
확률이
##어의
대표적
170
기다리는
노숙
전무
트럭
판교
##해왔
조사에
사망한
사태를
마이크로
정황이
1명이
굥은
날라
돌고
##리들
##되던
##복무
##5천
##토막
##독립
사용자
친구랑
당연한거
다행이다
두번째
찍소리
코너
##사지
윤통은
이익이
뻔뻔하게
걸려서
이분
##줄도
우리은행
경찰들이
2000년
판매가
올라갈
##지원센터
발견됐다
모르겠고
몰랐다
빛을
즐기고
##유착
##됐을
아이들에게
살아있는
선거에서
어우러
거뒀
막아야
박순
사내
집착
편향
그럼에도
리스트
반일
정서
최후
환호
##고시
##된거
##숙한
하고싶
안되서
이뤄졌다
나란히
대입
대결
##준이
##내며
##장치
##체로
##역으로
영화도
조작질
판매하는
요구했다
드러냈다
나와야
대법관
끼고
방위
실력을
원인은
있기를
짝퉁
한식
##미널
##기본
##일텐데
##능력이
##∼4
경기도에
가능해
수사하고
사용하고
고위급
추구하는
러브
시술
##리우드
전부다
펼쳐진다
노는
유연
주인이
##중이다
##부터가
보험료
##과정에서
감정이
도데
부를
아닥
엘리
음료
통행
##시대에
##치는데
민주당도
경쟁을
개최한다
광주시
민생을
누군지
주인공이
노가다
유료
있죠
하향
##분별
가능하며
국가는
해결을
않았을
뉴스에
##하였습니다
##하였으며
소음
아랍
조율
패러
##려다
##분한
##별로는
언론과
바이든은
짜증난다
신속하게
미용
일회
있니
지표
하다니
아무튼
내년부터
소득이
쓰레기가
근본적인
naver
된장
안받
자를
##방해
##정하고
##동조합
##발표
##해야합니다
당신과
존재하는
가깝
담보
명을
않다고
장착
##아무
##애가
영화입니다
당대표를
지켜야
공급이
4대강
DLC
동화
악플
완공
집구석
현안
##대해
##회와
지적도
##ECD
어짜피
결정이
알면
양육
##스레
이것들
벌써부터
76
개관
이XX
입에서
##드린다
##로워
##기들
##음식
##rt
세금도
소속사
##스러워
너무나도
1일부터
망친
북풍
뽑는
안희
중학생
차려
표를
해가
##값은
##👏👏
국가안보
나타난
그림을
기여할
진작에
82
검경
밝히고
##원들
##타는
##학적
당신들
아무래도
선호하는
핵무기
최순실
가전
그닥
보임
송금
있으면서
장기간
처단
##터스
##현장
##디자인
하는가
대표와
좌파가
있어야지
군산
극장에서
데이트
민선
밀고
배워
악취
이적
점에
직권
천박
허무
확대를
##들갑
##처먹고
##폐기
정책으로
같으면
그치
더럽
알수
열려
회사를
##책이
##했었다
##하는걸
수사해서
댓글에
복잡한
공존
변신
불만이
상무
폭이
형평
##교가
마련해
문죄인이
패스트트랙
권력이
다짐
면세
방학
자회사
절실
죽음을
해본
##꼬라지
것이며
30여
개발에
##장에선
활동에
아마추어
제재를
준서기
가는데
걸림
새삼
##수입
##심은
모르니
다른데
대통령이란
보내라
저러고
구속영장을
것들을
금호
둔화
모래
소신
웃음을
##르다
##유럽
가져다
법인세
OECD
덕에
물가가
폭파
##도없고
교육부장관
190
##기관의
광우뻥
더빙
사정
##보니까
##려니
##모지
학교가
국짐은
##사고가
김동연
내신
법적으로
시흥
##신도시
##청년
##역사
정보통신
안된다는
3시간
낙동강
슬픔
인상이
전여
찍는
##징글
나라와
김건희가
모지리들
나머지는
##ent
나랑
분산
안올
일치
전설
전액
진압
처참
축산
##문제가
##두는
##곳의
##ww
움직임이
일상생활
언젠가
##월드컵
막내
잡지
##부랭
##체의
##백을
##토론
하던가
장면을
리더십
명백한
나한테
다는
여사
와이
합니까
##미디어
##타워
저런걸
증거를
디자이너
끝났다
사설
쉬는
오르면
춘천
##버렸다
##청정
##황을
시설을
자빠졌
시원하게
1시
도의
싸그리
전에는
##가와
##안해
##표절
##팀을
##약이
##창출
##직에
##풍을
기업들
일어나는
동작
발전에
법에
입당
##회로
##했을까
이제서야
##만원에
누구보다
근로시간
어리석은
공론화
대주
알겠다
약을
튀어나
평소에
##자만
##비율
##금도
아니니
윤석열대통령
지역으로
관리하는
행동은
바꾸는
규제가
남경
뭘까
상반
화제
##구와
##학대
윤석열이가
경제부
결혼을
제외하고
양승태
고만
최다
패키
##법과
이것들이
16강
공무원들
##장관은
소개했다
나쁘지
도리도리
납치
넣은
망치는
매력이
밝은
사령
수시
의대
타당
화웨
##보에
##ns
아이의
정도다
알려주세요
누구는
부족하다
노조는
느껴지는
가성
너에게
박지원
사주
순식
어딘
##거부
##해달라고
영화제
하루하루
윤핵관이
모양새
발악을
JT
배불
생계
에피
죽어야
찾지
한동안
화제를
##인지도
##5일
##봤습니다
산업통상
합의가
김성태
베네수엘라
끊이지
오브
좌표
찢어
##차고
##민들이
##름을
조사에서
1년에
배현진
뜻이
로이터
신라
찾아서
##가네
##청소년
##걸이
있다니
참여하고
시켜서
꿈꾸는
도이치
동조
뽑아서
연쇄
힘드
##는지도
##살다
##린다는
것이지
개발을
바보로
고가
본질
안민
안간다
영부인
주류
집합
차이나
##주사
##경험
##점의
당신들이
이유도
발생하고
출연해
걸러
남해
능지
중에서도
청도
타협
트레이
파산
이용해서
학생들에게
준비하는
건강에
전체의
먹고살
비싸게
오토바이
인종차별
도데체
됐고
되도
인플레이
초고
한잔
휘발
##비전
##란이
##둘러
문재인때
사라질
남북정상회담
강화하고
이곳은
경위를
당국이
용역
전염
정준
테슬
##게도
##5000
##렸습니다
사법부
다르지
CN
말이지
말이냐
세력이
##냅니다
않았나
되찾
수를
페이
하도록
##라디
##핵관
##딩이
전반에
아닙니까
불평등
선별
업그
은폐
첫째
##경궁
##우의
##점과
##분께
##폭행
##먼저
가능하도록
해야할
192
공개적으로
바이든으로
무시하는
생태계
목회
성적이
##맞은
##ㆍㆍ
##이야기
무식하고
실시하고
석열이가
선보인
왜이렇게
클래식
산업통상자원
리모델링
못하니
영감
위기가
편이다
##으시
##문화를
##체제
경기도지
191
않았는데
참가해
타이밍
고대
기자들이
높일
똑같다
맥주
세우고
위조
참전
##것이고
##잔치
국민도
자신에게
사용해
돌아온
방송국
경위
매월
사표
소지
용의
원인으로
임차
##지키
##버는
출신의
젊은이들이
로맨스
어설픈
늦은
마리
믿지
여지가
조세
중순
##추천
##찍고
정치인들이
본인도
결정했다
바꿔야
유사한
싸고
썩열
음식이
호들갑
##기강
##매를
기업인
1기
무효
아트
지령
집은
피아
허접
##댕이
드라마는
세상은
##정책이
김건희는
도둑질
74
고속
고개를
돈스파이크
두달
할말은
##산의
##강간
조사해서
##지않나
##만큼은
준석이가
이슈가
다룬
듣지
봐주
블룸
품격
##없애
##인한
##속이
정신과
해외로
요구를
안되니
적폐청산
놀라운
69
도출
원이
전범
진동
##kg
이준석의
비교하면
모른다고
JTBC
동시
마당에
부풀
아가
요소가
원조
질문을
충격을
사이의
예정된
뛰어넘
분탕질
워크숍
2대
날조
후유
##드릴
##심에
사라지고
여름철
추정되는
##생에너지
미개한
그에게
##난다고
##간을
##죄가
지지층
##정권은
말고는
공정하게
최대의
기간을
나가라
않는다면
힘든데
다채로운
고사
기피
높였다
득표
말투
윤깡통
지저
첨부
한반
##많다
##취업
##재단이
댓글부대
후보는
인용해
먹지
연기는
자랑스
잘했다고
정당이
주먹
##현은
##가는구나
살아온
과태료
부착
악랄
욕한
##산에
##구라
##여명
##모임
##엑스
100일
일방적으로
윤은
##의식
##중인데
##인거지
##했더니
사용이
저런거
세금은
포함돼
출신이
물러나라
간담회
높이기
설비
알리고
##되어서
##무지
##쉽게
##광고
##에서부터
사람이다
결과다
설명을
일부를
미래의
ㅠㅠㅠ
작성한
이지경
귀족
늘리고
로비
버튼
불만을
살아서
않는데
줘라
##가량
##있는지
하나를
예정인
기간에
바꿔라
인스타그램
싸우는
유감
윤두창
천천
측의
##들까지
##버려야
193
소리만
소비자들이
상태를
전반적으로
카카오톡
식민지
가평
똘똘
생일
섬유
애매
칼로
현정부
아이러니
당신도
인정하는
더불어민주
13년
##기술원
변호사는
한글화
브렉시트
거친
경기에
들리
따지면
레전
살피
자립
쥐고
패륜
##제재
##란한
##마음
##뱅크
재미있다
분석된다
인사청
관료
답을
바지
아랫
입지
캠페
##니는
##이용
##있다는
##셨으면
상황은
기대감을
일반적으로
대통이
고양시
멜로
세미나
유예
주무
행위가
##대장
##nd
140
받았다고
뽑아준
나누고
서초구
비례대표
당국은
원장은
증여
혈안이
##방으로
##건만
##간담
##발로
바이러
학생들을
마약이
영어로
시원한
영업이익
건진법
괴물
근절
끝판
망하는
못하도록
참담
폴란드
##아래
##교를
##했다며
중요하다고
전국의
검토하고
짜증나
기소된
강사
규탄
김의
까는
누릴
더럽고
살던
수장
썩을
짤라
키울
판새
허술
##ce
생각좀
##한거냐
##스타일
대비해
물품
없으면서
우회
접목
화제가
##라우
##없나
##tu
교육은
처음에
하루가
나이에
진출을
자녀가
구별
대여
벨기에
사먹
왜케
포인
회피
##급식
##렬이
대표이사
지키기
감사를
기쁘
왔는데
이들에게
흉악
##만들고
때문이에요
들어선
밝혀라
다죽
떠나라
먹거리
모드
조지
한국으로
중국몽
##하겠지만
외국인이
바이든이라고
거지같은
하늘이
##∼201
박스
보냈다
삶에
우롱
인플레
있겠냐
주위에
채무
##고속도로
잘못은
100만원
##아먹는
추정된다
국민세금으로
넷플릭
3류
88
금속
보는게
시기가
##이긴
##보이는
##것들아
##os
찾아볼
산업혁명
##프로가
공격을
냉장
뉴스타
두렵
볼수
##사나
##사퇴
##면피
##버림
##달고
##지지율
프로그램은
성장할
강제징
천천히
가담
눈과
당국
면에서
악성
##가지가
##비서
##녀가
게임에
학생들
현실적으로
##이었지만
우승을
할아버지
스튜디오
아르헨티나
동포
떨고
미스터
사물
입건
헌신
##바꾸
##보소
##약한
##겁니까
생각해서
ICT
징글징글
유가
##들었다
##우니
##린지
##될듯
문화의
사이코
##가능한
국민세금
기후변
www
대상을
무마
싶을
얻는
정해진
중산
힘입
생각해보
서울시장
사과는
국제적
##지않는
택시기사
윤무식
9개
술이나
정한
펼치고
##놈들아
##연수
20억
국짐이
신고가
합리적
막판
반환
설명이
일선
저의
카드를
힘으로
##막을
##들이고
문재인의
교육청
발언이
##자에게는
수술을
국비
못하지
욕쟁이
이완
초보
##이전
정치꾼
집단행동
달라진
언급했다
비중을
겪어
남용
문이
배포
분담
빈곤
시점에
여학생
위하는
유효
일등
작살
장려
전인
초점을
치유
##없으니
##체계를
##동은
##∼6
않은데
더욱더
회사에서
완벽하게
강아
특성을
##린거
선택할
상담을
관광객이
쓰레기는
나몰라라
굽신
망한
명단
인식을
차이를
##리던
##수한
##르르
##마시고
##이지요
사랑이
어쩌구
김정은이
최저임
너희가
금리인
재산을
박민
부도
안으로
플레
##시스
##보조
##발의
##틀러
필요성이
2004년
방문하는
1분
레스토
만원
받으면서
양극
엇갈
일로
자슥
팬덤
폴더
##진에
떨어졌다
기사로
예정입니다
친구들이
##아니면
대변인
2조
못하네
뻘짓
수질
할텐데
흔히
##자흐
##심으로
##ad
##체는
##여름
##연설
##예방
##에서다
국민에
##는거죠
때문이라고
보내주
바뀌고
민주주의를
80년대
또다른
애도
잘도
한결
##미의
##문의
##직이
대학이
부끄럽다
새벽에
동급
자위
재해
폐업
##자료를
##문제를
##더러
서울시는
보내야
산업의
전기료
개돼지들이
거래소
시청률
사퇴해라
주호영
길로
보아
욕도
지갑
특활
파일
합작
##석과
##청구
##작업
시작해서
일어났
후안무
손상
##는지는
##죄를
##강화
보는내내
서민들은
대출을
항소심
고유
병행
일개
잘해라
장을
태도
하실
히어로
##공작
##싶어
필요성을
댓글들
좌파는
유전자
후진국
##소시효
주한미군
김호중
2개월
나가고
매진
못난
비아
상향
순방
잘해서
청각
출제
##만해도
##안의
##og
##실과
##쳐야
노동당
##자로서
나서고
87
가처분
건물이
교사가
김남
말하지
맡았다
바르
##혼자
있다는게
스타벅
말씀을
매력적인
블룸버그
과세
놀이터
머릿
천박한
##한을
##독한
##매도
주장하고
공무원들이
요청한
미세먼지가
1편
되야
때보다
뭔지도
실적을
우호
철강
##되기를
##OU
##듭니다
사건으로
걱정이다
방사능
간섭
까다
뉴스를
돼야
버는
##살아
##같으면
##황이
##천원
일부가
한동훈은
과학기술정보
마인드
소프트웨어
AP
PD
감찰
거라
공화국
남자들
득실
막걸
범인
생애
식량
안사
카자흐
필로
휩싸
##함의
민주평화
서울과
옹호하는
##빨갱이
오피스텔
거둔
교섭
자사
적당한
획기
##들게
##채널
활동하고
투표율
반영된
1주
게재
겸손
공소시효
불쾌
비건
여럿
퀄리티
##경제가
##트에서
시간과
범죄자들
가격으로
나왔는데
당대표로
조직이
제정신이
구석
답다
보전
성관계
일종의
잔치
출장
편가
해봐야
##비디오
##장악
##입고
##집은
##협정
생각나네
어디가
재밌습니다
되었으면
담당하는
경로
식약
직면
하원의
해석이
##리케이션
##치킨
##될지
이동통신
느껴진다
고난
동결
물놀이
미션
불친
삼아
선두
역선택
터진
한방에
##었으나
##빠가
##밀히
청와대는
행사로
어쩌냐
##이란게
궁금증을
강력히
신용카드
낙하
남에게
넥센
되돌아
봐야지
빠질
안했다
억제
여주
여객
인내
죽었다
환율이
##열면
##안에서
##반을
##렸다는
있는것
했다면
탄핵을
확보한
류삼영
of
그로
듯하다
밥을
성실
여자를
우기는
점포
터트
##대지
##업소
##락치
##먹기
##금과
인간도
국익에
내뱉
대마
열악한
원산
찾았다
해줘야
##∼5
다른나라
결과로
검사출신
실패한
저질렀
가도
그대
단어를
부양
절차가
중복
협의를
##할래
##주냐
##이하
##팀의
##플러스
20분
중심이
시청자들의
기가막
떨거지
분식
상응
실컷
엘리트
올려서
중계
##어죽
##공대
##감정
##는다면
국힘에
친구와
다큐멘
남경필
계시
독감
부합
소감을
심해
애들도
여자들이
올해도
유흥
이마트
##진창
##키퍼
##상이다
##매김
부모의
장애인이
반성하고
벌어지는
나누는
답변을
정진석
POP
이송
이르면
홍어
##거를
##안과
##전히
##세금
##끼는
있는데도
해결하기
요구가
마포구
동부
싫고
열리고
중재
짓는
##시도
##ir
검찰을
예상했다
자리매김
쪽팔린다
시즌2
국토교통부
그땐
발주
벌이는
부근
샌드
생물
저가
짜리
##경북
##법의
##22
##형에
사업자
내용에
장관과
##은행은
서로를
심각하다
무너뜨
4억
각자의
내정
이목이
편히
화합
하나다
보고서를
##사람도
사고는
개인적인
서로의
준석이는
작년에
활발한
이죄명이
97
간판
들먹
오줌
일들이
주간
통제를
피눈
##13
##경에
##인들을
##좋다
##배로
##모두
##넣어라
해외여행
선거때
거짓말로
음악이
##경찰청
인테리어
고장
눈으로
많으니
말든
미드
연료
열차
저하
정우
좋겠네
줄었다
중화
헬스
휴식
이상인
보도한
나락으로
전장연
견인
보도를
상고
쓸모
알콜
얻었다
영등
이긴
장벽
정성
평론
##리스크
2002년
예정이라고
지능이
더더욱
국군
농림
멋대로
못잡
부총리
소시오
일산
줄고
채우
최선
판사는
##할줄
##라이팅
그걸로
너만
목을
반역
불합
빌딩
재래
체류
##아트
##오지
##측근
하는거야
없는지
##하자면
남북이
국무총
OOO들
답답한
양심도
잠재적
메르스
앞세워
79
번도
상당의
성격이
암울
윤똥
##시피
##덩이
이후에도
내년도
실시간으로
황교안
각별
김무
믿음이
설사
실용
울고
장병
처먹고
패치
##온이
##나마
##구장
그러는
언론에서
의미다
현지에서
최악이다
10년간
1로
ㅈㄹ
드라이
마스터
말과
신재
엘지
주축
찌그러
##크를
있었는지
과학적
평가다
인근에
이곳에서
시끄럽게
파렴치한
간다고
미팅
빵에
원망
짱개
##설명
##버트
##문은
##었을까
##ji
##하던가
기본이
성남시
때려잡
저질러
버그가
힘입어
고무
고립
늘리는
득점
스프
유학생
파헤
풍부
##주변
##원인
가족들
1500
##다니고
인생의
살인자
대선후보
출산율
크리스마스
걸렸다
관세를
너와
도배
철면피
허수아
##담을
생각하니
만들어낸
2003년
현실화
논란에
##업자득
적합한
비리가
소릴
안잡
용기
재현
##들어서
##중개
##중간
##ck
일본인
이어져
범죄자를
자유가
##하던지
작가의
판타지
같다고
곳도
김모
단체가
변화에
재직
조속히
해봤
##님께
##공화
##봅시다
한국인이
하나님이
모습에
##기관에
제작한
도입을
해임건의
주말에
FTA
고개
다하겠다
드림
류현
살길
주신
짐작
한발
##질이나
##것지
##지도않
스토리를
연구를
주변에서
공동주택
##기간에
##결과가
가리지
개는
과감
달콤
불교
상처를
우와
##1위
##없냐
##고만
##우로
##되었던
##백신
##태가
##us
좋아할
사건과
환경부
대응을
업체들이
금리인상
불구속
자발적으로
바꿨
시뮬
영남
통치
##바이트
##위조
##무능
때문으로
분석해
영향력을
물론이고
노력하겠다
합의한
MBC가
일각에서는
나발
막무가
백수
불꽃
없잖아
이새끼
입사
자부
줄리
한꺼
##못하게
사용자가
정책의
중소기업의
긴장감
쓸데없이
부들부들
86
남았다
당에
마니
모의
여주인공
제4
해리스
##었구나
##FA
나오냐
대상은
요구하고
이대남
전여옥
83
96
뭔소리
이의
인센
재고
팀의
호도
##인식
상대방
남발
떠넘
미치지
소모
싸우고
자숙
쥐어
##사들은
##당할
##퍼스
지지하고
가능합니다
좋아하고
외교를
이름은
유지할
괜찮다
김종인
강서
경사
멸종
비위
사냐
현역
##점기
##돼서
##랬다
사람들과
##사람을
공개됐다
대만을
조용한
시험을
선보인다
초반에
페미니즘
영등포
거죠
몇개
박찬
배정
자이
##미달
##석으로
##점도
##축산
한국전
이미지가
후보자
장애가
허구헌
김희
반토막
사흘
상주
요인이
적혀
조건을
태도를
표정
##다란
##만하다
##그럼
문제지만
만나면
후보를
1년간
방식이다
논문표절
불거진
됐으면
살림
세이브
연천
윤씨가
입금
젤렌
지낸
찌라시
파란
팬클럽
##사들의
##치와
##유출
##디언
##하고있다
나라다
주장이다
나왔으면
ㄷㄷㄷ
SU
강대
국격을
규정을
기금
목사는
보라
싶다는
이기는
중점
춤을
하시고
##만달러
##청사
##사업의
국민들한테
집단이
심각하게
유승민이
호텔에서
닥치고
별거
불복
아세
없나요
자업자득
하러
##CC
##보상
##mf
시간도
하루종일
라이프
##ㅎㅎㅎ
자세한
꼬라지가
글고
발작
유인
##함께
##았으니
##콘서
##겟지
나타나고
날리면으로
70년
국적
군부
맞춘
물가는
백현동
사는데
입양
지수
최상
##시한
##자연
##같아
##짓은
국민적
올해부터
2찍들아
##중공업
1운동
골키퍼
나을
눈감
박진이
범법
자질
잡기
##졌으며
##물과
##무식
시민들
과거의
이곳에
어이없는
워터파크
비전
신상
애비
있거나
침몰
컨셉
##고생
##었기
##맞는
##협회가
지지자들은
책임지는
##더라면
오른다
한꺼번에
된거
오사
유류
읽는
징계를
친인척
후에도
##지던
##셔널
사용하지
있었나
친구를
제기된다
모델을
자랑하는
IS
계양
놈을
도달
봤을
산정
실행이
어거지
##사법
##사회가
##주나
##라기
##증으로
##좌빨
지난주
중국도
##어야한다
발언은
구체적
바닥에
오죽하면
가방
급식
등산
버리
빅뱅
쩝쩝
클리어
환자의
##줄을
##25
##♥♥
##께요
다음으로
대부분은
도시재생
되었고
공포영화
그놈
까불
믿는다
신생
연상
일일
커서
태평양
##되야
##무기
##운을
##겁다
##결정
시작되는
이야기는
영국의
벌였다
병신
삼류
승부
화해
환상
##가진
##소기업
##유통
##줘요
문재앙은
선보였다
집계됐다
거에요
돼서
들통
미련
유로
제보
타격을
팬들은
##민은
선거에
경쟁력이
부작용이
1점도
순식간에
공립
남지
##지네요
##안한
##이들은
##학이
생각하게
##시키자
건강하게
집값은
소방관
제시했다
물어뜯
설문조사
조별리그
인센티브
GDP
모스크
사정이
심야
잘하면
조상
##다닌
##자들도
##파리
##변을
##💙💙
사진은
##이란걸
표현을
이루고
##들에겐
한글패
폭염이
과천
금요일
많았고
쓴다
죽게
##도서관
##일본
##견찰
##자리를
##작가
##셔요
조사해
12개
높아질
높아진
평화의
신속한
기재부
만5세
빠는
실수를
썼다
오산
일간
해리
했을까
##해야하는
인간들아
문화적
배우가
선거법
없었고
가슴에
엉망진창
근처에
메모리
겪은
기뻐
털고
##거늘
##해결
##위해서
##되는지
산업이
구조를
실질적
명확히
탄탄한
7급
비번
서면
카운
틀림
파도
흑인
##과도
##플루
있는건
보여주기
검사들이
멧돼지
방금
브로
여긴
열광
좋으면
진실이
쳐먹고
##도우
##소리는
##일수록
##투어
주변의
성공적인
난이도가
메세
미달
비주얼
상시
양의
정통
커진
##다보니
##할거다
##드리고
##나왔
##회사가
##공을
##덕에
##싫어
작품은
나서야
이하로
임대주택
##ctv
김일성
감형
논쟁
이태
조짐
##대통
##랑은
##트와
##막고
것이었다
정신건강
운영에
표현이
바보가
ㅡㅡㅡ
불러일으
방탄소년단
되니까
박영
언니
없으니까
여권
외출
천국
크다는
##지오
##이들아
##동과
##했을때
정권잡
##정보를
공사를
더는
어긋
유의
자들
전복
중의
천만
##들면
##인재
##단속
하고싶은
대표이
개발이
160
처벌해야
적용해
해주면
인터뷰를
3점
끼워
서식
##라나
##라구
##회관
##계에서
##조절
문화에
지켜보고
독재자
##지말자
레전드
넘기
몰락
쓰나
아산
알박
여부가
인권을
##하느냐
##소재
##공헌
##줬는데
##채로
##막이
##교육청은
나타났
투표를
모르겠음
시급하다
BTS
개똥
거는
깨어
노회
무뇌
보단
비유
서둘러
이사회
저작
제고
최하
협약을
호의
##가기
##안됨
##것냐
##제도를
##저런
##층에
##톨릭
아니에요
다른건
교육의
내용이다
느낀다
끝판왕
시리아
아들은
야이
증상
부족해
이뤄지는
일으켜
삼성전자는
기레기야
옛날에
진술을
집무실
에피소
강동
들면
부당한
콜걸
##열을
##경우
##함으로
##순이
발표를
보도에
의혹과
가스라이팅
이기적인
필로폰
감동이
강좌
때리고
박람회
비타
승용차
잠실
저격
총을
혈세로
##면적
##놈아
##민을
##엄마
가능하다는
유지하는
말도안되는
박순애
되는게
법안을
입소
표본
##주네
##해줘야
거짓말쟁이
규모는
어처구니
법원행정처
불필요한
거리를
대항
삼가
손이
신동
안방
안동
하반
해피
##브리
##병으로
해야함
중간선거
이끌고
아이디어를
업그레이드
인사청문
개박살
도적
돌대가리
주소
##할수록
##도도
##취를
##력의
##문으로
##억을
##눈에
아니죠
##되는게
필요해
인재가
개그맨
재명아
이순신
허구헌날
AR
높다고
도우
돌이
비참
총수
컬러
##나와서
##없어요
##공사는
##냄새
지금껏
진행이
피해자는
조사해라
만들어놓고
이해하기
주민들은
넘어갈
##기간을
시설이
정신차려
아래로
윤대통령이
안타깝네요
52시간
강북
기증
당헌
도약
있겠다
차로
프랑
##지휘
##고발
##신용
##진영
##곳으로
##갔는데
문제야
이어가고
포함됐다
미친듯이
강조한
MBC는
줄어드는
소재로
등장하는
제안했다
말아먹고
실정이다
죽을때까지
황운하
경선
똥꼬
세련
운항
##안되
##내요
##파괴
##씨도
##놔서
모르면서
거짓선동
언제쯤
국정농단
불과하다
신속히
기저
들지
백성
비웃
성도
소나
속속
처분을
탐욕
틀튜브
푸하하
##던거
##장벽
##하기전에
시작한다
삼성은
여론을
##경찰서
구조조정
##30분
새끼들
##ation
본부
살리는
수확
애미
의류
저번
제임
짝이
탕감
퇴진
##ha
##하기만
말이되냐
나타날
발전이
은행이
2년간
공식적으로
명확한
놀랍다
7세
거시기
낳고
미투
성평등
음모
의석
이어서
중부
했어야
흔한
##범은
##올려
##구청
##테일
##못할
대구경북
아나운
##로서의
아시아나항공
pc
vs
거울
넘들이
다하고
똥개
망치
사모
습관
자의
저럴
캠핑
커졌다
파이
흐르는
##만진당
##되었는데
##넘게
##OS
지역화폐
장관님
재밌네요
집중적으로
000여
제기된
청소년들이
최적화
김의겸
개도
개탄
공사가
돈에
딸을
범행을
보나
수감
안봐도
핵실험
##스카
아니었다
문제도
하지않
169
아파트가
윤핵관들
긍정적으로
대다수가
ㅅㅂ
건국
날로
배터
승차
시상식
양호
장담
청정
충견
커다란
##력발전
##오르
##현의
##셔도
##위원회에
살인사건
지시를
해석된다
이따위
1∼2
거리는
떠드는
반란
보청
실어
##차이
##하곤
##살고
##균형
##하는것이
##거리며
마약사범
부산시
기준금리
순수한
비호감
US
공룡
내기
농어
발간
빚을
소극
신곡
양질의
적고
제이
챙기고
##산다
##남용
##래곤
##랄까
정치방역
그만좀
##적이었다
성공했다
쪽팔려
##거래가
금액이
이벤트를
반려동물
김진표
등급
물질
배부
유대
증폭
특화
##시죠
##로에
##소수
##회복
##좋고
##부정
##했어야
지원에
연락이
생긴다
대가리가
강제징용
꼽히는
당했다
돌아서
됐는데
두꺼
백번
찍을
취하고
한표
형식
##것에
##단위
보고서는
공간으로
무거운
안하나
##언유착
있었을
자유로운
좌파들의
책임질
현실적인
부모는
사라져
법무장관
기반을
금액을
주차장
조합원
최우선
##카데미
군이
굴러
되며
씁쓸
않으면서
지붕
휴게
##원칙
##데기
##텔레
바이어
기억을
##산업이
선수들의
##경찰서는
감소한
펠로시가
비트코인
어쨌든
들으면
많으면
생기고
성장이
수단
죽었는데
한판
##어디
##군과
##밸리
##본부는
##인데요
나오기
##은행의
대만은
의무화
스티븐
개웃
관중
노벨
다크
올려야
잉글
##주는데
##잡기
##이거나
##평생
참여한다
올해로
운영한다
올라서
여야가
무늬
버텨
범위
업적
트로
확률
##주는게
##안된다
##는다는
##융합
범죄는
언제든
추진해
의원을
인사들이
나가면
그런데도
과학방역이
##국제공항
맞지만
명문
본래
숟가락
열정
위촉
##레인
##있었다
통일부
동영상을
만만치
피아노
고인
고추
기조
높을
법원은
송영
식의
심신
##것인가
##부동산
##체적
##었으며
##학원
##매는
##강도
기대할
110
그렇지만
연락을
달에
뒷담
맞는거
문대통령
슈팅
이고
저놈
치면
##우파
##예찬
이용자
##정권의
한번에
코로나가
너희들은
쪽팔린
치료가
출연한
권성동은
일으켰
예정이며
아르바이트
##벤처기업
##광역시
카자흐스탄
가는게
농도가
몸통
미쳤다
바가
속보
슬로
처방
팔아서
포괄
화폐
##종은
##이요
##발생
##TO
사람한테
경제성장
보수를
어렵다고
노력하고
안정적으로
##스토리
기축
맺은
속한
속으로
의외로
이면
잃어버린
자택
죄인
짓은
##다나
##검토
##껀데
경기도에서
모두를
추진한
이뤄지고
계급
고혈
다신
따르
묶어
발라
싸질러
없으며
예배
종류의
화이트
##만드
##집어
##uji
국가주
15개
걱정된다
##할수있는
음식점
없었으면
전당대회
목사가
본부장
사관학교
안하는데
예금
원고
콘크
하겠네
##인민
##태를
##놨네
수사도
##할때는
업계의
윤정부는
게스트
나옵니다
남들
남기고
똥싸
멍충
법제
사저
사생활
여기가
옵션
이니
이보다
특례
##나가고
##퍼센트
생각했다
생각했는데
시작할
사업장
##센터에
환경에
공산국가
하던지
소름끼
간호사
그다음
영유아
놔두고
만성
사료
선물을
싸워
자금이
정의를
##정비
##갖고
##디아
수사해라
얼마전
피해자의
11개
사형이
##나오면
연예인들
빼고는
밝혔습니다
과학기술정보통신
국외
르노
빨대
실리
애써
언행
연내
##지우지
##타가
##했네요
##페스티벌
##한다며
하는건지
대단히
보호를
반성해라
들린다
맞물
올인
일일이
파손
한대
흠집
##실장
##∼8
##초등학교
들어오는
러시아를
직접적인
미래는
구로
못가
문서
부른
술집
않네
이석
주목받고
스피커
감탄
규명
넘을
되겠다
못보
부장
숨은
응시
재단
##국장은
##로직
##까리
##타이
기술과
주장한
장면은
제안한
진상규
스트레스를
가산
깨고
멋지다
빨고
여는
원하지
죄인이
트리
##도없는
결정할
확대하고
규모를
##정책에
자유한국당이
돋보이는
잔잔한
과시
당권
딸랑
싸울
애는
양념
황당
##어에
##만하는
##난리
##줄은
##층은
##벗고
##듣는
재미없음
비교할
어렵지
21세기
선전선동
KBO
네덜
모아서
발부
발암
부상을
불리한
설치는
속초
준다고
핀테크
##호와
##성향
203
정부도
했다가
##사업으로
남북관계
항공기
젤렌스키
간이
단어가
달린
대략
와우
인원이
지자체가
차에
파이팅
함유
쓰레기같은
국방부는
지루하다
수십년
바다에
내륙
뉴질
상해
쉬고
신년
왜구
좌빠
크기
포퓰
##은게
##판결
##수기
##했구나
##들이야
국민일보
생각한
필요로
조작이
국짐당은
안되냐
집중되고
연기력
궁금하네
마스크를
폐지하고
당선된
5배
7살
고로
리콜
만취
세트
의하면
쪽은
##쓰면
##수작
##od
##포인트
##족이
기대합니다
범죄에
한번씩
대만이
음주운
설립한
뚜렷한
교활
다툼
동훈
될까요
두루
명동
못하는데
무선
민심을
보이지만
아껴
안하지
않겠다
전현
죽기
##아동
##계열
사회공헌
교육에
방송된
##하자마자
##지않아
노래가
흐름이
모를까
IRA
각본
걸리고
길어
논리가
당근
시기를
애로
##하되
##기사가
##러스터
##겟네
##00억
지속될
저희가
안그래도
늘리
로마
불참
사육
사운드
승인을
줄서
친북
페널
##아깝다
##하더만
##포스트
20만
이렇게까지
누구냐
대학에
##게임을
강화하는
떠들고
무렵
복무
색다른
어쩐
원정
찢죄
판에
##놓는
그러한
자기네
돌아올
현실에
프로그램에
공부하고
6만
굳건
불투
우덜
이세
편이
하시길
##기부
##수익
##구성
##폭락
##디움
10프로
##니까요
정신좀
중요성을
다니면서
국회의원들
조국수호
선보이는
금감원은
소방당국은
오사카
A씨의
sns
교회가
도청
오너
이뤘
있기에
취지로
##돌봄
##씩이나
##망겜
##닉스
불법으로
궁금해
표현한
보기엔
가짜뉴
회의에서
겨울철
전반적인
유투브
마르
윤서
졸작
펼칠
##지라
##드와
##위원이
##포로
##났는데
내용으로
본격화
투입해
도둑놈
두드러
간절히
문란
발병
배급
있던데
지킨
##페이스
지지한다
모르네
확인된
금융권
발표하고
실시하는
관저
관점에서
동대문
박형
본질은
비자
쓰래기
있느냐
줄이기
통수
파격
##기대
##글로
감독을
주민들
요구한
중구는
##마저도
93
90년대
발목을
분기
비닐
뿌려
성립
순으로
엄한
인력이
##입으로
##테이너
##머스
문재앙과
조직을
다를게
계열사
다루는
SUV
먹어야
시점에서
싶네
연대
유산
장이
좋을듯
화를
##국장
##스리그
##승리
##AE
문제임
사실에
러시아와
가족은
지켜보
고민이
과학방역은
개정안
##경영자
가계부채
1심에서
개성공단
윤썩열
닫고
리듬
쌓여
의전
이도
좋냐
판치는
횡단
##로서는
##못차
##움과
친구들
어느나라
하다하다
##테크노
어릴때
1분기
공감을
못한다는
보태
외에는
욕할
저것들은
좋다는
충실
##판으로
##되네요
##파티
##죄는
하나라도
북한에서
다시한번
##들에게도
기록하며
공연은
개최된
근무하는
##상황을
너네가
대법원장
흥미진
시급한
입만열면
art
관리에
두둔
배틀
분할
사단
색출
서방
신이
전도
주에
터질
##호식
##여론
##답시고
##ss
##ri
문제와
정신질환
##지역에서
공산당이
개최한
바뀌는
밀어부
##시스템을
아내가
가세요
관행
국공
남는다
바깥
잘생
주제를
풀고
##리안
##기야
##일의
##수라
##오를
##넘들이
##겨라
사람인데
##이었음
거래를
수십억
##변호사
토트넘
농식품
맑은
모이는
문빠
방구석
오류가
위태
전철
져야
취한
펼치는
흑자
##가에서
##라인을
##일까요
##전쟁이
##남자
##받으면
가능하고
얼마든지
여성은
전쟁나면
이놈은
2인
FC
급하게
길고
바라고
버릴
상세
시인
안쓰고
인턴
크다고
하원
##으므로
##았으며
##채를
하고는
나오면서
200여
여기까지
000원
관대
기숙
논리로
야기
운동이
이끈
지선
##지도록
##없게
##했잖아
그러고도
아무말
인정하지
분석을
차량에
##드려요
골을
보석
보강
입점
전격
준수
펼쳤다
##을려고
##파를
##셨네
##맛이
##휴가
##췄다
##기업을
무엇인가
재미있고
나쁜놈
바닥을
봉사활동
썩어빠진
국장
내놨다
뉴스가
방관
부회장
살수
세제
세균
속도로
알아야지
어렸을
억압
취해
테크
한장관
화웨이
##졌기
##계와
##누가
윤석열도
참여가
방문객
제도다
만약에
주도하는
##재의
##오스
바이든을
비핵화를
거북
광명
독려
드물
상납
육박
천문학
터널
학과
##공부
##cm
##롭지
이런일이
10만원
교육부는
여성가족
금융위기
달러를
공유하고
마디
먹튀
북조선
비준
옮기
인력을
케어
통하여
해설
##이구만
##님도
##학자
##증은
##즈의
국회는
##주의가
여러번
이뤄진다
받았습니다
2∼3
6천
SM
낮게
너그
뒤에는
들아
듭니다
떠나는
목에
밑에서
벼락
약간의
잘만
저에게
적도
총기
타결
탈을
피할
##됐으나
##넘어
##씨에게
##00여
112
인정한
분명하다
광고를
캐릭터가
수상했다
손해를
프로젝트를
무지한
개념이
##🚬🚬🚬🚬
유투버
몰두
복용
분은
아작
여유가
##관리를
##금액
생각하나
##하는거임
이것들아
위험을
핵심은
강원랜드
어머니가
레스토랑
페널티
5급
견디
대동
만찬
먹어도
무식이
빈번
석방
염려
웹툰
이력
이색
재생
칼을
포스트
##그대로
##같지도
##언을
##양아치
##메이크
시작하면
기업들은
우리나라를
반대를
괜찮아
밝혀졌다
감동적인
포기하고
안희정
계정
무기를
외계
일좀
피를
##개정
##침해
##전선
##세여
국민투표
##라는걸
##같은거
운영할
살아갈
##환경을
연결하는
수의계약
모스크바
낮다
될것
않으니
요인
저를
전신
지겹
지분을
케이스
##재인
##나옴
##진단
##본부가
결과적으로
##위원회에서
고객의
이루어진
구역질
매니저
넘는다
동의를
며느
반지
신사
신장
싸구려
일한
해쳐
##대왕
##시라
##할만한
##나봐
##올린
##무서
##두가
##28
##조치를
지금보다
설치해
법카로
삶은소
어설프
금강산
결말이
경향
꾸며
남측
대치
빛나는
연다
외치고
유머
후쿠
##터는
##중에서
##법도
가능하게
들어야
환경에서
증가할
노력하는
SNS에
기상청
국무위원장의
장례식
뉴질랜드
5명이
곱게
국정을
극심한
대똥
맞벌이
민사
버젓
병원을
시선
의문이
주된
질이
피가
현명한
##아주고
##였을
##정원
##구매
##역은
있는거지
아닌것
관계자가
쓰레기들이
##사업자
비판하는
잡아라
활동하는
사형시켜라
나가야
페이스북에
이내에
급격한
3회
94
달리는
베를
보이네
여부에
짜장
차리
책정
해온
##어스
##뉴얼
모르쇠
##들어가
판단하고
받았던
지루함
포기한
축구대표
길이다
날을
맘카페
살릴
양평
인과
잠정
측에
친척
탄소
토로
푸른
##미에
##과세
##일베
##없다는
##투쟁
##더스
##협약을
##또한
다양하게
확대해
인재를
##축구연맹
be
가지는
건물을
구리
권익
선량한
외식
이강
적립
전가
축적
##있지만
##즈는
##TE
그런다고
아이는
사랑합니다
누구에게
판단해
불법촬영
개최되는
위치해
기초연금
강경화
삼성바이오로직
중장기
이집트
imf
가뜩
꼬투리
낳은
덕분
수해
엉터리
##에대한
##설치
미국산
들어간다
댓글조작
방송이
##정도는
누구한테
중심에
모르겠네요
살해한
kr
기지
나뉘
내돈
돌리고
본토
생성
소아
외곽
정시
진핑
집주
한지
##보라
##질하는
##불이
##백화점
##TX
##메이
경제도
##였다면
거짓으로
##한거고
방문을
위원회
주식시장
##ood
뮤직비디오
돌리는
돕기
동계
뜨거
숫자가
시에
압수
왕이
용이
적을
지침
캘리포
##대회를
##프라이
##렸지만
##붙어
사람이라면
##보다가
선동에
##나오고
비상대책
몰라요
적발됐다
방산
법원의
수꼴
왔습니다
##전에는
##근이
##통과
##발전을
앞으로의
스토커
인천공항
혁신을
협력해
수상한
깔끔하게
스카이
어두운
공장을
김광
나부랭
막강
양식
저승
좌지우지
체력
##일랜드
##데스
##공천
##계약을
##저것
영화에서
행복을
저러니
450
따위
떠드
면상
물갈이
밴드
부럽
불기소
소액
심상
유익
##석에서
##질하고
##렉스
있을때
4050
차지한
쪽팔리
##새끼들
주어진다
부장판사
인플레이션
대회에서
망하고
순서
스키
신제품
이윤
이목을
혈액
##인해
##백이
영화관에서
이런기사
경기도청
경제협력
사용을
제공한
어린이들이
바라보고
정신차리고
절반이
김영삼
사립유치원
대목이다
휘발유
난방
내밀
따르는
부유
상인
순환
주저
##지기도
##세력이
##해야된다
이용하고
세상의
개최된다
청와대에서
유럽의
대응이
석렬이
머리는
##지금
##지원을
##한텐
##레나
##화해
##점이다
##공학
##세와
##모르는
##목적
인간이다
안전하고
소리하네
중소기업이
줄어들고
꾸준한
cctv
국영
너한테
단백
목적을
못하냐
봉쇄
빠지는
않네요
월요일
장군
줬다
책은
현기
##한것도
##해볼
##고등학교
##수행
##버릇
##타르
##투를
##달을
문제점을
그래요
2001년
학교는
전쟁은
사법농단
소통을
점검을
원칙을
해운대
B급
도시가
돕고
블라디
하자는
항목
##사자
##거로
##전도
##우와
##비행
##했겠지
##21
##AR
대구시
하다보면
이나라가
스파이
그다지
대권
무난
미행
새마을
소홀
수년
실수로
오글
일명
적대
특권
##거같은데
##주길
##는대
##로써
##평이
##제일
##오프
##트라
언론들이
제공해
작품이다
우려도
각각의
취약한
휴대전화
가뜩이나
갔는데
강렬한
권위
무작
손쉽게
안했다고
오리지
장예찬
지워
토크
툭하면
표명
한계를
##제도가
##유공자
##있는게
##벤션
피해자를
알고도
##기관과
의미로
분명한
##사건건
불가능하다
죄송합니다
고액
군의
깊게
민낯
사야
스포
식사를
허허
흥분
##거에요
##인정
##내자
##학규
##실의
부산의
14만
과거사
걱정하는
일제강
350
3분의
TF
눈높
반가
생리
주둔
추격
헝가리
##동에서
##있네요
##했니
##생태
예상보다
고객들이
직장인
마이클
2점
너랑
전지
추세다
형님
##가치
##명령
##르며
##제공
##꾸라지
##밀하게
북한산
모두에게
지정된
임명한
동아리
65세
71
각국
도지
만진
불로
세대가
안팔
언플
현명
##안타
##그렇
##체류
##값도
##왔습니다
##교육이
감독과
모은다
캘리포니아
거리에
기레
대회는
명목으로
성황
잠이
장본
제어
##미세
##재료
##화되는
##르면서
##조차도
고지
술에
약자
저주
줘도
진전
현상을
##국적
##은희
##시원
##졌어요
##세도
안전사고
신경을
##인간은
평화와
##icle
##산화탄
고학력
반해
배를
불고
옳고
이원
척결
추첨
카니
##재정
##전용
##범위
##신분
##키고
한국전쟁
##기관인
방문할
시키면
흥미로운
격차가
골라서
대면
벌여
블로그
비로
비공
살이
양이
위성
자들은
자식을
지극
첫번째
축제가
혜경궁
##사장
##탱이
대통령이라고
인간말
검찰개혁
프로듀
환경오염
##지역은
공무원은
고려할
구매할
이놈의
극단적
노트북
89
귀한
노리는
로버트
무너지
보살
부의
소문이
손학규
전송
제압
프렌
항공사
##사다
##버릴
##믿고
##한다는게
전략이
극우유
만드는데
고마워
박물관
안하무
AS
꼬박
본질을
심하다
이쁜
해쳐먹
##명도
##구녕
##해야만
제기되고
받았고
무역분쟁
손흥민이
포퓰리즘
GR
공고
길에
난리를
날리고
남학생
노골
높지
들었는데
몇천
문닫
사자
외화
현장의
##물어
##의사
##이재명
##방망이
##래가
이어진다
올라온
운전자가
대법원장이
거슬
관절
난무
대고
드립
방과
살았
안죽
원본
정체가
죄지
추후
친한
특강
표기
##그렇게
##려구
사람에
이번기
러시아에
한달에
허수아비
봤지만
사적인
소폭
수단으로
알겠는데
잘사는
종일
지사의
한통
##범을
##밖에도
##em
##져요
##이라는데
사랑과
대학의
선택이
반영한
반발이
심사위원
간담회를
기원합니다
스위스
깜방
담합
대본
뜨고
보았다
사사건건
시티
신나게
앞잡이
의심이
장비를
죄없는
타다
##지노
하루도
국민들만
평생을
독일의
개혁을
일으키는
닮은
못생
묻어
뭉개
보이며
비춰
살인을
수산
안하는게
##아를
##주제에
##자리가
하는거다
활용하는
##되었다고
메시지
KTX
무소불
5만원
MC
공단
다문화가
달인
돼요
빌어
삼청
상식을
송치
싫어요
씌우
열일
한몫
##으라는
##적이라고
##모르고
##역의
##IP
학생의
감사의
위해서라도
역사와
실질적으로
깜도
돌리
못하
못알아
법원에
온실
위주의
줄줄
##들하고
##할꺼
##드림
##학기
사람죽
나오게
자신과
문화와
외교부장관
부분도
의무를
토론토
뉴스타파
1찍
과반
금수
김밥
대행
되자
새누리
쇄신
신조
에혀
종결
크루
##바보
##라는데
##각이
200만원
보내면
##기관을
구성해
너희는
##결과를
youtu
걸음
두는
박쥐
역풍
장마
증시가
지니
폐교
한가지
##은이
##용은
##에게서
정치인은
서울은
그런게
내용과
정상으로
##이었으면
영향력이
제기했다
물가상승
아닐까요
##😱😱😱😱
해수욕
걷는
대성
드릴
민감한
박그네
손님이
일이나
잦은
징벌
초중
커지는
##주면서
##혹한
교육감
확대될
비용은
회담을
##사기꾼
스테이지
어떡하나
슬프다
##어린이
1순위
남한테
농담
변하지
빠르고
진중
청장
탓이다
##지표
##안하는
##해보고
##상시
##구도
##변이
##했었는데
##묘한
국민연
프로그램이다
직원들의
상품이
장난하냐
##으로서의
추억을
이메일
비타민
DNA
뜻으로
살다가
양아
없었는데
주동
주가는
##일간
##심과
##르네
##네는
##절로
##멋대로
##하기까지
필요없는
국가적
올해의
중요하지만
이것저것
청와대에
이루는
생겼네
부패한
네덜란드
3인
구호
권장
동서
묘사
빠뜨
영부
##들로부터
##였으며
##방어
##군사
##셨나
##철이
일본으로
수준은
마음껏
사과도
방식의
비열한
거뒀다
낙하산
article
골고
물어야
살만
상하
예보
웃을
접할
조성을
찔러
##사서
##하십니다
##까고
##실패
##달이
##직으로
##OC
대통령이라는
기사도
##레이터
의원과
선동하는
모른척
##훈련을
무대에서
사항을
고맙다
엄벌에
FI
가나
낮고
되지만
묵묵
민속
바가지
시드니
일괄
줍니다
##소유
##BA
##일만
##파이
##부작
##숙이
##적으로도
다른사람
이제부터
진행해
돌아가고
마음은
마음의
일제히
권한이
적반하장
촉법소년
남기
법령
상하이
속에서도
자중
절약
클라스
##지는거
##진출
##게는
##생의
##색으로
들어와서
취업자
결론이
아나바다
혼란을
않을까요
참신한
베를린
결성
넥슨
사임
산으로
시의
싫다고
아스
이노
하길
##대면
생각하냐
아침부터
기자회견에서
7천
고인물
나팔
대명
등재
벌을
탄도
하남
##저나
##디가
##예정
한국당이
##는지를
드라마의
소개하는
벌어졌다
모델로
아빠가
살다살다
민주평화당
개개
나노
없어야
형식으로
##검사를
##데다
##모터스
##LED
##영화제
이용자가
의원님
내부에서
사람들만
빨갱이들이
동원해
잉글랜드
1주택
같다는
걸작
내몰
듣보
팔렘
편한
형량이
##무니
##류에
##짓이
##기업에
발생하면
지키지
가정의
캐릭터를
주둥아리
나랏돈
이렇다
일삼는
텔레그램
개차
놓여
누나
단행
더운
등신
모텔
보냅니다
상한
서류를
선관
알파
자기는
주니
포트
##보네요
##었네요
##란게
##엔딩
정신못차
##이냐고
방송사
의미한다
##지않게
좌빨들은
31개
방침을
연계해
##드리겠습니다
다주택자
4시간
NH
던진
메가
여왕
좋네
지문
퍼져
페이지
##안하면
##버리면
##역할
선거를
재판이
시절에
대기업이
도와주는
좋겠어
부회장이
계엄령
5대
The
수업이
쓰게
알기
얘기는
입장에선
크림
파급
훠훠
희한
히트
##시게
##일이다
##좋게
##속한
문재인을
설치하고
##어버리고
조건으로
미성년자
솔루션
3학년
개거품
고독
군은
극한
눈깔
모셔
온몸
중이
지주
취직
해를
##소인
##기엔
##권으로
##혈관
서울을
정책과
하루라도
도입한
바람을
전략적
감옥에서
진상조사
ㅇㅈ
그밥
그들에게
될것이다
때의
맺고
메일
민감
법안이
안정을
웃음이
##과정을
##됐기
##딸이
##손으로
교육부가
사랑에
내려야
가격도
고민을
도착한
##구장창
리메이크
바래
벌고
우월
하버
홍수
히틀러
##전형
##날을
##읍니다
하는거냐
사회생활
판매를
기관의
장기적으로
2학년
건전
나눈
만지
샤워
성분
영수
##놈도
##패거리
##댄다
##조심
##팔아
##ul
##커녕
프로모
학생과
책임져야
제공된다
자녀를
할수있는
정수기
버젓이
귀에
욕심이
우대
이밖에
일러
찍어서
챙피
초록
특사
특이
##사유
##거에
##인양
##적일
##스턴
##디스
##코스
12시
알려지면서
해결될
소재를
애플리케이션
신흥국
불확실성이
##텔레콤
팔렘방
마녀
발탁
불매
성명
전력이
차는
처한
추징
협조를
##많고
##거죠
##안다
##케스트
##르자
##써서
##편으로
##코드
지금부터
그래놓고
좋아하지
이후에는
중요하지
투자한
소리지
##지역을
올라가는
안되네
프로그램으로
응원한다
의견도
##바이든
주최하는
버티고
부적절한
4번
계층
기시다
아들을
야당은
역설
연인
염두에
일잘
재임
정청
쫓겨
했어야지
##사례
##화장
##이제
##장에는
##입을
문제라고
진행되며
##주의를
이용이
국제사회
결정하는
잡아넣
희망하는
##상황이
핑계로
끔찍한
기를
깔려
됐다는
시신
중이던
허접한
혈압
##고의
계속되는
있었어요
##자들에
비롯하여
업체에
감동도
생각해봐라
만드네
감안해
투명하게
이글
전제
폭으로
##곡을
##병에
##이야말로
대학을
응원하고
##연구원이
바뀌면
전달했다
선생님이
다가오는
감이
무리한
영암
유적
이양
전월
정면
조건이
처형
태워
##보는데
##공유
##매체
20개
확인하는
##하니깐
실시했다
000만
안철수가
주최한
언젠가는
김현미
교과서
제임스
공소
되겠냐
번에
속에는
싶고
싶어도
유시민
잊고
차원이
한것
확립
##대갈
##시네요
##해지면
##였구나
##수다
##적이라는
##계로
##즈니
##년의
푸틴은
자격증
느꼈다
곤란
군대가
대회를
등판
미혼
송도
집유
##회에서는
##보전
##질않
##우며
##내에서
나오니
000억원
요청을
없었습니다
##통신은
mbc가
##토리얼
욱일기
안락사
NC
늘면서
범위를
사기를
심히
않겠다는
재학생
정년
즈그
프린
하하
한양
##차도
##기정
##네가
##려요
##티가
##ㅇㅇ
##잖냐
##길로
##렸으면
경기도농업
모르는데
사회악
노동자가
기준에
이른다
이런데도
부드러운
TK
갑시다
결렬
농기
붙은
뽑아야
속은
스킨
양주
여파로
취미
판정을
평일
##아이가
##액션
##박고
##페라
##깁니다
문재인정권
관계없이
정도를
##시켜야한다
주택을
직무유
소름돋
에너지를
불친절
노회찬
김승
마켓
못하나
약물
위치를
자매
잘돌아
##들임
##가냐
##간다는
##그랬
##두리
##복이
재미없는
거짓말이
저지르고
##과학기술
압도적으로
편안하게
같지만
광교
매운
분란
삼국
시선이
실체
안지
여당은
잡힌
죄값
주구장창
##전까지
##업은
##먼지
##받기
##이라곤
##이라고는
돌아오는
다음주
언제든지
미친거
가는구나
##환경이
선보일
일어나고
관광객들이
이승만
할줄아
진지하게
92
꼽았다
맛집
소집
시체
연세대
온도
원합니다
튼튼
헷갈
##시급
##해준다
##보안
##병은
##된게
##35
##격으로
그런건
조사할
운영되고
위험에
있음에도
##투자증권
일으키고
집어넣
탄력근로
8천
공주
글쓴
낯짝
달한다
말입니다
미미
민심이
쓰냐
애완
오타
원흉
중입니다
콘셉
하죠
하기도
##안하냐
##봐주
##ee
##변경
##이라면서
##스럽네
현대자동차
참가자들이
높아지는
##쟁이들
교수의
국토부는
마찬가지다
내세운
7만
기껏
남자들이
말해라
뭘로
바랄
버려야
설쳐
야당의
정교
코드
파라
##였으나
##작전
##프를
##분할
##병대
##하고싶
영화네요
2017
누구의
조작감
##자리에서
사형을
대출이
국무총리
공유하는
배경을
개나소나
KO
격추
무제한
미화
사명
상의
승리가
않지
열대
욕이
용납
찌질이
컨테이너
판정
##어울
##안함
##취소
##이는데
##나는데
##함도
일본군
개선에
결정에
없었다고
자격을
용산에
깨끗하게
전투기
가파
과대
동향
부리는
비비
욕지
재차
치워
퍼트
행보를
헬기
##도리
##교는
##유발
##집권
들어올
떨어져야
개인적
40여
하자고
자료가
성황리에
2달
SF
개장
끊어
대세
변태
사살
앓고
차리고
추악한
플랜
흠뻑
##영을
##보내고
##되도
##제작
##프리
##52
산업단지
사라져라
어쩌나
개돼지들은
지도자가
수익이
실제로는
지상파
국공립
개소리를
되었는데
뒷전
맞으면
사악
속아
쉽다
아휴
이해도
행정부가
##신저
##SA
나라빚
경우에
관련해서
##의원님
분석도
노동조합
유치한
무역협
수입이
확정된
의도적으로
앞뒤가
전수조사
가관이다
전광훈
OST
ㅂㅅ
내놔
못사는
문어
발음
볼만한
시야
시국에
인류의
직원을
처우
##두천
##초에
##직자
##왔고
계속되고
이용하여
없어질
당연하지
영상은
지구상에서
일으킬
나누어
부끄러운줄
안민석
구원
동호
목록
봤으면
불에
불렀
상원
안했는데
한녀
헌재
회귀
##쓰기
##네트워크
##문제로
##피를
##행사를
##역과
##워드
##쪽에서
##뜨고
알려주는
기술개발
정의가
건보료
##인터넷
국민청원
골고루
결심
녀석
맞았다
속출
손꼽
싱크
잘들
##들인데
##당해
##보지도
##게이트
##완전
##짜증
##셨어요
##궁창
아니겠지
최고로
100억
오늘의
일부는
나타냈다
주민의
예상하고
드러났
건축물
거점
그전에
깨진
꼴을
미쿡
보기에
복사
실습
영하
출품
홧팅
##바꿔
##돌아가
##없을
##분리
정치판
좋아합니다
바로잡
검사도
선정한
전라도는
한반도의
국개들
민족의
이득을
행정안전부
과다
못하다
바빠
장수
주접
주워
지름
클린
휴일
##차의
##일보는
##정하게
##치던
##능력을
##포함
의원들은
생산하는
배신의
확산되고
형사처벌
있으므로
편안한
콘크리트
2심
6억
누워
달라는
문과
뭐래
별점
봅시다
선적
성취
승무원
자처
지위를
##할것이다
##만드는
##자라
##인거야
##동으로
##두를
##입은
##스틱
##군다나
교육과정
더불어공산당
17개
소개하고
재앙이가
무너진
블록체
심판을
귀추가
딸은
서대문
지구가
표출
할일이
활약을
##건물
##제품을
##입이
##본데
어디다
기자간담
반영해
개정안이
##대학원
챙겨라
간단하게
##호텔에서
노원
만일
먹기
명신
버틸
신상공
없죠
음란
인쇄
접어
탱크
##청을
##모드
##생은
##놓으면
좋아해요
국힘을
외교는
인정할
출신인
구조가
능력은
석열이는
촬영한
아름답고
보건복지부
이번기회에
0으로
건전한
과징
김창
눈에는
워킹
주방
쫒아
합창
헤드
흔적이
##지주
##7억
##oT
##찬다
##히게
정신들
생활이
대선에서
행동으로
모델이
공시가격
구질
놈이다
대갈
들었습니다
비만
비리를
장소를
짤라라
폭행을
할리우드
희귀
##야함
##세스
##세트
##세대가
##비서관
##울루
##무장
##먹어
##∼7
##북송
이상하다
들어가고
시작된다
정도껏
전문가들의
신청한
알바들
대대적인
손바닥으로
St
김준
당당히
무분별
박은
받아야지
빠졌다
사외
싸다
씨와
장시간
하필
##사면
##사냐
##열에
##당대표
##해줘
##이건
##진행
##날레
##브랜드
##후니
##짓고
마련할
여자도
넘어가는
법인카드
신분으로
3층
교민
몰수
백두
성숙
안좋아
천멸
휩쓸
##은데
##없습니다
##자꾸
##교사가
##오던
##계좌
##티비
##쪽은
만들자
##시장과
전쟁에
서민들이
근거를
조심해야
세종시
해보세요
SNS를
편리하게
공청
등이다
쓰기
조사는
총리의
한수
##고대
##ak
##불을
##져야지
하는걸
생각나는
영화관
##하기에는
떨어져서
방송인
찾아가서
해결하는
있었다면
노력할
데려다
망가뜨
로맨틱
소시오패스
Mbc
개망신
구는
꾸려
노태
단호
동두천
될수
만주
많기
박람
배임
술먹고
썩열이
종자
책이
챙긴
카풀
##설계
##청의
##채가
때문이라는
설명하고
내려가
전쟁의
증가로
개판으로
임대료
욕설을
##사항이
동아시아
공기청정
송파구
그돈
기웃
말라는
식구
영빈
이겼
자행
침투
##방궁
##중을
##무새
##블릿
아무렇
추진을
##리지말고
여름에
##대책을
대기오염
블랙리스트
소설을
극단적인
부총리는
테슬라
막무가내
공감이
달했다
뻔하다
알렸다
인문
죽어서
학업
힘없는
##하를
##공이
##말라
##찰을
##추는
한국에서는
너무도
기대되는
발생한다
5년이
공정위
불법체류
선정해
좋았습니다
플랫폼을
내세워
큰일이다
심신미
국뽕
대도시
멘탈
물건이
민망
볼륨
부스
속이고
인형
입문
정화
제7
직업이
초월
풍경
후임
##거잖아
##소연
##공제
##조끼
##코올
##첨단
##골이
민주당아
30만
여자들은
자체적으로
재산이
제목이
측면이
이나라는
하지마세요
잔인한
입맛에
피눈물
가정을
꿈이
다르고
무법
앞에서는
오신
오디션
욕만
이르기
조처
짓거리를
퍼뜨
품고
##호로
##웠고
##푸드
##될까
우리국민
##거리로
발표된
아파트를
구성되어
음식은
##그룹의
정상회담에서
군사적
A씨를
가져야
동방
버려라
뽑고
시속
실외
유공자
제조사
집도
할만한
##오가
##행위가
##계속
##테스트
##벨트
##깊은
우리집
일본도
보고싶다
학생은
국무부
모르겠는데
전과4범이
명령을
금메달을
자이언
계란
다수가
못합니다
사대
소매
싶다면
압류
일과
저것
좌절
주의를
혁명
##르몬
##그로
##맞아
##웠습니다
##매수
##봤어요
##카드를
한국교
국가로
북한도
여러분이
상태에
높아졌다
##해보세요
제외하면
분위기다
간철수
넘긴
대사가
대회가
마드리
부류
세포
##저축
##정권을
장애를
확대되고
##회의에
##업체에
의무가
저녁에
그쳤다
김선
보이나
분단
여지
여건이
이룰
입다
작정
조수
토끼
확인이
##에스
##경제를
##공신
##상인
##쳤던
##운다
##베이터
##매국
##루가
##팩트
##퍼런스
생각난다
서울로
서울이
100명
##적이며
인상에
달라질
무죄를
연루된
녹취록
게이트
규정이
노인들이
말하는거
뭘해도
안그러
제천
줘서
편견
##개에
##검증
##pp
##줬더니
##징계
생각해라
자신감을
기록이
전체적인
강조하는
푸틴을
이걸로
흥미를
프리미어
챔피언스리그
남양주
폴더블
경연
과제를
넉넉
모금
못한다고
백지
병맛
손실을
아놔
역사는
연이어
의약품
전성
##라면서
##보려고
##비용이
##르트
##활성
학생을
참가하는
행정처
윤석렬은
모른다는
남아있는
좋았는데
콘텐츠가
장악하고
반려견
간주
경과
군수
그들만의
눈가
더러워
떠날
모시고
볼때마다
솔까
싶다고
열받
이산
죄는
핀란드
한말
##사상
##할수도
##DI
##해야하는데
국힘에서
계획이라고
5년을
혐의에
이벤트가
활발하게
꼴랑
뚜껑
무리가
백날
본선
성인이
신약
신기술
울나라
질을
쪽이
착취
친박
푸드
##PC
##작업을
##조사가
미국이나
시간당
세금만
반대하고
50여
기다리
확보를
취임식
업계에서는
체결했다
평택항
CNN
권리가
끝으로
니도
댓가를
더군다나
말종
밑으로
박종
부상으로
악수
의식을
이왕
진부
초미세
향상을
허가를
##라는거
##는걸
##위생
##자면
##것으로
##그리고
##여러
##돼지는
##직원이
##둘이
재밌어
##지원금
경남도
##ong
갈라치
LED
계승
너부터
넘었다
달달
대안을
대만에
법도
써도
울릉
이창
이별
임의
전하는
집회를
총살
해봤는데
##리만
##백만
##족을
없는듯
확인되지
제품으로
소비자들의
지나친
그리도
사라지는
고려한
인천시
재미있어요
받았는데
등장했다
방안도
전동킥
SW
고치
네이
녹아
배워라
예견
일상이
장치
증말
항문
황제
##양의
돌아와
확대할
상승세를
##상태가
귀엽고
농림축산
가다
될텐데
멀다
메일을
방귀
보이냐
사측
사격
소식에
수송
안드
##대신
##드립
##개들
##이닝
##박람회
##등한
국힘의
지난해보다
드러내
존재가
노인네들
한미일
대가로
이외에도
안만나
내각제
붙잡혔다
동북아
IoT
눈먼
똥인지
마비
메이크
보상을
제자리
클리
톡톡
폭넓
##대서
##소프트
##보임
##수사를
##자문
##란걸
##술을
문제냐
그런말
가족들과
연구가
사진과
대학원
후보자가
광주형
인권이
폐지해라
관객들이
도전과
쏟아져
3만원
가사
넘나
명분이
못받
안봤
운명
위의
청계
##시행
##GG
##심판
##노예
##감이다
##sgg
##∼30
##등에
필요도
필요는
경우에도
그만두
##교육청이
않았으면
사망자가
목표다
아버지의
선고받았다
고위직
회원들이
로드맵
국격이
당은
대부
반짝
시전
의학
저감
하얀
하느라
환승
##주는거
##회에는
##버리지
##더기
박근혜가
한마디도
고령화
체계적인
586
2부
단절
못하겠다
물고기
벼슬
손목
쓴소리
아수라
얻기
청취
##수단
##있어야
189
결정한
신청이
대법원이
회담이
당사자
박수홍
점유율
유쾌한
to
김한
다뤄
모험
이권
인신
장악한
주어진
##대회에서
##면의
##금리를
##ia
##골프
대통령한테
이제라도
일반인이
부분에서
내년에는
되었다고
감동적이
특징이
차별화된
아동학대
보인다고
지긋지긋하다
4000
81
가늠
그외
끝을
약화
여의
위임
튜토리얼
##사라
##우나
##선물
##불능
##같고
##ur
대통령이나
국가부채
경제성
잘못하면
만들어준
국힘당은
사랑하고
대상에
판단한
신청할
업체의
2022
일어나지
어이없다
이럴때
어르신들
고의로
KA
김장
날카
대안이
덩어리
땅이
몇일
바짝
성룡
솜방망이
애쓰
예선
인증을
적자가
즐겁
팬들을
힙합
##다툼
##아파
##지기를
##설에
##였냐
##봐야지
##교도
##속을
##적자
##렸을때
##밀리
##정도면
업무에
공부하는
그나저나
둘러싸고
규정하고
현황을
원활한
아세안
3조
걷고
단말
베테
선수를
수순
안하니
외로
원화
원한다
유네
읽을
임은
자사고
최장
##신경
##하기엔
##이었어요
재미있습니다
지급하는
감소했다
약속했다
불과한
할머니가
고혈압
달래
더럽다
백년
부재
사나
요인으로
웃는다
##거짓
##작은
##감동
##분해
##운동이
없다며
언론들은
대상이다
부모님이
##문화재
벌어지고
검수완박으로
아쉬움
국회의장
박지현
엄격한
스프링
나발이고
지극히
반갑
봐줄
쏠린다
안겨
요리를
인프
찾아야
최선의
코치
##GM
##페미
##째로
##캐피
미국과의
해결해
부산에서
16개
부족해서
자연스러운
철수야
경고했다
가는거
거시
뒤로는
마쳤다
뭐임
밝히는
비전을
였다
웃겠다
재혼
지켰
지들도
차트
파기
한유
##도둑
##정리
##저럭
##DC
##🔥🔥
사람입니다
한다며
시작도
개발하고
처벌해라
성공할
살인범
공급을
계약이
그림이
아쉬움이
메시지가
상당수
부적절
출동한
아픔을
개시
당직
미워
봤음
설치를
숨쉬
앞날이
##의약품
##해지면서
##악을
##욕이
경기도의회
기업으로
있었기
있었으나
드러나는
2찍들이
작업에
기여한
공직선거
정황을
행태를
갖는다
마시는
뭐든지
빠지고
상대를
설령
쓰면서
##시대의
##주들이
##완화
##찍어
##fe
영화중
검찰출신
서비스는
지나도
얘기하는
전통적인
혹시나
견찰들
유아교육
오리발
개고생
파렴치
기무사
못배운
최재형
특활비
LPG
기용
깔아
내어
누락
뛰는
산학
소금
슬퍼
시그
실형을
아바
의장이
이밖에도
일조
조기에
천주
쳐넣
출간
##문서
##했어야지
##맞게
윤석열정부
##인지를
공개하고
전국이
##다니며
인생은
대책은
의료보험
구매한
주식은
1월부터
군대도
만남을
아끼지
청문회
걸친
그곳에서
놀랐
메신저
수월
않자
어플
윤씨는
청사
해줘라
##어링
##우주
##공약
##뿐인
##팔고
##짓만
##SC
수사하는
발표할
감사드립니다
##연구원은
중소벤처기업
##생각을
한류가
수원시
넘겨진
최적의
김명신
미사일을
##더라고요
천멸중공
유네스코
UAE
kbs
ㄴㄴ
거잖아
리버
미스
방구
숨지고
스킬
승용
우스
원룸
이만
이네
일원
장성
조아
촉발
헛발
##개고기
##전지
##투자가
##억씩
중국인들
##해야죠
없어진
##지역으로
받았다는
개딸들이
약속한
3분
개정을
기차
기내
기둥
낯선
산재
생선
스태
접어들
제안을
화천
##을거다
##상환
##남이
##모의
##논리
##효율
아이들과
국짐당이
현지시각
10년이
활성화에
스트리
사무총
어지간히
공인중개
정청래
1위에
단위로
되잖아
두껍
만료
먹어라
시일
신세
재선
편지를
##도서
##는것도
##자녀
##실수
##광장
##솔로
##하다면
가능하다고
투자자들이
안전관리
마련을
사례는
예전부터
왜냐면
심리적
훈훈한
8강
GTX
IB
각국의
경력이
내주
대정부
시궁창
암덩어리
인접
일기
재인이
주셔서
쳐도
해지
현혹
협상에
##위권
##올리고
##오니
##ec
##모씨
##맛을
##겄다
##하게도
하는것도
##이나마
댓글알바
##자들만
외국에서
한심하고
적용되는
##업체의
행동에
수요를
효율적인
서울중앙지검
국민혈세
가성비
모양새다
농어촌
굿짐
놓인
떡검
맞는지
수만
음원
잘먹고
##은퇴
##야할
##부품
##ER
기록하고
발전할
궁금합니다
한류의
시각이
효율적으로
떠오르는
태극기부대
농사
농구
덜어
때리
묻은
실명
임산
진급
초기에
축제를
침입
##속의
##배기
##오네
##몰라
정신승리
##시간은
계속될
기사화
지지율도
##의원들
내부의
확대에
청년이
얼굴도
담배를
어우러진
익숙한
고용노동부
개차반
1박
권유
긴축
나치
내연
누리고
단연
박상
방화
어땠
여사가
요약
자초
주의가
중이라고
출소
해달라고
회장을
##가인
##졌어
##나나
##피해가
##병원에서
중국인이
소비자의
공급하는
대북제재
어떨까
##박물관
동굴
될거
밤새
신형
이장
저쩌
전원이
쾌적한
항만
##수없는
##마련
검찰도
지원하기
댓글로
실시할
알아보고
국무장관
엄마는
제2차
참고인
##기준을
콘서트를
공화당
그보다
그곳에
끄는
남다른
넘지
년간
더부러
물량이
볼턴
비틀
열람
임마
증인
텃밭
협동조합
환자를
##지급
##나가서
##정치를
##버리네
##천이
##충전
지원사업
해외에
노동자들이
기존에는
분양가
자막을
베이비
무리하게
한명도
##점검을
건방
극히
담았다
문건을
보람
선풍
셧다운
수족
숨졌다
있구만
자리는
잡히
한중
할것이다
##하므로
##경의
##해선
##침에
##와이
##자라고
##피는
##색의
##희는
##저지
##충들
있는듯
생각해도
정권때
한번쯤
후보의
정상이냐
납니다
띈다
무개념
빛이
숨을
입는
조립
커지면서
해변
##대니
##한듯
##되니까
##무늬
##청에서
##생물
##희망
##셀러
##하고있네
##들이라
생각나
##주의에
제발좀
이건뭐
힘들지
내부에
넘어선
비교가
1년이
음악과
단속을
디자인을
03
LNG
고졸
근접
김주
꼴찌
먹는다
백배
부가
시점이
안통
엔터테인먼트
일입니다
주를
죽이기
펼친
학위
휴식을
##대회가
##기인
##이유가
##무죄
##증과
##럭저럭
도시의
공격수
합의했다
플레이를
인근에서
경호원
괴롭히
개떡
내달
뒷돈
막혀
불신
생기지
소수의
실전
웃는
전산
제5
할꺼
##대원
##다닐
##장려
##조치가
##까지의
것이냐
언론들
수준인
받아도
이거는
##이었어
설치한
체험할
스마트폰을
##학년도
MOU
교착
남동
남겼다
되는거지
말하기
범계
보려고
소독
스쿨
예멘
잠잠
##당원
##리조
##째를
있었지
##하겠나
전쟁으로
졸업생
공직자
출근길
비추천
고맙습니다
받아들일
그분
까발
끝내고
나눴
늦어
라이트
있겠나
잊을
첨부터
##가수
##어와
##세탁
##ag
##음으로
##같지
##빌딩
가능성에
보고서에
탄핵으로
조선의
시민들에게
누구든
현실에서
한마리
판사들
정치인들은
대변인이
세월이
분노가
도무지
많았던
부친
상륙
안믿
어둠
여건
할까요
했겠지
호구로
##주라
##재밋
##세기에
##치는거
##착륙
##ID
국민한테
경찰대는
경제정책
함께한
이해관계
##하냐고
##기관으로
##시설에
특별감
##국가로
불안한
등장한
전세계에
늘어나면서
##ang
멤버들이
제1회
대가리에
찢재명이
촉구하는
하나님께서
강정
거라는
공안
남자를
넣어라
눈치를
당에서
둔갑
때에
론스타
버스를
속지
적힌
쪽바리
흔들어
##하단
##소통
##야당
##오면서
##행사가
##마시
##커가
영화였다
모습과
마련하고
주목할
주도한
예전에는
소득주도성장
노하우를
교차
때와
문신
사이다
잘만들
태도가
팬들에게
프라이
회식
##개편
##경력
##한줄
##키워
##규칙
##됐으면
##받아라
##왔지만
부모와
##스럽습니다
효과적인
좌빨들이
도로에서
말씀이
김영철
떨어지니
##하셨습니다
종사자
카니발
dl
군림
도를
독보
백퍼
빚어
숨어서
쓰는데
알뜰
우세
월북
응징
임금을
있기는
찢이
흡입
##장구
##폭망
##후가
##연령
##랄까봐
경기도를
이재명도
경제적으로
그러므로
자신만의
지지율을
##했는데도
행사에서
유럽은
음식물
신문은
진단했다
##아무개
LC
광장
그자체
글구
다저
도태
발걸
안다고
없이는
에이스
외인
장소에서
##도아니고
##종교
##보좌
##전화
##데요
한국은행
진행을
자신은
마약은
위해서다
젊은이들
선수의
홍보를
##해보자
고생이
동일하게
가상화폐
깨닫게
GM
고리
독거
본능
안했으면
왕창
이땅
장점을
치를
치졸
케이크
편의를
포지
했잖아
##국이다
##준거
##피가
##태평양
##마에
##위원장을
기대했다
돌아왔다
기술로
##가가치
포함되어
확대하는
7월부터
돌아가신
국민의힘은
반발하고
6명
과정은
광양
말로는
무궁
배씨
브레이
세웠다
양자
외제
위대
의구
저것도
통제가
트라우
판로
##인구가
##락이
##했어도
##쟁이가
##빌리티
아니더라도
지난해부터
기억안
판단에
청와대의
고객에게
대응할
##그룹은
우크라이나가
이명박근혜
아까움
완성차
김진태
사우디아라
각하
갔다가
기기
답은
도래
못믿
밥은
시너
정동
정례
##거가
##에너지
##안으로
##해달라
##나노
##구질
##마당
##저널
##힘들
수사로
##대가리가
투자하는
결국엔
참석할
##라이트
그리워
그랬다
맞춰서
직권남용
간병
거창
떡볶
몽둥
벤치
자기를
전진
제국
취업을
카리스
한우
활력을
휠체
##잡은
##안한다
##일수도
##환율
##구조가
##꺼리
##꼬리
##IST
##삼아
이런것
이유에
최고경영자
시민사회
##센터와
고객을
전세계에서
일주일에
강압수사
베테랑
강의를
그럭저럭
낙후
미처
방안에
아방궁
이냐
자란
접경
줄도
지점
하더만
현수
##많아
##아아
##터로
##이잖아
##금리가
##트럭
##IT
##맙시다
좋아해서
투자유치
개발해
부모도
평가하는
여자친구
소비가
##회의가
업체는
그랬냐
가라앉
어른이
들어서는
##프레임
숨겨진
상용화
한유총
co
각성
감방에
경협
고금리
교정
교실
꼬집
남조선
녹지
뚫고
맞아야
받는데
부르고
비율은
사안이
엉성
채팅
행위는
호날
##나보다
##됐네
##마리가
##편향
##윤리
##윤석열
하고도
사실도
이해하는
책임도
기술은
주변을
위험하다
중요한게
가해자가
윤정부가
형수한테
검새들
오지네
한나라당
비아냥
돼지고
많았
상관이
속여
안주
이씨
이철
직거래
콩밥
##대며
##을것
##치냐
##저래
같은거
사용하면
있었어
운영해
마련된다
한동훈장관
이뤄져야
충분하다
벌어질
만족도가
인식하고
접근성이
방식은
인간말종
6명이
sh
공장이
남산
낸시
들었
무대가
번의
속의
스벅
짓밟
짱꼴
풀려
##당초
##림은
##나쁜
##문과
있는거다
정치병
아이스
있었네
여성들의
마약에
넘어가면
어렵습니다
화면이
윤무능
어리석
해명했다
후쿠시마
4강
8점
가톨릭
것들아
계파
그랜드
꿈도
돼지로
멀어
발상
쌍둥이
조재
##대요
##대변
##기사는
##심도
##린데
##45
##민과
##2000
##저도
##셀로나
떨어지지
분석하고
공정위는
##게임이
인생에
확보할
용산으로
1998년
억울하게
종북좌파
도이치모터스
이산가족
궁극
단편
돈과
로켓
모호
벽에
사귀
상정
소가
시연
제네
존엄
챙길
팬이
흉내
##대상이
##하우
##때매
##부진
##표현
##박질
##직도
이름만
과거를
재미있음
없었다는
조선족들
이사장은
모자랄
##할까봐
진실은
디자인이
과도하게
사립유치
금융당국이
걷기
마우스
몰카
비방
사양
인정을
질러
차등
취지의
토해
플로
##다이
##장군
##프는
생각된다
언론도
외교가
5년만에
청와대로
분야를
아프다
비핵화와
윤무식이
아시안컵
연말까지
압도적인
박형준
묵묵히
개원
고물가
대미
말았
송환
양국의
역쉬
오가는
저능
절단
한옥
##자금을
##ab
##제조
##티아
##따위로
##같아서
##쪽이
##현대
##봉을
미국인
시작부터
보여줬다
구속된
조금은
나와라
##을때는
보험금
의심되는
접근이
원칙에
애플이
생겨서
김관
꽂아
낙선
머스크
본적이
성분이
소망
수법
우짜
원장이
일인데
점수가
체계를
평점을
폐지가
포상
피난
항암
헬조선
##바가
##판은
##니를
##먹으면
##민들
##따리
국가기강
탄핵의
##하는데도
보내서
소리나
예산안
##으면서도
구축을
##노동자
남성의
업계는
##비용을
동원해서
식당에서
ㄱㄱ
공조
김씨의
나이를
때리는
못했다는
부려
사도
살려고
시위가
시너지
싶었다
안하네
자해
중년
쩍벌
한푼
화끈
황당한
##겠느냐
##책으로
##초를
##집으로
##반에
##현장에서
##활동이
##IS
##튜버
##하는건지
아이스크
책임져라
기술의
산업혁
지나고
그녀를
공식적인
비난을
이슈로
질병관리
시끄러
원작을
##때문이다
법조계
실리콘
흥미진진
내서
망겜
여기도
파운드
##뭐냐
##런지
##최악
##반의
##끄러
##삼성
들어오면
대표적이다
관계에
전문의
스타디움
중앙정부
택시를
좋았어요
임대차
남녀노
창피하다
불리하면
편가르기
다큐멘터리
2편
가발
공권
두들
말이나
목욕
무슬
버전
보컬
보훈
볼거리
부역
뽑을
성차별
세수
셋째
아재
전개가
조경
진흥
최은
하잖아
##바랍니다
##하셔서
##한건데
##실장은
##뿐이
##운드를
##꾼들
##움은
##친화
공개해
##이었다고
요구에
남자친구
인터넷에
##스러울
몰입도
안들면
동남아시아
이은해
삼청교육
농림축산식품
고창
곤두
그라
녹조
뿐입니다
살린
예민
충무
호가
##국가가
##할땐
##케이스
##청과
##농가
##농구
시작하고
아니라서
나오는거
좋은거
이어지면서
##영화의
부족하고
안정화
위반한
통신사
제조업체
사항이
목적은
극대화
겁니까
광신도
그해
김순
끼치는
남미
당하지
뭐해
부칸
부인이
브루
산후
수장이
수년간
숙명
안가고
와닿
중인데
크레
##지지도
##수리
##중요
##절차
필요함
국가정보
이준석과
선택하는
응원하는
국정감
있어서다
부탁합니다
무지성
서울중앙지법
심신미약
공표
공장에서
관악
내쫓
대납
문명
방통
안일
어대
장소로
지뢰
척추
털어서
특이한
한덕
휴전
##있어도
##걸린
##티스
##충이
모두의
기대됩니다
참여하여
발표하는
분석됐다
전망도
##다니면서
다니며
보유세
정리하고
동맹국
상당수가
##건설이
목소리도
비중은
꼼꼼히
어우러져
가냐
경기는
그곳
담임
따름
때로는
리조
만기
부럽다
삶과
이듬
징그
할거면
협회
협의가
##판사
##피셜
##병원이
##애를
##꼬라
##라고는
있을텐데
참석하는
선동하고
선거제도
14개
건강이
효과적으로
##산업단지
강화할
지시한
저렴하게
인명피해
B씨가
K리그
교류가
궤변
극좌
때린
떠났
면이
민관
성명을
안뽑
안드로
우기고
종특
창고
처리를
##대깨
##중소기업
##말든
##오르고
##est
##스톱
##립시다
##쇼를
##엇다
10배
많은지
어려운데
학생부
외교적
대학에서
부모들이
코로나는
안되는거
효과는
대책도
1997년
힘내라
외치던
고시원
죄명아
건진법사
김무성
신상공개
개망
당해도
버렸
법원에서
상을
쓸어
없앤
윤희
주춤
쫓아내
추운
평화가
해준다
해보자
##하듯이
##레저
##나라는
##방식이
한국만
##에게만
경찰들은
10만명
말했다고
이러다가
판단할
거짓말에
결정적인
확보해
하기엔
그룹이
기반의
하버드
이르기까지
7점
가치는
개한
균형을
노리고
되풀이
디젤
만이다
못해도
배고
뿌린
용진
원격
일상을
주식이
중이며
팔당
화상
##소녀
##중지
##줄게
##불안
##동포
##여대
##프닝
##웠는데
##총선
##담보
##짱깨
우리와
##이었지
집중할
##하시네
중요한건
위협하는
안나온다
수백억
은혜를
2분기
거들
겪었다
날인
노인이
다각
동거
두개
쓰이는
에듀
여자의
우째
지내고
직결
차이는
치른
투명한
##파탄
##배출
##여라
##분과
##증후
##론하고
##웠지만
사실로
기자들과
지방의
드러낸
서민을
사회적경제
연출이
좋았던
그지같은
뜬금없이
단단히
지나가던
무고한
쉬워
아카데미
우동
중진
중구가
후예
##들처럼
##당해서
##위치
##세이
##스도
##루는
##쾌한
##이나하고
준비해
##이었다는
환경단체
위원장을
구조조
확보하고
제시하는
팩트는
위협을
증권사
임진왜
Ch
KIA
가정이
개같이
그당시
급한
벚꽃
생색
안해서
얼음
일해서
자궁
짧게
차질이
표정이
##시하고
##물질이
##GB
##통신이
##먹지
##말대로
사람이라고
사실과
##보고서
나왔다고
당연하다
목표가
체험을
##수있게
사퇴하고
누군가는
무너지는
활발히
안팎의
##모지리
중산층
내라
받는게
잘하네
재학
저자
종신
주특
주장은
중형
##하늘
##당도
##의무
##해져서
##수만
##반응
##특위
##덩어
##이라는걸
##라이크
적용할
시스템은
인터넷을
상식적인
제도적
정신병자들
불러서
명확하게
경찰청장
소각장
으이구
찌그러져
이듬해
갇혀
나니
남들이
막가
몇개월
생중
소지가
안한다고
않으며
애들을
옳다
욕하면
이랬
정차
지각
티저
##어드
##해임
##해제
##것과
##무원이
##청장은
##러블
##um
##김에
미국한테
##하여야
기사만
알고나
노동자의
우려된다
강화해
개돼지들아
##나오게
위치에
전달하는
ㅎㄷㄷ
교묘
극치
끝은
끝난다
눈도
도리
마블
매뉴얼
변함
비율을
앱을
잇달아
재원
조화를
캄보
킨텍
팽팽
##우려
##48
##오른
필요한데
필요없고
지역별
국내에서는
방송은
발표가
부모를
주장에
적용된
공간에서
바른말
모양의
##상황에
말아먹은
재명이가
##👍👍👍👍
자발적
경기침체
오리지널
민원이
보물
본다면
예매
통학
히로
##바꿈
##바란다
##가정
##졌음
##소개
##슨이
##부턴
##장들이
##학회
##오래
있는건지
게임도
##같은소리
나타난다
청년들
대단해
##산업을
##정책과
자식들이
전환을
인물이다
소송에서
아까워
그래픽이
단독주택
518
##콘서트
안하무인
경각
공제
구인
그토록
끝이다
놈들아
드문
방패
연체
온전히
이견이
입주민
할수가
해서는
환급
##도하고
##님들이
##분열
예정돼
##나오네
자살을
개소리야
비싸다
가르치는
당원들이
태풍이
부끄럽지
구질구질
3주
꼴깝
끝장
낡은
더구나
독일이
동물을
딱딱
때에는
먹먹
문자를
버블
뿌듯
사유가
서정
성동이
유난
줄은
직업을
최전
포즈를
했었는데
##사회를
##미친
##할게요
##이거
##움에
##빠는
게임으로
진행되었다
중요하다는
##의원은
검사들은
13개
##프로는
당대표는
그룹의
연예계
제목의
조심해라
개념을
고마운
부문에서
우영우는
유력한
무게를
유니폼
##소시엄
악랄한
낳아
모릅니다
볼모로
부자가
세비
열을
옮긴
유혹
작가는
줄기
콜롬
태블릿
팩트를
##미와
##인디
##부서
##감치
##증상
##저우
지난5년
정권바뀌
그만두고
##문제는
토론을
펼쳐질
지식재산
원자재
##임대주택
막걸리
국민연금이
가증
금연
내버려
노친
때만
망나니
먹방
부위원장
사직
위상을
일찌
전기를
전대통령
주는데
지날
초범
펜션
힘은
##바퀴
##구니가
##동향
##왔다고
아무데
기대도
좋아하네
##지지자
스스로를
성장하는
성장하고
누군가가
양산에
##효과를
##공간을
보일러
최강욱
앞장서서
양도세
사각지
계단
까닭
말았다
미분양
부리고
스승
싶냐
영국이
입구
자국의
정정
중남
최측근
##주신
##1000
##관도
##키가
##상가
##브라
##햇다
##빈이
##엔날레
해야합니다
시민들은
개선될
40분
공공의
신경도
독립을
mbc는
해양수산
반박했다
압도적
외환보유
패러다
me
내로
방류
볼때
살리고
숨기고
쏘아
예로
잘하지
잘라라
주었다
쪽에
태권
할매
휴양
##기위해
##해보면
##일러
##공정
##산에서
##부자
##27
##셨습니다
##께서는
하고있네
시간낭비
정상은
아파트는
궁금해서
확보가
바꾸면
촬영을
1999년
미안하다
##하지않고
이외에
지겨워
다이어트
가둬
공예
그짝
나눌
놔두
돼지가
못했다고
보았습니다
삼척
소진
어둡
역으로
의식이
잘한다고
정전
조화
지장이
차이로
추출
칼럼
파크
한자
##번호를
##출동
##카메라
언론인
탄핵에
운영이
외교장관
친구는
지방세
판매량이
니들끼리
구성원
존재한다
업체를
빠져서
인구의
일어났다
배경이
취급하는
퇴직금
홍준표가
2022년까지
일회용
화제다
4배
기밀
꼭두
다하는
대의
동성
맞나요
멋지
보류
불통
성수
식상
완성도
우물
원료
잘할
좋빠가
즐기기
채우고
친문
한민족
한눈에
##거같다
##종으로
##회장이
##것입니다
##치나
##청소
##구마
##했거나
##∼9
중국어
##는거랑
관련자
해야하는
자유대한민국
운영된다
보여줬
주장한다
올라간다
괜찮다고
인천국제공항
자격도
사회적기업
소통이
마이너
무사히
추잡한
##😂😂😂😂
한걸레
TS
가출
간장
것임을
보이면
알겠네
우연
이겜
좀처럼
증오
지팡
참패
타인의
털어도
후려
##시에서
##구육
##23
##셔츠
##봤냐
##DA
100여명이
외국인들이
누구인지
지적을
공격하는
##범죄자
신경안
500만
정신차리
카메라를
장르의
겨냥한
평론가
경질
고고
골수
될것을
됩니까
맡기
문턱
빚은
빵빵
사소한
삼고
스틸
에라
에이즈
오스트
우방
일년
적법
진전이
치사
터지는
##가보네
##할배
##일인
##자빠
##심사를
##것같은데
##오게
##절이
##폰을
##연료
생각하는데
정치의
##는게임
정상인
드라마에
만나게
무식하면
합의에
구청장은
긴장감이
압박을
정기적으로
부추기는
그릇이
경사노
is
거둬
당국의
덮으려고
만점
밀착
빌라
살인은
이식
인물을
지냈
취할
형을
##에다가
##주머니
##보낸
##발전에
##봤지만
##련의
한국산
지원한
방문이
방문했다
50만
불법을
출신으로
실시해
월급은
가슴을
출시한
확산을
축하합니다
자극적인
정체성을
가면서
받던
얼리
역을
운이
적시
제휴
합성
##미도
##가야지
##아픈
##만족
##도까지
##창이
##직업
##병원에
미국처럼
정치적인
##겠다며
당신같은
이어갈
이어갔다
삼성물
찾아와
##센터의
과거에는
분야는
뭔가요
반복되는
겨울에
느그들
지배구조
스페셜
곽상도
구성이
김제
내편
대두
만의
밑바닥
별개로
시한
어업
없거나
오기
인하여
전력을
채취
쳐들어
통영
프락치
##지거나
##물도
##없는거
##내용을
##제약
##실적
##증에
##같아요
##초가
##맞춰
##be
##왕이
##홍보
세계로
나오는게
자유와
시장에서는
반대한다
선거가
기록해
##지않다
##경찰서에
제기돼
스토리와
보험사
통과한
강제북송
상관없는
화재로
이영화를
도덕적
비서실장
후안무치
8만
YG
ㅁㅊ
각기
구름
김거니
단정
되네요
뜨겁게
맛과
맞죠
물적
보신
불의
악영
저절로
짐을
찍었다
테니
해줘
홍영
훌쩍
훔쳐
##사실을
##기사를
##월급
##체크
##스케
##억에
##창조
##집단이
##북한
##결혼
##EA
##혐오
있는지를
나라망신
나오나
사용되는
관심없다
과거와
추천한
다니냐
비슷하게
없었지만
부끄러워
느끼지
개혁이
남편은
뉴욕타임
아쉽네요
분노를
절차에
김용태
##부르크
강구
길러
남자의
러닝
명신이
서예
연평균
오찬
질투
##대밭
##소서
##감염
##불복
##답이다
##ie
경제학
관련해서는
상황에서도
언론플레이
특히나
만나지
지나지
추천한다
지켜보는
000만원
건설사
선생이
##진흥원이
남탓만
상징하는
시내버스
화물차
경제부총리
플레이가
걱정을
도자
무얼
성추
심도
연초
윤지오
이라도
자폭
죽지
키즈
협력이
##과를
##치자
##배신
##티를
##포기
##못함
##디스크
##돈은
필요하고
쓰레기영화
위원장과
어렵지만
유치하고
논란은
##국민들
같은데요
움직임을
폐지하라
대통령실에
SK텔레콤
발의한
구속영장
안심하고
거네
구구
그네
던지는
덮고
될거다
등극
만났다
망설
붙잡고
쓰네
아사
자손
잘만든
정언유착
크라
통계를
포도
##안고
##재와
##서버
##브로
##iew
##한거임
삼성의
대단하네
솔직하게
전자파
이슈를
태어나서
영업이익이
유관기관
1개월
공이
구명
길은
내리면
대회의
돈받고
뭡니까
싫지만
와인
저급한
정하고
조국이
햇빛
했기
##할수가
##식당
##이름
##이스트
##처음
##감소
##테러
##플러
##찮은
상황과
방송되는
외국에
예산은
대깨들은
발언에
용산구
파악됐다
좋았을
거부하고
바꿔서
관객들의
##싶은데
존경합니다
홈페이지를
인프라를
꼴갑
낮아서
때려라
버림
보던
불태
어렸을때
용감
원으로
자수
증상을
차분
쳐박
피하기
횡포
##선다
##치않
##오리
##민호
##마누
##MA
##놓을
그런걸
찾아온
부족으로
제주도는
머리카
도와줄
좋았고
한반도에
마누라가
적발된
수천억
받아들이지
저작권
호의호식
9점
고층
권역
기구
냉동
달이
대회에
띄워
맛볼
바둑
쓰세요
일하기
자르
차관이
초토
통역
환자는
##회사의
##보트
##되겠네
##산과
##량에
##브를
##셨는데
##필드
있는거야
중국이나
필요해요
2015
사업비
이준석도
사랑은
산업을
않았어요
오후에
인권은
지구의
검토할
내놓는
당사자가
밝히지
메이저리그
이완용
알박기
공권력
교원
굴복
금전
노망
늘릴
다물
되네
똥이
망상
백인
백제
생김
안간
여당의
욕한거
장소가
적다
파장이
회장과
##적이라
##높은
아니었
당신들은
범죄자들이
당시의
마련돼
생활에
청와대와
참가자
먹고사는
이라크
가정용
짜증나는
비상사태
몇번을
보청기
5점
8개월
갱상도
당원이
방에
비해서
세우는
수직
안가는
윤가가
이연
찬반
퍼주고
##대냐
##에나
##기보다
##강의
##들이는
때문이
필요하지
2016
이용객
##스트리트
2000년대
알려지지
업무가
도시를
##할수있
건물은
소재가
정답이다
둘이서
어떡하냐
방탄소년단의
리스크가
가세연
찍소리도
불투명
탄력근로제
공지
국빈
꽤나
넣는
대개
산소
상금
서귀
수목
용도
이효
장미
##사망
##가봐
##안돼
##습을
##∼10
문제인데
지역에서는
피해자들이
##대표는
대부분을
공무원의
경험한
최저시급
조성하는
논의할
도로가
도로를
3월부터
진출한
어이없네
미안해
st
강하다
개수작
국유
보는거
선수는
순찰
승소
쌍용
역행
이핵관
자멸
토큰
하겠지만
##만봐도
##명에게
##무섭
##TF
생각과
사회적으로
중요하게
보여줘야
##정치인
##활동에
변호사비
하나님을
걸려도
오바마
으이그
흉악범
스타벅스
900
가네
가릴
경희
기자의
놈의
늙어서
동구
버렸다
벗겨
불허
신종
악순환
여섯
요란
유성
유유
유래
인삼
정해져
출하
폭력을
##대선
##미르
##거릴
##지부
##호에
##나눔
##평가를
##법안
##분으로
##측은
##티드
##200
##에서나
##들이냐
##시키려고
안전성
결혼한
##되었다는
혁신성장
매출을
근본적으로
떠올랐다
분식회계
91
걸린다
결핵
단점이
데에
동창
띄는
사극
상처가
성우
알지도
증설
팔면
편리한
품위
하차
하기로
##졌는지
##요원
##하셔야
##원장
##청사에서
##량으로
##2천
##귀가
##ro
##빨고
##ㅂㄷ
지난번
떨어짐
스토리에
##위원회와
시행하는
##하려다
예방을
주문했다
주관한
모집한다
레이싱
배제할
4인
OLED
sk
각계
걸까
말인데
머냐
박해
수없이
시계
신천
약탈
인보
주권
천조
초콜
##들지
##에이
##방과
##치니
##타로
##여고
##99
##꼬박
지역과
있었음
경기지사
##거리지
현실과
기억도
##해주지
이하도
##계획이
무너지고
케이티
채널을
민주화운동
콜라보
패키지
권은희
꼴값
넘으면
도어
됐습니다
못했지만
병합
선조
아레나
여신
왤케
이솔로
일대에서
있더라
지식을
진단을
짐이
쳐맞
취지
터지고
해처먹
호평을
##사냥
##어머니
##고사
##권에서
##겨울
세계경제
조사결과
프로필
영향력
개최하는
경험과
분위기는
윤핵관들이
300여
없었다면
윤대통령은
통화스와
말한마디
벗어나지
가지가지한다
프리미어리그
3가지
3∼4
같았다
고질
구치
급감
두배
몸으로
속을
싶음
않니
영역을
인문학
재가
젠장
직원의
친근
트랙
폭스
##지법
##면은
##방학
##환은
##공단이
##산으로
##오늘
##셨나요
국가인권
시작을
##들과는
200만
어떤지
학교의
판단이다
##문화의
직원들은
이기주의
늙은이
추억의
이따위로
무작정
이솔로몬
2루
거품이
낙인
노령
뇌에
링크
마무
맡는다
면죄
몰린
부수
아따
온국민이
일정한
제도는
주면서
줘야지
흉기
##바른
##1일
##소니
##였는지
##혜원
##천국
이재명만
2014
다른게
보내지
전망을
비교를
핵심이다
사기꾼들
물어보
비상식
종합적으로
무너져
살펴보고
갤러리
구할
막히
못했습니다
부부는
비굴
뿌리를
상기
소명
십자가
자정
정재
주시기
찍힌
초상
행위에
훗날
##돌려
##교실
##표준
##여당
##저감
##즈와
##웃음
##응답
##해야됨
이게임을
모습도
국힘도
확인을
구속시켜라
아파트에
효과도
##해보험
브랜드를
거부권
그래픽도
쌍욕을
레이더
꼭두각
국감
급급
뒤에도
먹이
버리지
빼박
쇼를
실물
안전에
얼어
엔지니
인제
해대는
##PA
##제발
##남기
##실장이
##척이
장관들
사라진다
기간제
역사적으로
나서지
느낌이다
특징을
전세계적으로
제재가
관객이
점검하고
축제의
검찰총장이
실종된
보좌관
th
나는데
넘버
놈도
막론하고
매너
반으로
밸런
비켜
속상
예뻐
주작
플러스
황의
힘써
##지검
##터미널
##주며
##주주
##한마디
##해본
##노무
하는것이
국방부가
마라탕
##했음에도
각광
기승을
눈앞에
랜드
변수가
북에
원금
임무
임기가
잘하세요
좁아
주입
크기가
##이해
##명씩
##진료
##파업
##부패
##든데
##테이션
##품질
##머리가
이런말
다른거
12년
##이었네
##라이언
올라가고
이름도
스스로가
역사적인
안되는게
신경써
##려야한다
##생각이
개정안은
아버지는
환율은
진정으로
든든한
SC
김은
먹었
모터
볼수록
아시는
양국이
유물
유세
입었다
작고
적으로
증대
증정
탁현
터무니
호출
##다보면
##가치가
##하구만
##개딸
##림의
##간부
##힘을
아니었나
사회는
지원과
사람이면
##스럽지
남북한
분야가
바보냐
고민하고
커피를
방탄소년단이
끔찍하다
행안부장관
김부선
개꿀잼
일찌감치
서귀포
감자
권영
그늘
다친
대강
되기도
많냐
사칭
영업을
있겠습니다
적었다
전하고
집사
커넥
클러스터
##관리에
##방식을
##내면서
##오줌
##모닝
##핑크
##낮은
##컨설팅
이런것도
지지한
수사나
좌파의
중요합니다
추진된다
##아니야
다니지
높아지면서
근로자가
장난질
무섭고
짱깨들
다수당
5천만
비겁한
수험생
듣보잡
강용
교역
기만
누르고
사막
사탕
삼각
세게
실려
영리
우정
의해서
일이라고
조형
주거지
지체
통하는
한자리에
##나갔
##처에
##업계가
##제거
##스틴
##테니까
영화보고
이재명이가
문재인도
다양하고
오늘부터
##기관에서
##시설의
존재하지
##업체를
중간중간
차례로
죽여도
아기자기
표적방역
박민영
달콤한
안방극
8억
가석
넘길
넣어서
더했다
던지고
돌연
만하다
말부터
맞대
문맥
본연의
분해
사학
싸움을
열쇠
우겨
재검토
진리
총장이
키움
타워
폭풍
피부에
해상에서
헐뜯
혼인
##아깝
##어떻
##만나
##에미
##명이나
##오브
##받으며
##싶네
##친구가
##겨운
##묻은
게임인데
##기에만
공정하고
문재앙의
추가적인
보호하는
제작된
담당자
눈치보
##체육관에서
외치며
지저분
극장판
님이
다할
마산
무의미
배워야
백화
손놓고
이씨는
통째로
팔자
해소를
##개돼지
##진구
##연락
##격차
있는거냐
국민건강
사회로
##기업인
누가보면
의원들의
연구소
500여
설립된
목숨걸고
대다수의
끝나지
부르짖
언젠데
기온은
##버렸네
시중은행
5시간
감성을
꾸미
나흘
대국
대작
독창
민중
부검
살리기
승점
영장을
오세요
우한
웃김
유재
의왕
임금이
천하의
피자
한동
##없네요
##중대
##속도
##됐는지
##항이
##플라
##하는건데
금융위는
주장도
##정책의
##소득이
##하시네요
사례로
혁신성
수익률
방역을
연예인이
안철수는
실내마스크
그리스도
징벌적
교황
니미
말처럼
말했습니다
맡게
명에
무차별
선점
실형
씹어
안감
여친
이인간
종자들
질문이
채소
판검사
한거지
##평점
##겠노
##ly
##운송
##찾아
##영화다
그렇게도
200여명이
참석한다
해결이
사과해라
부동산은
도시로
주인공의
관측도
임시정부
죽음의
괜찮은데
레이저
줄여야
하야해라
컨텐츠가
##폐기물
05
1억원
DJ
꿈과
난청
노년
당했다고
디즈니
매립
미소
박아
스텝
심의를
의장은
자백
잔디
장교
장자연
절로
죄질이
지을
진즉
짓이다
참을
취지다
키가
화염
##미팅
##회관에서
##역시
##마스터
##망에
##퍼가
##는거는
당시에는
소리냐
참석하고
작품으로
국회의원들이
신고한
집값을
은행에
개판이네
민주주의가
이곳을
펼쳐졌다
체계적으로
마땅하다
이게임은
전동킥보드
가봐라
가구가
거짖
뒤질
마신
만이
못해요
박차를
삽질
싶지만
안난다
열흘
영동
오케스트
원주
윌리
주문을
탈모
평이
한명이
혈안
##시안
##도없이
##리려고
##서열
##업종
##문에서
##죽이고
##귀를
##품으로
##엔터테인먼트
이상해
다시금
경기장
언제고
해결해야
기록할
경쟁률을
지속되고
한다는게
선정돼
반성은
안타깝습니다
수비수
구제역
##터테인먼
구사
대하는
밥도
본보
부부의
사지마세요
상상도
성향이
스미
인맥
중등
한순간
##드러
##으냐
##오냐
##양호
좋아해
책임지
계획에
##하는거고
설치가
움직일
없다는게
매출액
의심스럽다
다행입니다
만드냐
공공기관이
특혜를
민심은
니콜
멀었다
명박
범개
비영
상급
성찰
쌓은
안을
왕복
자세로
장거리
주전
지내는
축제는
컨소시엄
탓을
한탕
한시간
##쓰레
##이노
##명하게
##십쇼
##입국
##포트
아니랄까봐
대통령이다
시간만
관련하여
대학은
없애는
치료제
언급하며
불이익을
객관적으로
즐거움을
치명적인
dlc
사우디아라비아
공정이
논리면
능가
답없다
묻지마
역동
오페라
용돈
일가
재생에너지
주댕이
지위
폭격
형벌
##주셔서
##내외
##버스터
##말아
##두구육
##군으로
##마케팅
영화임
##더니만
내려라
##지역이
인상으로
혁신적인
가져올
기념해
선보이고
##아닌가요
지시했다
자산을
다녀온
찍어준
1조원
도민들이
2기
과기정
관건
동탄
못하는게
물놀
바리
빌보드
신원
아들의
알수가
와라
용기를
우루
유린
젠더
짧고
출현
통일을
팀은
호화
호러
후기
##가보다
##요소
##침이
##근성
##공모
##난을
##6개월
##찬성
##길은
##담배
##균이
##하는것은
생각이다
너무하네
보고를
경우를
##정권에
부족하다는
대체복무
참가할
공부좀
자살한
자식은
아름답게
대신해
뻔뻔하고
기반이
간단히
구속영장이
김명수
엘리베이터
한글패치
과기정통
1의
ㅂㄷ
가리고
교류를
넓혀
동생이
마실
못이
무비
벌거
보지도
뽑았다
안보는
에로
옮기는
와도
의사는
잃었다
자생
저해
전전
직속
짙은
총장은
통증이
혈세를
##기계
##이기에
##구간
##려다가
##떨고
##나라를
배우자
주민등록
안되네요
드러내는
권력은
##하시오
기다릴
늘어났
사퇴하라
관객을
명예를
##자치단체
하수인
벗어난
3기
In
거면
결단
김윤
높아서
단합
머지
머가리
비무장
뽑으면
선착
성질
연기에
오더
종업
최정
출자
피같은
하아
한없이
##시나요
##이군
##회원
##규가
##있다가
##병원은
##쪽팔
있을듯
자기의
않은가
##사회에
밝혀진
바뀌니
월급을
시즌을
비상상황
고위공
e스포츠
건수가
결집
두목
물었다
부임
수제
암것도
압승
원동
이뻐
지성
흔들고
##없지만
##고와
##수나
##진으로
##했죠
##악질
##DS
##는거네
정치질
아이구
이러니까
말이죠
현대중공업
조직적으로
목표는
브랜드가
가스관
##ore
왔다갔다
완료되면
접수된
우즈벡
고스톱
덮어씌
아메리카
막내딸
##산화탄소
짱꼴라
경부
구한
구두
닮아
따까리
똥은
똥싼
매몰
미소를
밸런스
비빔
산은
산지
쑥대밭
앞을
이과
졸속
주부
증액
징수
철판
탈바꿈
특기
학계
##하리
##린게
##적용
##오는데
##포지
##카가
하는건데
지금이나
하고있다
##기업들이
기대에
##스트가
설치돼
관리하고
적용한
신고했다
##경찰이
조직의
나올까
정신병원
소통하는
##아닌데
포기하지
정리해
추억이
우영우가
조언했다
정계은퇴
멍멍이
최저임금이
어쩐지
초콜릿
3분기
골빈
국책
그돈으로
낙찰
랭킹
마시길
말아야지
변희
서장
선순환
쓰던
쓰는게
안부
안에는
억대
여력이
왜들
윈도우
인텔
전방
충격이
탈세
펼친다
핵폭탄
##하군
##까는
##분립
##26
##단절
##ip
##루를
시작될
30프로
장관도
투자에
##을까봐
선거운동
기억하고
출신들이
강조하고
집단으로
성장한
논란의
수행할
긴장감을
##자동차가
틀니들
자치단체
대대적으로
정경심
더불어민주당이
ch
겁박
그자리에
도려
모가지
바란
불분
생명이
세습
않거나
역량이
열기가
오전에
이동이
자재
중점을
처리가
총력을
추하다
후폭
##국도
##세서
##것이지
##치매
##무대에서
##적폐
##넘들은
##베르
한국형
지지할
들어왔
검찰에서
15분
여러모로
감사드린다
머리로
뉴스는
지구에서
쪽팔리게
누군가의
유승민은
개검들
무한돌봄
공평하게
로그인
고구려
노르
다리를
당정
도대
로딩
모듈
못쓰
못들어
민형
배워서
범위가
설치고
세븐
숙련
양해
윤뚱
일들을
전념
종식
창단
체제를
핵전쟁
활짝
##대상은
##차이나
##차적으로
##보러
##자살
##유를
##여행을
##마의
##욕에
##는데요
영화인데
정치견찰
들어가지
그러던
시간대
설명할
한번이라도
지방에
올라간
결정적
유럽에서
않았다면
2024년
방향이
기레기들이
제목으로
##상공회의
등록된
창출을
아쉽지만
나름대로
찌질한
세무조사
곤충
내시
대조
드러운
뛰고
만만한
문장
병원이
봐요
뿐인데
살인이
속히
스폰
왔어요
지칭
추행
축복
치자
탐방
퇴보
편지
해줬
했으며
했어도
휘말
##터널
##검사가
##탄이
##수석이
##진않
##공원에서
##자너
##것보다
##오나
##연장
한국노총
국힘과
국힘당이
지난해에는
지도부가
늘어났다
밝혀야
더듬이
비난하는
수행하는
이루어질
만드는게
금액은
##경기에서
시끄럽
충격적인
초대형
먹여살
바르셀로나
강서구
임진왜란
2만원
4조
6000
강호
고딩
교회를
두뇌
목이
백종
아웅
여운
운전을
작금의
준표
출세
패드
하느
헛소리를
##국힘
##전담
##근데
##서치
##실망
##증명
##철을
지지하지
전문성
탄핵당
이해불가
투자할
당시에
과학적으로
서비스에
관리할
##한데다
마지막까지
##이상은
상승한
아버지를
여기저기서
호흡을
##ame
625
저정도면
5살
고공
끼어
내렸
더해져
따지고
막힌
몸매
반입
빠지
상봉
서슴
쌓인
아미
영주
일사
파열
##국짐
##거도
##지루
##터에
##의학
##돌고
##진보
##37
##년은
##손손
##묵고
때문이었다
수사의
댓글은
재밌었다
##적이지만
증가에
도시계획
자연스레
표현하는
운전기사
보기에는
정당화
조치로
올랐는데
아깝지
웃긴게
어처구니가
2단계
3명의
것만으로도
나열
누진
다투
동감
새우
소나무
웹사이트
자화
재범
주역
차원
책상
철밥
파월
표정으로
호위
흰색
##거주
##설정
##고로
##량과
##창호
##운운
##글이
생각하며
기대하는
있었으며
전문적인
투자해
조작을
지방은
##던데요
우려되는
가지게
데이터가
아쉬움을
왜이러
죽여야
##ity
일방적인
스티커
임종석
맞물려
강수
군대를
기적
깔고
꼬봉
되는거야
떠났다
버섯
별반
불체
상설
쓰는거
씨앗
안착
원로
월등
자원을
조류
지우
추앙
행보
회전
##가니
##이준석
##등으로
##협회는
##기업과
쓰레기다
사이로
않았기
바이든도
시스템에
들어가야
비싸서
경찰국을
##본부장
나쁘다
정은경
담겨있다
##신문은
신한금융
쓰러져
추경호
온실가스
눈가리고
0점
7명이
값이
멈추고
뿌리고
사연
시시
안건
알코올
오거
왕세
재조
지친
총체적
##만으로는
##받았
##끼들
2013
기본도
작품에
전체에
사라졌다
적용하는
관광지
상승으로
고려대
논의했다
사법리스크
연결된
자주국
그림은
액션도
토론회
이정도로
관람객이
확진자가
이나라를
객관적인
트위터에
장점이다
인지도가
일제강점기
개신
깜이
날마다
낫다고
때를
몰빵
몰리는
분배
서산
시대는
안중
않기로
알지만
외노
이남
이빨
이거지
인연이
채로
평년
플라
헛짓거리
##석희
##자야
##업계의
##론은
##족들
##활을
##ㄱㄱ
##갈때
한국식
문제점이
이상하지
들어설
범죄자는
학생들과
연구원
무능의
올라와
개최하고
적극적
지켜봐야
바보들
여행객
무역전쟁이
미안하지만
##떨어지는
ICO
아이디어가
화성시
어딨냐
열등감
쓸모없는
각별한
관상
굥정부
귀농
김두
깎아
뒷북
만져
보이기
시부
안받고
옳다고
작아
저급
전대
지진이
터치
##지출
##질서
##유도
##4개
##더미
##조달
##못하면
##넣어
##싶어서
##념이
윤석열이는
검찰수사
수준도
건강하고
우려했다
안보이냐
공간에
4월부터
선발된
유튜브에
진정성
기아차
구도
되새
되지도
마리가
말던
문통이
밀접한
방콕
상류
얘기도
워너
월스트리트
주실
증진
컴백
표방
해먹고
##어쩌
##물며
##는디
##기냐
##부인과
##등은
##꺼라
사람이나
민주적
서울고
없어지고
해결하고
전망하고
정의는
자체도
하락한
사기꾼이
5월부터
마라톤
민주주의의
존경하는
문정부때
기름값
CP
구하기
넓고
맛있게
맞는다
맡길
머무
무기로
별루
불거지
쓰잘
앉은
에고
저것들이
짜장면
하든지
##식도
##설비
##권익
##랜드는
##숭이
정도에
##해주길
지속가능한
고민하는
들어가라
개판이다
이루어져
너네는
나무를
체결한
이리저리
구멍이
퍼포먼스
스캔들
사이코패스
날은
넣으면
농약
두면
들러
붙어서
설렘
시신이
알겠냐
야비한
오게
요소를
이토록
작자가
저들은
전승
짜집
초선
치부
크리에
편을
표면
할거다
##지켜
##호흡
##이신
##공에
##금에
##박사
##코미디
경제와
사회와
##기업은
##시키려는
노동시간
트럼프가
참가했다
대만의
결혼은
지켜볼
##업체들이
그때도
##방송이
안정적
##igh
훠훠훠
캄보디아
홍영표
1만원
4회
강타
강탈
골때
꼴도
논리를
딸의
몰상식
못했고
분들도
붙었다
비혼
산악
성실히
시도가
실체를
알레
윤항
의병
입대
잡혔
정하는
주정
짱께
카타르
탄력을
한줄
핵개발
##듯하다
##노래
##제대로
##팀과
##분도
탄핵하자
##시키려
공개된다
산업에
해결책
제공하기
재판에서
도입이
능력있는
조성된
평생교육
교수와
바라며
##수수료
해임안
채용비리
도민의
법정에서
외환위기
일시적으로
가중처벌
연동형
야생동물
한시적
막강한
인프라가
MZ
공기가
과열
도울
변해
서브
양두구육
에릭
연관이
왜그러
용어
우아
원에
장단
전적으로
쪽에서
통장
한개
합산
##요청
##거려
##해줘라
##팀에
##65
##년전
##카를
##래프트
##ON
아니기
문제점
##겠다는데
나오자
모든것이
결과물
잘못이지
조사도
어디가서
검사의
인정했다
올라왔다
##기술이
선정했다
많아지고
윤대통령님
학부모들이
기가찬다
콘서트가
급격하게
9급부터
tvN
안녕하세요
5번
70년대
RE
공신
극중
긴밀한
깽판
나을듯
달리고
바르게
불황
식중독
알리기
요금을
이기고
자세를
전역
점프
찍었
창문
터지면
헐값에
흔드는
##니들
##부림
##있구나
##출신이
##멘트
생각한다면
자유는
프로야구
하루를
청와대를
유럽이
처리할
바뀌었다
파악할
가입자
하늘에서
내놓을
AI가
검증된
만남이
네트워크를
##사령부
어마어마한
우상호
된장인지
세련된
꼬박꼬박
천주교
거센
공헌
공사는
과감한
대머리
떠나고
면적
반기
비단
살아야지
세번
에코
윤을
잃어버
저들이
총선을
##대네
##하거라
##영과
##상대로
##인드
##프란
##했나요
##블로
##단지가
##총회
##끼가
##논문
한국어로
이런영화
정치판에서
시작이다
100프로
탄핵해야
확인하기
##부분이
광주시는
받았지만
개정안을
가정에서
전해진다
모르겠어요
쏟아졌다
바다로
예고했다
작용할
발사체
쯧쯧쯧
##하지마세요
한숨만
다물고
마셔
믿습니다
번씩
성격을
어필
열정을
원전을
전까지는
점거
평가는
할래
##기에서
##이리
##공매도
##세권
##버튼
##증가
##패가
##절차를
##코로나
##OA
##풀어
하는건가
경제위기
##시켜야지
살아가
주변에는
생산이
개최되었다
살인미
기다려라
평생학습
펼쳐지는
##스러움
##시스템이
생겼는데
합법화
행정부의
마침내
NA
낮추고
뜨겁다
보시길
뿐이지
숨지게
승승
쌍방
최첨단
필름
할수록
##많네
##지들
##라니까
##상실
##th
##창을
##블리
##광장에서
##극을
2012
금융투자
##스럽네요
공무원을
상승했다
보호하기
바보야
구조적
이사장이
출시된
프레임을
돈벌이
##일뿐이다
경상북도
부진한
##최고의
어떨지
천벌을
앞당겨
한통속
무슬림
7개월
고유의
김형
농작
못느
몽땅
미군이
빠지게
사인
사촌
사는거
실증
알릴
의도를
이인
주옥
줄인
팬들과
하에
한순
행사의
##다녔
##차원에서
##어려
##해체
##권분립
##발사
##5개
##매치
##씨에
##담이
##MS
그러게요
언론탓
좋아하는데
다음과
배우의
개발하는
소비자에게
나가겠다
의료기기
난리네
음식에
##생각은
장난하나
진출이
하여금
특징은
경북도
뉴욕에서
단계적으로
홈페이지에
추종하는
손흥민은
2명을
K팝
감리
개돼지가
고3
공약을
구워
금리는
난독
둘은
몬스터
미지수
밝힐
변질
보충
사범
사지마
수치가
신안
실장은
안되어
얘들
착륙
참관
홍근
흉기로
##의힘
##준다는
##노조가
##말의
##여건
##맞추
##연봉
##갱이
##알지
##머리를
##잇는
##칩니다
그러다가
지난해에
시장경제
외국인들
사과할
부산에
바이든이라
안되니까
##회의는
재판부가
시행하고
근로자의
예술의
배경에
헌법에
주문한
골프장
고마해라
인하대
무게가
패거리들
신중하게
EX
가보
걸어서
고충
내장
때다
또라
많구나
말해서
못참
문체
보답
산사태
삽입
신작
실상은
없을까
우편
울려
으휴
일인가
제왕
죽었
쫒겨
치즈
한껏
할려면
향하는
##관리가
##석아
##심리
##인거다
##ki
##연하게
##현상
##강이
##커스
대통령이라니
중국가서
잘못했다고
국제적인
24프로
##업체인
영상으로
수입차
예술가
보이네요
문재인이가
무엇보다도
1980년대
태어났
입으로만
작작해라
기대해본다
수신료
최후의
리재명
망언
비치
샀다
상상을
악법
주체가
흘려
##지옥
##라를
##1개
##해짐
##나불
##자네
##마토
##직은
##TN
문제고
이번주
관심은
넘어섰다
의혹으로
개최를
업무협약을
이야기다
##만큼이나
시키지
##되었으면
대중의
물어봐라
양아치들
제목을
##ㅡㅡㅡ
오르지
##가족이
주둥이로
후원금
윤재앙이
어르신들이
김태흠
특성화
2세
가려고
농락
더운데
러샤
뭐만
발이
법정에
봐주고
빼먹
수산물
시신을
쌍용차
엿볼
옆집
오마이
주디
철새
파주시
한것도
함정
햄버
##하든지
##1억
##방사
##내려고
##4억
##곡이
##복구
##술이
##망정
##합창
##욱이
영화라
때문이지
자신도
사건도
개발자
사랑스러운
##민주화
전문가들
선수들은
선수들을
상승을
##범죄가
대법원은
바뀌지
없었을
내일은
똑똑히
생태계를
서버가
벗어날
포르투
원산지
80년
거칠
것일
경신
공갈
데서
두바이
마피아
싸움이
우익
위중
접한
차릴
퍼부
##지원이
##라인이
##소릴
##비드
##그린
##6000
##여사
##론에
##2일
##29
##못한다
##특구
##싶으면
사업자가
돌아간
탄핵하고
자유로
가족들은
예상치
##시설과
어쩌다가
투표로
변호인
구매를
사법처리
그나물에
인구는
사태에
모자이크
SK하이
보낸다
저기서
지껄이는
부당하게
선한영향
호기심을
캠페인을
DS
갈아치
그루
낸다
다산
되려
듯이
땅에서
부러워
성균
성소수
어머
외쳐
웃으며
웨이
이정부
인허가
일정에
텍사
헤쳐
##사주
##명에서
##수용
##VD
서울지방
아무생각
##시키며
연구에
조작감이
살인죄
표현의
국정감사
올려놓고
검수완박은
등장해
##노동조합
성남FC
조언을
적절히
돌입했다
은근히
징글징글하다
프렌차이즈
2분
동래
막지
방출
삥뜯
상권
실거래가
안경
알겠지
완장
은평
일품
제치고
지민
탐사
태영
허나
헐리
협상의
##대나
##가격이
##의견
##화도
##던게
##행복
##광이
##😡😡
경찰국이
모르겠습니다
어디에도
러시아월드컵
시장으로
내려진
거짓말은
선택의
집중하고
60세
하락이
수입을
회의가
1995년
##발전소
주관으로
부작용을
안맞는
한진그룹
과실
낫겠다
똥파리
뜻대로
머니
봤나
봤냐
어드
여부는
오징
이리도
인위
트래
파업을
푸는
피터
##지경
##밖으로
##치는게
##제국
##오픈
##십자
##셨네요
##탱크
##퇴출
##끄럽
것이기
##기업으로
만들어내는
시장과
투자자들의
드라마로
추천하는
신경써라
##반도체
없을듯
500억
인물로
이놈아
산불이
객관적
면세점
이뤘다
특별감찰
악영향을
나게
나갔다
남짓
납세
도정
똥오줌
로컬
물품을
사우스
새만
순회
쓰라고
여동생
오렌
이자는
입지를
있길
지수가
직원은
출토
카지노
타격이
토종
팔을
혼합
##사단
##할거면
##기면서
##원자
##수렴
##난거
##쳤고
##누구
##매일
##승인
##홀딩
정치판에
##되는건
30일까지
##시키는게
15억
추진에
계획은
25개
설치하는
지도부
제시하고
찬성하는
게시판
삶은소대가리
공정을
구하는
그후
근래
다릅니다
덴마크
돈버는
드나
들리는데
따지는
매장을
먼가
바글
보라고
북구
비키
생방송
실수가
윤가는
인플루
폭우
##다오
##난이
##투성이
##희의
필요하면
국가전
정신줄
이준석이가
해야하는데
기사들
개발과
소리야
정보기술
안되요
개딸들은
형태를
도민들의
유동성
티켓을
어색한
소득주도성
김병준
미드필
ES
결사
골드
급변
너처럼
말하며
배추
법규
비어
손실이
싶었는데
아첨
얼만
열띤
퇴사
투자는
파출
페르
##미국
##주시길
##종목
##보는게
##노스
##말아먹
##행동을
##마드
##포스
##양성
##뱅이
##밀어
##털이
우리나라만
나온게
5년내내
##되지않
주민들에게
시행된
차량의
대응에
다르냐
선보이며
저지르는
간첩이
생각해보면
1994년
선언했다
##시험을
백악관에
다운로드
TSMC
비영리
갖은
거제
광장에서
끊고
남성은
내면서
다가가
먹었다
서쪽
언어를
위함
잇몸
전속
전에도
제때
준스톤
큽니다
택시가
홈쇼핑
##바위
##시스코
##할까요
##지수가
##주려고
##개판
##학위
##모리
##행위에
##쳤다고
아니가
설명해
방문하여
사기친
국제적으로
조금이나마
생산을
하락했다
구매하는
감염병
초청해
맞추는
상환기간
##신청을
무소속
시뮬레이션
2030년
같던데
검정
도요
동문
말려
모자를
미끼
사다
생명의
세울
소원
순조
순위가
승리의
오미
유방
음반
이통
저쪽
조잡
죄값을
쩐다
하겠나
합당한
##가지를
##요구
##기게
##수영
##ob
##훈의
##손실
##맹이
재미없고
개인투자
주민과
현대차가
확보에
방역은
액션이
울산시장
개의치
사로잡았다
바람직하다
마크롱
김남국
신재생에너지
새누리당
스트리밍
초토화
갱신
남대문
노선을
못봐주
무당이
박힌
범인이
산출
쓰여
오름
자질이
절도
조져
조양호
진료를
징집
총재
키웠
타깃
허세
##아녀
##만이라도
##1도
##로에서
##중학교
##77
##조성
##조사는
##애는
##HO
10명이
이재명한테
일본처럼
해야하나
노력해
자연의
신청하면
가져온
##수준의
##바이러스
31일까지
제한이
전면에
어울려
선물로
팔아먹고
양측이
뛰어넘는
넷플릭스
교주
꼬우면
나음
누르면
단원
마눌
모질
모닝
배수
빠르
알아요
어버
우체
인사는
일깨
짓만
처박
출구
충주
카메
토나온다
트레일
확대가
효능
##다르
##1호
##10년
##때처럼
##타당
##있었는데
##겼는데
##킴이
##한다니
##사람만
저런것들이
운영되는
가족에게
만든거
대부분이다
특별법
대선에
도로에
##수준으로
국토부가
정신차릴
자율적으로
전자상
기가차
교사들이
버티는
성동아
개연성
주유소
FPS
re
건네
김도
깍아
누르
다리가
돌릴
되겠지
둘중
말하는데
매장에서
믿기
보궐
섹스
시의원
아네
알선
재편
재확인
제도로
지들만
##대우
##점인
##ap
##러시아
##베스트
##죽을
##찾기
정말이지
경제위
##나라에
떨어졌
이해는
마련하는
서비스로
발전소
우려하는
개판이
##and
폭행한
내놓았다
바다를
하도급
잇따르고
3연
광산
군인이
답게
많네요
무거
산다고
않기를
원치
일벌
잃지
입체
있더라도
장재
조연
태평
티셔츠
표정을
하느냐
한도
##대중
##터진
##주간
##리니까
##해산
##자라는
##파일
##치우고
##교섭
##순방
##겟냐
##뽑아
##밑에
문제입니다
좋은일
저런건
전문성을
##교육과
##한거는
마련에
마련이
구속하라
먼저다
빠져나가
확정됐다
성남시장
위협이
저소득층이
##금지법
슈퍼주니
사항은
떠오르고
광복절
착수했다
그립다
남녀노소
8살
낙관
밟고
시기는
운반
을지로
지인이
팬미팅
##나야
##임은
##인대
##줄이야
##장에서는
##말만
##플랜
##봤음
아니란
생각안
시작은
다시봐도
##있다면
기본으로
##정책은
결혼도
안보인다
발견했다
늘어난다
모지리가
다르다는
고통이
##만들어서
##ard
##좋아하는
이영화는
대사관
감당할
부끄럽지도
무언가
미드필더
4분
겪을
군에
날린
래퍼
많았는데
망작
무방
박병
발레
벌벌
병사
사안을
산에
삼전
시카
약쟁이
에도
연중
윤종
잘가라
잡으려고
팀장
풍성한
피지
해법을
회생
##신문이
##임에
##업의
##마일
##포장
##년생
##탈출
##매출
##총을
##글을
##싫은
이유에서다
알고보니
의미는
강화에
하락세를
불편이
반성도
판사들이
한미연합
화이팅입니다
대통령실에서
##만명에
어이구
평양에서
선언한
수수료를
충남도
비로소
콜롬비아
se
각인
그레이
논문을
뇌피셜
도피
메리
분포
빠지면
술이
엄중한
열정이
유영
유은혜
육성을
주자
준다는
천하
침대
풍성
하물며
해보면
##신가
##공학과
##었죠
##항만
##각서
##단말
##현과
##층에서
##놨는데
##퍼런
##컨대
##캠퍼스
##하는건가
한국경제
얼마를
공개돼
내려온
조작한
주민들을
힘들어서
처리하는
없었음
엄마의
삼성전자의
아쉬워
수도권에
따뜻하게
논리적으로
들어서면
혼란이
나아갈
두번다시
정치권에서
깔끔한
김연아
아랍에미
산업통상자원부
고기를
구름이
나가지
날리는
대포
레저
미꾸라지
변형
섞여
신화
에버
여튼
영예
이더
잃을
잃게
절제
정형
정류
총동원
패권
피싱
한놈
핵이
##안되고
##RI
##중단
##비만
##비율이
##체스터
##출혈
##모는
##연습
##양은
##결에
사람이냐
노력한
무시한
기능성
다르다고
니네들
늙은이들
웃기지도
자치구
국토교통부가
관여한
잘돌아간다
2로
2위를
ost
노사가
동정
못찾
밖의
반격
빚이
빠짐
시트
싹쓸
아기가
양키
열풍
올리기
잘하는게
짜르고
총리와
해달라
##리에서
##영어
##수원
##환을
##2개
##잖니
학교폭력
소리로
마련해야
반대합니다
요구할
사형집행
대비한
궁금한
##사회에서
경영권
있지요
대통령실이
1990년대
단계에서
어릴적
수치다
사로잡는다
더블어
무정부상태
1주일
할줄아는게
##여러분
ㅂㄷㅂㄷ
오거돈
가던
김천
당하면
데에는
돈내고
뭐하노
비서관
신나는
아토
영변
응용
잡았
주소를
증선
초에
평산
피서
##시기를
##수선
##서니
##말까지
##얼마나
##500
##햇는데
##등의
##봉투
##촉진
##갔고
경찰조직
자신감이
정권과
30억
여러분들
말이되나
##진다면
공산화
청년들의
수출을
노조의
중앙일보
##인으로서
아프고
삼성전자와
거부하는
자빠져
가치도
생명과
##것같아요
뇌물수수
어지럽
이메일을
세입자
뒷담화
공직선거법
4명의
경감
굥과
데일리
됐을
드래곤
디아
목요일
본사가
신비
안의
없겠지
유공
주제가
줄거리
지정한
체리
##가는거
##만세
##터에서
##개선을
##체제를
##혀라
아닌게
사실이라면
범죄의
의원도
기자양반
증가해
건강과
힘들다고
출신들
얘기하고
도시락
기다려야
##업체는
요청이
논의하는
대신에
건물에
기초생활
비싸고
소유한
몰랐던
기울어진
물리적
싸지른
저축은행
08
RPG
TBS
강풍
구성을
나들이
넣어야
느린
다변
바램
박주
복음
붙이는
쇼케이스
신변
알라
애잔
역임
응모
전보다
진천
타락
폐지를
핑크
##면접
##데리고
##se
##류는
##훈은
##농도
##냅시다
##이라는거
생각없는
북한과의
무슨말
##으니깐
기사님
기사라고
탄핵만이
보여서
금융기관
절대적으로
어느새
어린애
개최됐다
##하시기
##하시나요
능력과
동물보호
거주하고
미쳤네
##업계는
가석방
8000
개사과
거둘
달게
더위
말던가
바위
발동
부메
북극
사납
섬세
시집
역차별
자괴
젊고
제법
죄책
죽창
찢은
친미
팔이
해프닝
형량을
##어가는
##지니까
##개미
##데가
##중립
##비상
##그림
##동기
##걸음
##절대
##맞춤
##코가
##갈수록
##OT
##한다는데
생각했던
중국과의
일본한테
범죄로
만든게
자리로
빨갱이가
##되었을
사례도
소방서
상식은
거리로
의무적으로
배경에는
애초부터
개입한
연계한
아름다움을
날리믄
기쁨을
유익한
톡톡히
2연
VIP
가습
강세를
것이라며
결탁
깨어나
끼친
남과
단기간에
라스
망했다
법칙
스코
실체가
암걸
엄정
업계가
우수사
재건
조치는
진열
폐암
프레스
##이어서
##인배
##4명
##량도
##m의
##조폭
##졸업
수사할
기사좀
거짓을
이러면서
한심해
요구하며
##겠냐고
공감합니다
